<unk>
<s>
</s>
_1
▁の
▁,
▁に
▁る
▁を
▁た
▁し
▁と
▁。
▁で
_2
▁は
▁て
▁い
▁が
▁な
▁れ
▁ー
▁す
▁ン
▁こ
▁ら
▁よ
▁ス
▁0
▁ル
▁か
▁1
▁あ
▁り
▁2
▁)
▁さ
▁っ
▁丠個下下丂
▁丟丂下倏
▁倆倁丟个
▁ト
▁丟个個丠
▁イ
▁丫丂丩丟下下丂下
▁(
▁お
▁も
▁丟下下丂下
▁め
▁丟下丌丂丟個丟丟
▁つ
▁丩下丠下倂丂倁个
▁丩丩倀下丂下丟个
▁き
▁ク
▁シ
▁リ
▁丟丂個下下丟個丩
▁タ
▁ラ
▁C
▁ま
▁く
▁3
▁下下丂丌丂個下下下丂下
▁下丠懶丟丩個
▁丩丩丌下丂下懹丩
▁
▁ア
▁倁丩丫丫个下下丠倏
▁下下丂丌丂個
丂丂下下丂俿下丟倅丟个
▁そ
▁下丫倀丩丌丫丩丂個下下倏
▁け
▁下丂丌丩下丩丟下丂個下下丠倏
▁う
▁下丂丌倀丂倏
▁ッ
▁丠个下丂俿下
▁−
▁5
▁ロ
▁丟丟丂下下倆
▁プ
▁ム
▁下丠个
▁丩丩倀下下下丠个
▁丩下丟丩下倆丩
▁倂丂丂倂丂
▁び
▁丂個下下下丂個下下下丂下
▁丟下下丂下丂
▁下丂下
▁・
▁俿下下丂倂下個丂個下下
▁丩下丂俿下丂個丂俿下
▁丂個下下下丂丟个
▁4
▁丂個下丂
▁m
▁下丂丟丩
▁や
▁俿下下丂倂下個丩丫下下丟个
▁丂個下丂俿下
▁P
▁.
▁え
▁下丂丂丂俿下懸丟下
▁デ
▁丟下丂個下下下丂丌個丠
▁テ
▁丟丠下丂丟丠下丂丂個下下下丟丩
▁S
▁丩下丟個
▁下丂丟个下
▁丂丁下
▁ど
▁丟丂下丂丟个下
▁フ
▁下下丂下懸懹丩倆丫丩
▁a
▁丟下丂丟丩丟下丂個下下下丂下
▁O
▁エ
▁下丂丩
▁丩丟下丂丟丩懸丟丌丟下丠个
▁丟倁个丠倔
▁コ
▁丟倁丠個下丂下個丠丟下下丂
▁下丠丠個下下
▁丂丂丩丟下丩丟下下下丂丫丩
▁A
▁下
▁オ
▁懺懺丩丩丩下丂下丂俿下
▁懹丩丠個丩丌下倃下倏
▁丩丩丌丂個下下下丟丩丂倆
▁レ
▁ネ
▁e
▁下丂丌丂個下下下丟個丟丟
▁9
懸懺丩懸懺丩下懶丟丩丟丩
▁丩下下下丂個下丠個下丂下丂俿下
▁丟下下倌丟丩
▁i
▁下下下丂倕丫丩丩丩
▁丩丩丟丫倀倀倆下
▁ジ
▁個丠
▁グ
▁倀倆下
▁カ
▁モ
▁下下丂丟丩
▁ド
▁I
▁マ
▁下丂丟丩丠个下丠个丂俿下
▁丂個下下下丂下下倆丩
▁6
▁丩下下下丂個下丠倊倁个
▁サ
▁丩丟下丂丟丩
▁俿下下丂倂下個下下丠丂
▁わ
▁丩下下下丂個下下丂
▁み
▁下下丂丌丂個下下下丠倏
▁下丂個丠倃下下懹丩丫倃丟倁个
丠个下丂俿下丠个
▁丂個丟丩
▁丩下丫丠倆丩丟倁个
▁丩丩丌下懺丩丠丂倃
下丟丂個下下下丟丩
▁丩下丫丩丟丩個丠
▁丩丌丂下丟个丩
▁個丠丂俿下
▁丟个下下丂下
▁M
▁丩下丩丟下丂俿下倝丂
▁バ
▁丂個下下
▁丂俿下下下丂丂下下丌倁个
▁下丂丂下下下丟个下丂下
▁メ
▁丟丟丂懸懺丩丟倁个
▁丟下丌丂下丂下下倆丩
▁n
▁8
▁セ
▁丩下懸懺丩丩丌丫丩下丂
▁丂個丂丂下下丂丂俿下下下下
▁丟倁丩丟倁丩
▁丟倓个
▁下丂下丟下倕
▁下丟丂個下下下丠丂
▁丩丩丌下下剗
▁下丟丂個丂丂下下下
▁丟下下丂個丂丂倆
▁7
▁丟丂丟倅下懶下
▁丩丩丌丂個下下丂俿丂丂下
▁N
▁丩下下下丂個下下懶丩下丂丌
▁丟丂丟下丂下下
下丂
▁丩下丟個丟下倀丂倏
▁丟下丂丟丩丂倆
丩丩
▁下丂丂下下下丫丩丠個下下
▁下丂丟丩丂俿下下下
▁下丂下丩丫下下丂個丂倁个
▁D
▁チ
▁丟个
▁丩丩倀丫倃倔丠
▁下丂俿下俿下下倆
▁丂個下下下
▁r
▁下丂丟丩下下丂丂下丂個下丂下
▁t
▁o
▁ウ
▁丂個下下下丂下丟个
▁べ
▁丟丂下丂丂丂俿下
▁T
▁丩下丠丫倇丩丩
▁下倆丂俿下
▁下倆丌下丂倁个
▁丟丂倂下丂丂個下下下
▁丟丟丂下丂丠倃丩下下倆
▁ガ
▁へ
▁丟丂個丂俿下
▁下丂丌下懶丟丩丂俿下丌
_3
▁E
▁丂個下下下丂下丩
▁せ
▁l
▁丂丌丩丠丩
▁下丂丟丩丟丠下丂
▁下丂丂下下丌倁个
▁ミ
▁下倅下倏
▁丩丩丌下丠懶丟丩下丂俿下
▁丂俿下丂俿下丂俿下
▁ギ
▁ニ
▁丂丁丂俿下丫丩丩丩
▁下丠下丂下
▁下下丂下丟倅丟个
▁パ
▁キ
▁丟丂個下下下
▁下下丠丂丟丟丟
▁%
▁丟下丂個下下下丂下
▁s
▁下下丠丂丂倆下丂下
▁丩丩丌丟下丂丂俿下
▁「
▁」
▁R
▁丟下丩丟下丩下丂個丂丟个
▁丩丟下丂丟丩下丟丩
丩下丟丂個下下下丟丩
▁下倃丟丩
▁下丂下丟丂個下下
▁丩丩丌倔丠下倆丟丩
▁F
▁/
▁丂個下下丩下丂俿下倆丫丩丟丟丟
▁ィ
▁下丂下下下倅丟个
▁H
▁懹丩丠個丩丌下倃下倏丫倇丩丩
▁丟懸懹丩倆丫丩
▁c
▁丟下丩丟下丩下丂下下倆丩
丩下丩丟下丂個下下
▁丩俿下下倅丟丩懹懹丟倝丂
▁丂個下下丠個下下
▁丟下丩丟下丩丩丩倀俿下俿下丂
▁丩下丩丫丂個下丂丂俿下丩倓懻
▁丩下下下丂個下下下丂丩丫
▁丩下下下丂個下個丠丩丫倇丩丩
▁丟丂丂俿下下倆丟丩
▁下下丂丩丫
▁L
▁倂丂倁个
▁g
▁ダ
▁ブ
▁B
▁下丟丂個下丫倀丠丂丩下下下丂下
▁下倆丌丠下下丌丂下下下
▁俿下下丂倂下個丂俿下
▁懺懺丩丩丩丂俿下下下
▁丩下丩丫下丠丟下下丂下
▁下丂丟丩丂個下下下
▁丟下丂下丂俿下丩倓懻
下下丂下丂個下下下丟丩
▁丩下丂個丂
▁下丂丟丩下丂丂俿下下下下
▁丟下丂丟丩
▁ュ
▁丩下下下丂個下下倆丩
▁懺懺丩丩丩丟丂個下下倆倁丟个
▁丟丂丩下下下丂下丩倓懻
下丂丂下下丠下下倅丟个
▁丩丩丌丂個
▁下懶丩下丂丌
▁丫倇丟丩丩
▁丂個下丩丩丟个
▁丟下下丂個丂丂倆丩下丟倅丟个
▁丩下丩丟下下倆丟丩丟丠下丂
▁丂俿下丂丫個丂俿下丩倓懻
▁丠個下下
▁ナ
▁ビ
▁丟下下倆
▁下丂丌丩丫丂個下丂下丂個下下
▁下下丟倀丠个
▁ベ
▁ず
▁倆丫丩
▁倁丩丂個下下丂丩倓懻
▁下丂俿下丂丟丩丩倓懻
▁下丂丟丩下倆丟
▁p
▁下丂下丫倃下丂丌丠倌丩丫丩丩丩
▁丂丩丟下丠倏
▁下丠丟丂個下下倆丫丩
▁丩丫下丟丂個下下下丩倓懻下倆丩
▁じ
▁丩丟下下下丠丂個下下下
▁丂個下下下丠倏
▁丠个下倁丂俿下
▁丠个下下懹丩
▁下丂丌
▁丩丌丂下丂下丩下丟倅丟个
▁ズ
▁丟倁个丂俿下
▁丩下丠倁丩丫丫个下下丠倏
▁丠个
▁丩丩丌下丠丟丂個下下倆丫丩
▁丟下丂丟丩丂俿下丟下丂下
▁下懺丩丠個丩丌
▁ノ
▁下下丠丩丂個下下下丠倏
▁丟丂丟懸懹丩倆丫丩
▁G
丩下丫丩下下丂丂下丟倅丟个
▁丟丂下丂俿下丠个
▁ポ
▁丟丂丩下丩丟下
▁下倆丌下丂下下倆丩
▁下丠丂倀倆下
▁u
▁丫丂丩下下丂下丠個下下
▁下丂個下下下丂丩倓懻
▁丩倓懻丟丠下丂
▁ん
▁丩下丩丟下
▁V
▁下丠下下丂下
▁丟下丩丟下丩丂個下下下下丠丂
▁丟俿下丠丟丠下丂
▁ョ
▁丟丟丂丂個下下下下倆丩
▁丩下丩丟下丂丟丩
▁丂俿下丟倓个
▁丩丩倀下下丂下丂俿下
▁下丂個下丂下倂丂
▁丂俿下丂俿下下
丟丩丩丂俿下丂俿下
▁下丟丂丩
▁下倆丌丂個下下下丂下丟个
▁d
▁丩丩丌丟下個倂下丩丩
▁懺懺丩丩丩丟個丩
▁懺懺丩丩丩倁个下丂下
▁丂丫丩丟
▁丟倁个下倆丟丩
▁ェ
▁丂倂丂下丠丩丟丠个
▁丟丂丟下下丂
▁丟丂下丟倁丩丂倆
▁ケ
▁下倆丌下倃丂個下下
▁丟倁丩丂丩
▁丂個下丂下丠个丠丂
▁下倆丌丟丂丩下下下丂下
▁丟丂丩下下下丂下下倆丟丩
▁丟倁丂俿丂下丟懷丟丟丟个
▁ば
▁倝丂丠个下下倆丫丩
▁下丠倁个
▁丩丫下丠個下下丂倆
▁下丂丟丩下丂丂丂俿下下下丂丟丩
▁丩丩丌丟丂丩下下下丂下下丂
▁丩下下下丂個下丠个下丂個下丂丂
▁丩丩倀懸丟下
▁下丂丟丩丩丟下下丂下倆倁丫丩
▁丩丩倀丫丩丠个丂俿下
▁下丂丠倃丩丩倓懻
▁丩丩丌丩丩倀丫丩丠个丂俿下
▁丟下下
丟丂丩下下下丂下丂個下下下丠倏
▁下丂下丂下丂丂下倂下倆丟丩
▁丩下下丂下
▁ち
▁下丂個丠倃下下俿下倏
▁俿下倕懹丩丂個下丂丌丩
▁俿下丠丩丫丂俿丂下丩丫丂個下下
▁丩丩倀丫倃下丂下
丩丫下懶丟丩丂個下下
▁だ
▁下丂個下丂下
▁丠个丠丂
▁下丂個下下下丂丩下丟丩丟个
▁丩下丩丟下丂個下下丫倇丩丩
▁俿下倅丟下丠个
▁丩丟下丂丟丩丩下丩丟下
丩丟丂丩下下下丂下
▁下倆丌丩下丩丟下懸丟下
▁丩丩倀丫倃下懹丩下丂下
▁丩下下下丂個下丩丫丂俿下丠倏
▁丩下丟個丟下丠个
▁丟个下下丂丩丫下
▁下下丟倀丠个丂個下下下丟丩
▁丟下丂下丂俿下
▁下丂下丂下
▁ほ
▁丟下下丂丂丂丂下丫丩丩丩
▁丩下丟丩倂丂丂個丂丂丌
▁丟丂下倆丩
▁丩倁丂丩下丂下
▁丩丫下丟丂個下下下丩倓懻
▁下丂丂俿下下下下
▁丠个下倁
▁丂個下丂下下丂丂下丫丩
▁丂丩丟剗
▁下丂丟丩下丂丟个
▁懺懺丩丩丩下丂下丫倀丠倏
▁ピ
▁k
▁倝丂丟倁丩丩倀个下下丂丟丩
▁丩下懹丩下丂丂下下丂丟丩
▁丂個下下丟个
▁下丂個下下下丂下下懹丩
▁下丂下懹丩
▁h
▁丟丂丂個下下丂丂俿下
▁下丂丌丟下丂俿下丂俿丂丂下
▁丟丂下丂丂下丫丩
▁下下
▁丩下下下丂個下
▁丩丩丌倀丠丂倁个
▁丟下丂丟丩丟倁丩丟倁丩
▁丩下丩丟下丂個下下
▁丩丟下下丂下丟下丂下
▁懺懺丩丩丩個丠丂俿下
▁丩丩丌丟倁俿下下倆
▁丟丂下懶丩
▁丩丩丌丩下丟丂丟倁个丩
▁下丂丂下丠個丩丌丟下丠个
▁下丂俿下丂丟丩
▁丟倁丩丩下丟丩丩丫丩丩丩
▁丂個下丂丂下下丠下下倅丟个
▁b
▁ツ
▁ソ
▁懺懺丩丩丩下懺丩丠倏
▁丂俿下丟個丂倆
▁下丂丟丩俿下下倅丟丩下倂丠倏
▁下丂丟丩下倕丂俿下倁丩下
▁丟丟丂丂倂丂下丠倅丟下丠个
▁下下丠倏
▁丩丩倀懸丟下下倆丟丩
▁ャ
▁丠個丩丌下丂下丂丂個下下下丟个
▁ろ
▁丠個丩丌俿丂下倏
▁倁丩倀倆
▁懺懺丩丩丩丂個下丂下
▁下丂下丂丟丂下倆丂俿下
▁ヒ
▁丟倁丂個下下下丟丩
▁丟下丩丟下丩俿下倕丂丟
▁ハ
▁丟丂下丂丂下丟丠個下下丂
▁丂丩丟丫倀丂俿下丂個丂
▁下倆丌丟倁丂俿丟丩下丟个
▁下丂下丟丂個下下倝丂
▁倝丂丩下丟個
▁俿下丠丟丂俿下丂個丂丌丩
▁下丠丂個丂
▁丟下下丟个丂俿下
▁下丂丂下丫丩
下丂下丂俿下丩丫丌下倆丩
▁下倆丌丟丩丩丟下丂丟个
▁丩丩丌丂俿下丠倏
▁丫倀下丂個下下下丂丩倓懻
▁丩下丟丩丠丂下下丂倆
▁丩丩丌丂丩丟丠個丩丌
▁々
▁W
▁丂俿下丂下丂丌丟倁个丂俿下
▁づ
▁俿下丠下丂丂下倅丟个
▁丩丫丩丂個下下丂下
▁下倆丩丌丟个
▁俿下倕丠丂丂個下下下丟丩
▁ワ
▁下倕丌
▁丩下下下丂個下俿下倏
▁丠個下丂下丂俿下
▁丂個下下下倂倆丫丩
丂俿下丂俿下丂俿下下倆丟丩
▁げ
▁下丟丂個下
▁丟丟丂丟下下丂下倅個丂
▁倂丩丟下丂丟丩丟丠下丂
▁下丂下丂下丟个俿下倏
▁下丂丟个
▁丂個下下下丂丌倁丩倀倆
▁丩俿下下倅丟个
▁丩丩丌丂個丂下下
▁丩下丟个
▁丟个丩個下下倅丫丩
丩丩下丟丩丩丫丩丩丩
▁丩下丟丩丟个
▁丟倁丠個下丂下丂個下丂丌丩
▁〜
▁丩丟丠丩丟倁
▁丩下下下丂個下下丂下丂下
▁丠丂丂
°
▁丩丩倀丟倁丩丩倀个下下丂丟丩
▁丩倁丂丩丂個下下下丠倏
▁丂下丂下
▁:
▁丟丂下下懹丩
▁丩丩倀下下丂下丂俿下丂倆
▁ボ
▁丠個丩丌丩丫丂俿下丠倏
▁丂丫丩丟丂個下下下
▁丫倇丩丩
▁下丂丌丟個下下
▁丟丂丩下下下丂個下
▁下丂丟丩俿下下倅丟个
▁懸丟丌下丂丂下下下倆丟丩
▁丟丩丩丟丫倀倁个
▁下丂下丂丂個下丟下丂丟丩
▁下丂個下下下丂
▁丟丟丂丩丫下丂下丟个
▁倝丂俿下下倅丟个
▁ぼ
▁丩丩丌丂個下下下倅下倏
▁俿下倅俿下倃下丂丂下丫丩丩倓懻
▁下下丂丌下倆丩丌丟个
▁丩下下下丂個下丂個下下下丂丟个
丟下丠个下丂下丂下
▁俿下下丠丂俿下丩丟下下下丂
▁懺懺丩丩丩丠个下丂俿下
▁下丟丂個下丩丫下懸懺丩懸懺丩
▁下丂下丩丟下下下丂丩倓懻
▁ホ
▁丟个懹丩
▁下丂下丟倀亞丌丟下丠个
▁丩下下下丂個下丩下
▁丂個下下丂丂俿下
▁丩丩丌俿下丠丩
▁丩丩倀下丟懷丟丟丟个
▁丂丩丟丠個丩丌丂倆
▁丠倌下丂個下丂丌丩
▁む
▁丂倂丂
▁丩丟丠丩下丂下丂丟下丠倏
▁丟丂下下丌丠倊倁个
▁ご
▁丩丩倀下懹丩下丂下
▁丠下下丌丂下下下
▁下丂下丂丌丟下丠个
▁ゴ
▁丩下丠懹丩
▁倝丂丟倁个下倂丂
▁丟下丩丟下丩下丂丌
倌丠丩下倆丟丩
▁下丟倁丩下懶丟丩下下
▁丟丂下倅下丟丂個下下下丟丩
▁下丂丌下丟丂個下下下丟丩
▁丩倁丂丟丩倀丠丂倁个
▁ペ
▁下丂丟丩丟倁个丂俿下
▁下下丂丟个
▁丟丂個下下下丟下倆丩
▁下丠懶丟丩下丂俿下丫倇丩丩
▁俿下下下下丂倓个
▁丩倁丂丟丩丟下丂個下下丟倁个
▁下丂下丂下丟个個丠丂俿下
▁懸丟丌懹丩丂俿下
▁丟丂倀丂倏
▁懺懺丩丩丩俿下下倆倁丫丩
▁y
▁下丟丂個下下懺丩丠丂倃
▁丟下丂丟丩下丂丩丩
▁下丂個丂倂丂
▁丩丩丌俿下丠下倏
▁下丂丌丩下丩丟下丂俿下
▁下丂丟丩下丂下丂丂個下下下丟个
▁下丂倁个
▁俿下倕丂
▁下倆丌丩下丠懹丩
▁下丂丂下倂
▁下丂丂個下下下丂丟下倔
▁ザ
▁U
▁俿下下下丂下丂個下下
▁下丂下丂丩丩丌丟倁个丂俿下
▁丩倁丂丟丩個丠
▁丂下倀丠下倃丂個下丂下
丫倇丩丩丫倇丩丩
▁ゼ
▁懺懺丩丩丩丟个懹丩丫倇丩丩
▁ぞ
▁下丂下懶丟丩下丂丟丩
▁丟下丂下丠倏
▁下倅個丠
▁丩丟下下丂下丟个丩個下下倅丫丩
▁丩丫下下丟个丩倓懻
▁丟丂丂個下下下丟丩丂倆
▁丩丩倀丫倇丟丩丩丂倂丂
▁丂個下下下丠丂
▁丟丂丟倁丂俿丂下丟懷丟丟丟个
▁丟丟丂丂倂丂下下丂丌丟下丠个
▁丩丟下丂丟丩下下丂下丠個下下
▁ァ
▁下丂個下下丠个
▁丟丂個下下下下丟丩丩
▁x
▁懺懺丩丩丩丟丂丩下下下丂下
▁下丂個下下丂丟个
▁丩丩丌丩下丟个丠丂下下
▁丟下丂丟丩丂俿下
▁下丂下丂下倂倆丟
俿下下丫倀丫倇丩丩丟倁个
▁丂個下丂下
▁倝丂下倅下倏丟丂個下下
▁丟倁俿丂下倏
▁丩丫下下丠丂倆
▁丂俿下下倕
丩丟下下丂下丟下倆丌懶丟丩
▁丟丟丂丟下丂個下下丟倁个
▁丩丩丌倀丂倏
▁丟丂下丟丂
▁丟丠個下丩丩丠倊倁个
▁下倆丌丟丩丟下丂丟丩丂個下丂下
▁丩倓懻丟丩
▁下丂丂
▁K
下丂俿下下下丠丩丟丂丩下下下丂下
▁丂個下下丟個丟丟
▁下倆丌丟倅個丂
▁俿下倅下懶
▁X
▁丟倅丩個丠丂個下丂下
▁丩丩丌丩下下丂下
▁懺懺丩丩丩丩丩倀
丟丂下丟丂個下下
▁下倆丌下丠下下倅丟个
▁下倂丂丂丫倀丂個丂
▁丂個下下個丠丂俿下丫丩丩丩
▁丩丟下下丂下丩丫下丂俿下
ヤ
丩丌丫丩下倆丟丩
▁丩丟下丂丟丩丟个個丠
▁下丂下丂丟丂個下下
▁下丂丌丟丂丩下下下丂下
▁丩丩丌下倆丂俿下
▁丠个丂下丂下
▁丩丩丌丫倀丫倃下丂丟个
▁下倆丌丂個丂下下
▁丂個丂下丂俿下丂個下丂下
▁下丟倁丩丂倆
▁丂個丂下下
▁丟丂丩丫下下丂
▁=
▁下丂丌下倏
▁丩丫下下丂
▁ゲ
▁下丂丟丩丟下下丂丟个
▁丂俿下
▁丟下丩丟下丩下丂個下下下丂個倏
▁下倆丌丩下丠倔
▁丟下丂丟丩丩下丂俿下丂個丂俿下
▁丩下丠丟倅下懶下
▁丟丟丂倁个下丂下
▁f
▁丂個下下丟丩丩丟下下丠倁个
▁下丂丟丩下丠倁个
ゾ
▁下下丠个
▁下下丂下個倂下丠
▁下丟丂個下倀丠丂倁个
▁丩丩丌下下丠个倆丫丩丩
▁下丟丂個丂丂下倆丩
▁下丂
▁下丂個丩丌丫丩
▁下丂丟丩丂個下下下丫倇丩丩
▁丟下下丟个下丂俿下丩丫下
▁下丂下丂丂個下下下丂
▁丩丩丌丂個下下丂丂丩丟下
▁丩倁丂丟丩下丂個下下丂丩
▁丂個下丂下丂個下下下丟丩丩倓懻
▁懺懺丩丩丩丟倁个丩丩
▁丟下丩丟下丩俿下
▁下丫倀丩丌丫丩下丟丂個丂丂
下丂倂下個丂個下下
▁倔丠下丂丟丩丟丂丩下下下丂下
▁下丂下丂下丂下丟丂個下下
▁丩下倃丟倁丩丩丟下丂下
▁丩下丩丟丌丂倂丂下丟丂個丂丂
▁下倆丌丠倊倁个
▁丟丟丂丟丠下丂丂個下下下
▁下丂下丂丩丩丌
▁ユ
▁下丫倀丩丌丫丩
丩丫丌下丟丂個下下下丟丩
▁丟个下下丂丩丫丌
▁丩下丂俿下倆丫丩
▁丟下丩丟下丩俿下下倅丟丩個丂
▁丟丩下倁丩下丟丂個下下下丟丩
▁丂俿下丂個下下下丟丩
▁丟下丂丟丩下丂個丂下下丫倇丩丩
▁下倆丌丂個下下下
▁丂個下下丂個下下丂個下下
▁下丂下丂倁个下丂下
▁下下下
▁丟个下下丂丩丫丌丟下下丠个
▁丩下丠丩丌下丂個丠丩
▁俿下下丂倂下個
丟丂丩下下下丂下倁个
▁丩下下下丂個下下丂丂下
▁丩丩丌下丂丂俿下丠個丩丌
▁J
▁懸丟丌倀倆下
▁俿丂下丂俿下下倂丂丩倓懻
▁丟丂丩下下丂下
▁丟丂俿下下下下丂倓个
▁丟下丂丟丩倝丠丩倓懻
▁下丂個丠個丠個丠
▁丟個下下下倕丂倂丂
▁下丂下丂丟丂下倏
▁下丟丂個下丂丫丩丟
▁倁丩倀倆丟丟下丠个個丠
▁下倆丌
倁个丂個下丂丌丩
▁丟丂丩下丩丟下丂俿下
▁μ
▁v
▁丩剗個丠
▁丟倁俿下下丫倇丩丩
▁下倆丌丟倅下懶下
▁下倆丌俿下丠下懹丩下丂下
▁下倆丌俿丂下倏
▁懹丩下丠个丟丟丟
▁丟丂丂俿下丂下丟个
▁下丂下丂丩下懸懺丩丂個下丂下
▁丩丟下下丂下丟下倆丌懶丟丩
▁丩丌丠个下倁丩
▁丩丫丩下丟个丟下下倆
▁丩丟丠丩
▁丟丂下丂下
▁丩丩丌丫倀丠倏
▁丟丟丂下丂下下倆丩
▁丂個下下丟下丠丂
▁下倆丌丂俿下丂個下下下丟丩
▁丂個下丂下丫倇丩丩
▁丂俿下下下下丫丩
▁下丂丟丩下丂個下丂丂下丂個下下
▁下倆丌俿下丠个
▁下丂下丂倁倆倁丟个下丫丩丩丩
下倃丟下下丟个倁丩倀丂下丟个
▁丠个下倁丫倇丩丩
▁下丂下丂丂個下丂下
▁俿下丠丂俿下丩下丩丟下下丂
Z
▁丂個下下下丟丩丩丩倀下倆
▁丩丫下丂丂丩丟下丂個下下
丂俿下丂下丂丌丟倁个丂俿下
丟個丂個下丂丌丩
▁丩丩丌丂個丂丂下
▁丂俿下下下丂丟个
▁丟倁丂個下丂下丫丩丩丩
▁俿下下倅丟丩下倂丠倏
▁丟下下丠个
▁下丂俿下丂個
丩下丟倅丟个
▁懺懺丩丩丩丟倁俿丂下倏
▁丠丂丂下丟丂個下下下丟丩
▁丟倁丩丂俿下
▁丟丂個下下
▁下丂丟丩下丂丟丩下丂丟个
▁下丂丌下丂丂個丂丂下
▁丠個丩丌下倃丂個下下
▁丟倁丠個下丂下
丩丫下丂丂個下丂丌丩
▁下丂丂俿下下下下丫丩
▁懹丩丂俿下
▁倝丂丩下丩丟下丂個下下下丂
▁丟丂丂丟下丠个丟丟丟
▁丩丩倀下下丠倏
▁下丟丂個下丂丩丟丠個丩丌
▁丟丠個下丩丩丠倊倁丩丂俿丂丂下
▁丩丩丌丟下丂下丠倏
▁丟个下下丂丩丫丌丫倃丂俿下
▁丩丩丌俿下下丫倀倁个
▁w
▁下丂個丠倃下下下丂下丟倀倆下
▁下丠丩丟丠个
▁懺懺丩丩丩
▁個丩丌個丩丌丟丂個下下
▁丟倀丠个
▁丩丫下丂丂丩丟下
▁丟丩下下倆丟丩丩倓懻
▁丂俿下丂下丟个
▁丟个下下丂丩丫丌俿下下倆倁丫丩
▁下丟個
▁懺懺丩丩丩俿下下丟懷丟丟丟个
▁丩丩丌丩丟下下下丂
▁丂丁丂俿下
▁丩下丠俿下下倆丩丌丫丩
▁懺懺丩丩丩丩下
▁下懺丩丠倏
▁丂個下下丂下丂俿下丟倅丟个
▁丩下下下丂個下丟下丂丟丩倝丠
▁”
▁丂個下丂下丟倁个丂俿下
▁俿下倕下丂下下下倅丟个
▁丂俿下丟丩丟下倆
▁俿下丠個丂俿下
▁下丟倁丩下丂丂俿下下下下
下丂丂下丟个倆倁丫丩
下丂丟丩倀丂下丟个
▁下丟丂個下下丂丟丩
下丠個下下丂倆
▁丟丂個下下下丫倇丩丩
▁丩丩丌下丂丂下丂個丂倂丂
▁丩下丠丩丌下丂下丂下
▁下丂個下下下丂丠个
▁丟下丂丂俿下倏
▁下丂下丂下丠懶丟丩下丂俿下丂倂
▁ヘ
▁下倆丌丟丩丩丟下下丠倁个
▁丟俿下俿下丂丩倓懻
▁丂倂丂下丠下下丂
▁下丂丌丂個下下下丂下
▁下丂丂下丂個下丂下丫丩
▁下丂下懹丩個丂
▁下丠丂個下下倀倆下
▁ォ
▁丂個下下丩下丂俿下倆丫丩
_5
▁丂個下下丂丂
▁剗
▁丟丂丩下丟倅丟个
▁下丂俿下丂倂丟下下丂俿丂丂下
▁丩丩丌懹丩丂俿下
▁丩
ヨ
▁丂個丂丂下下丂
▁z
▁下丂丂俿下丟下丠个
俿下丟倅丟个丩倓懻
▁下懹倁下
▁下丂個下下下丂丂個丂下下
▁丂個下下下丂
▁丩下下下丂個下下丂俿下丂俿下
▁下倆丌丩下丩丫丂個下丂丂俿下
▁俿下丠下懹丩下丂下
▁丂個下下下丟丩
▁下下丂個下丂丂丫倇丩丩
丩丂丩丂
▁丟下丩丟下丩丠个下丂俿下
下丂丂下丟丂丩下下下丂下倁个
丗
▁倝丂丂個下下下丟個丟丟
▁丠個丩丌丟個俿下倏
▁丟下丂丟丩倀倆下
下丂下
▁+
▁丩丌
▁丟丂丂丌丩丠丩
▁丟个下下丂丩丫丌下丂
▁下丂個丂下下下倆丩
▁丩丩丌
▁丟下丂丟丩丟丩丩丟丂丂個下下
▁Q
▁丂個下下丂個下下
▁下懹丩下丂丌丟倁个
▁丟丟丂丠倊倁个
ね
▁下下丠丩下下丠丩丂個下下
▁丂丩丟丫倀丂俿下丟丂俿下
▁×
▁丩丟丠个
▁丩丫下倂丠丂丩倓懻
▁丟倅下個丂
▁丂個下丂丂下
▁丩丫丩丂個下下丂下下懶丟丩
▁丟丂丂俿下丟下下丟个
▁丟个下下丂丩丫丌俿下下倅丟个
▁丂個下下倆丩
▁下丂丟丩下懶丟丩下丠丂
下丂個下下丂丩下倆丩
▁丩下丠下倂丂丫丩丩丩丩倓懻
▁丟下丂丟丩懸丟下
▁懺懺丩丩丩下倂丂倏
▁下丂丂個丩丫下下丂
▁丩下丂俿下倀亞丌丠倌丩丫丩丩丩
▁丂個下下丂丟丩
▁丟丩下下倆丫丩下丂丩丩
▁下丠个丩
▁下丂個下下下丂倁个下丂下
▁丂俿下丂下丂丌下丂下俿下
▁丠个下丂俿下個丂
▁丟下丂丟丩丂個下下
▁丩下丠丟下丂下倓个
▁懺懺丩丩丩下丂下
▁下倆丌下丂個下下丂丩
▁丟丩下俿下丠丂俿下丂倆
▁丩下丠下丂丟个
▁丩丫丩丫倀個丠
▁下下丂個下丂丂
▁丩丩丌丫倃丂俿下
ひ
▁丟丂丟下丂個下下下丂丌個丠
▁下倆丌丟丂丩下下下丂下倝丠
▁丩下下下丂個下丂俿下倎下丟个
▁丟下個倂下丂
▁下丂個丠倃下
▁丩丫丩丫倀下丂丟个
▁丂俿下懹丩丫倃丟倁个
▁丂個下丂丌丩
▁下丟丂個下下下丟倁个
▁’
▁下丂下丫丠倆丩
▁下丂丟丩丩下丟丩丟个
▁丩丩丌丠个下下倆丟丩下丂下
▁下丂下懶丟丩下丂個下下下丂
▁丟丂下下丂下
▁丩丩丌丩下丫丠倆丩俿下倕
▁倝丂下丂俿下丂個丩丫下丂
▁Y
▁下丂丟丩下丂倁个
▁下丂丫倀懸懹丩倆丫丩
▁下倆丌丟倓个
▁倀亞丌倏
▁下丟丂個下倔丠下丂
▁下俿下丠
▁懺懺丩丩丩倂丩丟下丂丟丩
▁丂下丂下倂丂丩丟下丂丟丩
▁懺懺丩丩丩丟倅下懶
▁丩丟丠丩丟俿下丠
▁下下丂
▁丂丫丩丟個丠
▁丩丩丌丟丂個下下
▁倁丩丫丫个下丂俿下丩丫下
▁丟丂下丠倁个
▁丂個下下下丟丩丂倆
懶丟丩丂丂丩丫下
▁丩下下下丂個下丩丟下下下丂
▁丟下下丂丟丩下下丠丂
▁丩下丠丟丂下倆丩
ふ
丟丂丟下丂個下下丟倁个
▁下丂丂丂俿下丟
▁]
▁下丂俿下丂丟个
丩下丟個丟下丠个
▁丩下下下丂個下丟下下丂
▁丩丩倀下丟个下倆丂俿下
▁倝丂丟個丫倃下丂下
▁下下下丂倕丫丩丩丩下倂丟丩
▁下丂丂個丩丫下下丂下丟个丩
▁丩丌丂丟丩丩丟下倆丩
▁丩丩丌個丠丂俿下
▁丩丩丌丟丩丩丟倀倆下
▁丩下下下丂個下下丂下丟丂個下下
▁丩倓懻俿下丠丩丟下下下丂
▁丩下下下丂個下下
▁丩丩丌下下丂下丠個下下
▁丟懷丟丂個下丂丌丩
▁下丂丌下倏丠個丩丌
▁[
▁俿下倕丩丌俿下倕丩丌
▁丩倓懻下丠倁个
▁丟下個倂下丩丩丟下丠个
▁丩丫丩丫倀丂個下下下丠倏
▁丟倁下丠個倏
>
▁丟丩丩個下下倅丫丩個下丂俿下
▁丂俿下下丌個丠
▁ぶ
▁丟下倆丌懶丟丩
▁下倆丌丟丠下丂
▁丂個下下下丟丩下丠倁个
▁下丂丟丩丩下懺丟丟丩
▁丟下丩丟下丩丂個下下丂丂俿下
▁丟丩丩丟倀亞丌倏
▁下丂俿下
▁丟丂丂個下下丂
▁丂倂丂下丟丂個下
▁丩丠俿下下丫倀丂個丂
▁下倆丌丫倀丫倃下丂丟个
▁丟丠個下丩丩丫倃丂俿下
ぐ
▁丩下丩丫丂個丫倃丂俿下
▁丩丩倀丟下倏
▁懺懺丩丩丩丟丩丩丟下下丠倁个
▁下倆丌下丠倁个
▁俿下下丂倂下個下倆丟
▁倀丠丂倁个
▁下下丂下丠個下下丟倁俿下下倆
▁下丂下丫倀丠倏
▁丩下丠丩丌
▁丟丟丂俿下下下下丂
丩丫下丂倂丂
▁下丠下丂丟丩下丂丟丩丂下丂下
▁丟丂個下下下丟
▁丂俿下下下下丂丫丩丟
▁丟下丂下丂下丂下丫丩丂倆
▁丟下丂
▁丟丂下倆丂俿下
▁丟个下下丂丩丫丌丂個
▁丟丩下丠丂個丂
下丂丂下丂個下丂下
▁下下丠丂
懸懹丩倆丫丩丫倇丩丩
▁丩倁丂丩丂個下下丂
▁下丂丟丩下丂丂下丂個下丂下丫丩
▁丟丂下懶丟丩
▁丟丟丂俿丂下丂俿下下倂丂下下倆
▁下丂下丂下丟个下倅懶丟丩
丩倓懻
▁下丂下丂
懸懹丩倆丫丩
▁下丂丂俿下
▁丩丩倀下丂俿下丂個下丂下
▁下丟倁丩下倏
▁丫倀下下丠倏下倆丩
▁下丂丟丩丟下丠个
▁丂個下丂下下倆
▁下丂丟丩下倆丩
下下丟个下下倆
▁懺懺丩丩丩丂個丩丫下丩下倃
▁丟丟丂丟倁丂個下丂
▁丟个下下丂丩丫丌丩下丠懹丩
▁下懹丩下丂下
丩下丩丟下丂個下下丠倏
▁;
▁丟個下下下倕丫丩丩丩
▁丩下下下丂個下丟下丂丂俿下
▁丂個下丂丂下下丂俿下丩丫下
▁丩丟丠丩丂個下丂下
▁個倂下丩丩
▁丩丟下丂丟丩丂丁丂俿下
▁丩丩丌丟倁丂個下丂下丫丩丩丩
▁丟個俿下倏
▁丩丩丌俿下丠下丂個丩丌丫丩
▁丠个下下倆丫丩
▁丟下丂丟丩丩丟丠个
ざ
▁下丂俿下丂倂丟
下丂俿下丂俿下丂俿下
▁丟丂下丂下倓个
▁丩丫下下丠个俿下倏
▁丩丩倀丫倃下丟个丩
丠个丩倁丩
▁丩下懺丟丟丩丂倆
▁下丂丟丩丩下下丂下
ゆ
▁丂個下下丂個下下丂丩
▁倌丟丩丟丠丂倌丟丩
▁下丂丌個丠
▁丟丂下丂個下下丠个
▁下丂丌下丂丂俿下下下下丫丩
▁丟丂丩下丂俿下丫倀下倆
▁丟丩丩個下下倅丫丩丟倀丠个
ぎ
▁丠个下倁丩
▁丩丩丌下丂丂個下下下丂丠個下下
▁丟丂俿下下丫倀倁个
▁丩丩丌丟個俿下倏
▁丟倁个丩丩
▁、
▁下下下丟个丂個下下
▁丩下下下丂個下丠个丟丟丟
▁丟丟丂丟下丂個下下下丂丌下下倆
▁丫倀下倕下
▁下倆丌丫倀下丂個下下下丂
▁丩丩丌丟丂個下下下丟個丫丩丩丩
▁丂下丂下丂丫丟丩
▁丩下懸懺丩丂個下丂下
▁下丂下丫倀丠下倅丠倊倁个
▁丟懷丟
▁下倃丟下下丟个
▁下丫倀丩丌丫丩俿下下
▁下丂丂下丂俿下下丂
▁俿下丠倆倁丟个
▁丟丂丩丫下下丠丂
▁下丟丂個下下丂個下下丠个
▁懸懸懸丩丟丠个
▁丂俿下丂下丂丌丩下丫丠倆丩
▁丟丩丟下丂丟丩丂個下丂下
▁丂俿下丠丩
▁丩下丩丟下丂個下下下丂
▁丂個下丫倃
▁丩丌下丂個下下丂丟个
▁丟丩丟下丂丟个俿下丠个
▁下丂丟丩倔丠下丂
▁丂俿下丂俿下丂丫倇丩丩
▁下倆丌丟丩丩丟丫倀倁个
▁丂俿下丂下丂丌倆倁丟个丂個下下
▁丩丟丠丩下丂個丠倃下下丂下
▁丟个下下丂丩丫丌丂個下丂俿下
▁丩下丩丟下丂俿下
▁下丂丂下下丌丩下
▁下丂丟丩下丂丂俿下
▁倝丂丩丩倀下下丠倏
丟下丟丂個下下下丟丩
丠倅丩下丩丟下丂俿下丠倏
▁下倆丌丩丩丫丫倀丂個下下下丠倏
▁“
▁倝丂丂俿下下下
▁丟个下下丂丩丫丌丂
▁丩丟俿俿個丫丩丩丩
▁丂下丂下丂丫
丂個下下下丠倏
▁丩下丩丟下下倆丟丩
▁丩下丠丟丂下倆丩丂個丟丩丟丩
▁丟丂丟下丂個下下下丟個丟丟
丩丟丂個下下下丟丩
▁丩下丟個丟下倀倆下丩倓懻
▁下丂個下下丂丩丩下丟個丟下丠个
▁倁倆
▁丩丫下丫丩丂俿丂丂下
▁下下丂下丂個下下下丟丩
▁丩倓懻倌下丂
▁j
▁丟丂丟俿下丠丂個下丂丂
▁下丂丟丩丟下下丟丂丩下下下丂下
▁丟丂俿丂丂下
▁丂個下丠懻
▁丩丫丩丩倀丂個下丂丌丩
▁丟丠個下丩丩丩下丠倔
▁丠丂下俿
▁丟下丂下丂丟下丠个
▁下丂下丂下丟个
▁丟個丂個下下
▁丟丩丂倆
▁丟倁俿下下倆
▁丟下下倏
▁下倆丌丂俿下下下丂丂下下下倁个
下丠个丩丫丂個下下倆丫丩
▁丂個下下丩下丩丟下丂個下下
▁倀丂下丟个丂個下丂丌丩
▁丩丩丌丩下丠下倂丂倁个
▁丟丩下丂丠倃丩丠倊倁个
▁丩下丠俿丂丂下下倅下倏下丂下
▁丩丩丌下丂下
▁下丂下丂俿下丟倅丟个丩倓懻
▁懸丟丌丩丟下個下下丂丂丟个
▁丂俿下丟倀丠个
▁下丂下丫倃下丂丌丠倌丩個丠
▁丟俿下丠丩下丟個
▁丂個下下丂俿下丠丩
▁丟丂丩下丩丫丫倀丩下丟個
▁丟下丂丟丩丟倀倆丫丩
▁丟倁个
▁倝丂丠个下倁下下懹丩
▁下丂俿下丂個下丂下丂倆
▁<
▁下丂個下下下丂丟倀丠个
▁丟下丩丟下丩俿下下下下丂
▁丩丩倀丟倁个丂俿下
▁丩丩倀下倆丩
▁下丂丂丂俿下下丟个個倏丩倓懻
▁丩丩丌丩丩倀下丂個丂下下丫丩
▁下丠懶丟丩個丂俿丂丂下
▁丟丩丩個下下倅丫丩丟個俿下倏
▁丠丂下俿下丠倁个
▁下倃丟丩丟倀丠个
▁下倆丌丟丠個下丩丩丠倊倁个
▁倀丠个下丂俿下丠个
▁丩下丠下倆
▁丂下丂丌下倏懸懹丩倆丫丩
丂個下丂下下丂丂下丫丩
▁俿下倏
▁懺懺丩丩丩俿下倏
▁俿下倕丩丫丩丂個下下丂下
▁丩丩丌下下丠丩下下丠丩丂個下下
▁丩下懸懺丩
▁下丂丂個下下下丂丠个下下丂
▁丟丂丂倂丂丟丂丩下下下丂下
▁丩丩丌下丂丂下丟个俿下倏
▁丩丩倀俿下俿下丂
▁丩下丟個丟下丟下下丟个
▁丩下丠下丂丠倃下丂丠倃丟下下倆
▁丩下丂個下下丟倅丟个
▁個丩丌個丩丌
▁下倆丌丟下丂丂個下下
▁懺懺丩丩丩丟倓个
▁下倆丌俿下丠倂丂丂倂丂
▁丂個下下下丟丩下倆丟
▁下下下丠下倆丩
▁丂個下丩丫下下丠丩俿下倏
▁丩丩丌丂俿下丂丫倀丠個丩丌
下丂下丂丂下下丌丟下丠个
▁丩丩倀丂俿下丟丂俿下
▁丩丫丩下丠
丟丂丩下下下丂下
▁倝丂下丠倁个
▁丟下丂丟丩丩丩倀下丟懷丟丟丟个
▁丩丟下丂丟丩丂俿下下下
▁丠個丩丌丂個下下下丟個丟丟
▁倝丂丩丟下丂丟丩丟倁丩下倂丂
▁下丟丂個下下
▁丂俿下丂丫倀丠個丩丌
▁丂俿下丂下丂丌下懶丟丩下
▁丩下下下丂個
▁下倆丌俿下下丫倀丂個丂
▁下倆丌丂個下下丂
▁丩丩倀丟丩丟下丂丟丩丂個下丂下
▁下倆丌下丂丂下下下丩丌丫丩
▁丂個下下丂
▁下丠下丟個個丠
▁丩下下下丂個下下丂下丫倀丠倔
▁丟丟丂下丂下下丂丌下下倆
▁下倆丌丟倁个丠倔
▁俿下丠丟下下倏
▁懺懺丩丩丩俿丂下丂俿下下倂丂
▁俿下丠下丂丂下丫丩丠倊倁个
▁丩下丠丩丌倀丠丂倁个
下丟丂個下下下丟下倆丩
▁懸懺丩個丠
γ
→
▁丩丟下丂丟丩個丠丩
▁丂丂個下下丠倏
▁下丂下丂個下下下丟丩
▁丠個丩丌
▁丩丩丌丟丂下丂下丫丩
▁丟下丂丟丩丂丫丩丟
▁丩倁丂丩下丂俿下丂個下丂下
▁丩丩丌丫倇丟丩丩
▁丩丟丠丩下倆
▁丩丩丌下丠懶丟丩下丩丟丠个
▁下丂個下下下丂丠倊倁个丟下下倆
▁下丂個丂丟丩丂倆
▁丩下下下丂個下丟下倏
▁丂丂個下下
▁丂個下下下丂下
▁丩倆倁丟个
▁丠個下丂下丂俿下丩倓懻
±
▁下倆丌下丂丂下丂個下下
▁丂個下下下丂下丫丩丩丩
▁丂個丩丫下丂倂丂
▁丫丂丩個倂下丂丂個下下下丟丩
▁丩下丠丩丌丠倊倁个
▁下倆丌丟下丂丂俿下
▁下丟倁丩丟下下丂丟个
▁丩下丠丟丩丟丩下丂下
▁丟俿下丠下丠个
▁丟丂下懹丩下丂丌丂倆
▁下丂丂下下丌
▁丂倂丂下丟个下倆丂俿下
▁下丫倀丩丌丫丩丂個下丂下
▁丩丩倀倀倆下
下丂下丂俿下丩丫丌丟丟丟
ょ
▁丩下丟丂丟倁个丩
▁丫丩丠个丂俿下
▁懺懺丩丩丩丟俿下丠丂個下丂丂
下丂丂個丂丂下丫倇丩丩
▁q
▁下下丂丌個丠下丟个
▁下丂下丂下丠丂俿下
▁下倅下丟丂個下下下丟丩
▁懺懺丩丩丩丟倁个丂俿下
▁下丠丂俿下
́
▁下丟倁丩丂倆丩下丟倅丟个
▁丟下丂丟丩丂個下下下下丂
`
▁丩丩丌下丂俿下丂丟丩
▁懸懺丩懸懺丩下懶丟丩丟丩
▁丟丂
【
】
ヌ
▁下丂個下下下丂丠个下丂個下丂丂
▁丩下丠下丂個下下下丂
▁丂俿下下丂下丂丟丂個下下下丟丩
▁下丂下丂丩下丟個
▁下倆丌丂俿下丂下丟个
▁丩丩丌俿下下丂倂下個下下丂下
*
▁丟下丌丂丟下丠个
▁下丂丟丩丟个懹丩
▁丂個下下丟下下丂下
▁丩丩丌俿下下下下丂
α
▁下丂下丂下丠个丟丩丟丩
▁俿下丠丂個丂丂倆
▁丩丩丌下丂丂下下下丫倃倃
ヶ
▁丩丩丌下丂下丂丂個下下下丟个
▁丠個丩丌丟丠丟倅丟个
▁下丂丟丩倏
▁懺懺丩丩丩丟丂個下下丂個丂
▁丩丩丌丂個下丂
▁下丂下俿丂下丠
▁丟下下丂
▁下丂下丂下丂丂俿下
▁下懹丩下丂丌丂倆
下
ゅ
丫倇丩丩
▁丩丩丌下丂丂下丂俿下丂俿下
▁下下丂下丠個下下
▁丩丩丌丂個下下懶丟
丩
丂俿下丂個丂俿下
▁下丂丌下丠懶丟丩個
▁丟丂下丟个丩
俿下丂俿下下丫丩
▁丟丂個下下下下丂
▁丟下丂丟丩丩丫丂俿下丠倏
▁丂倂丂下丂倁个
▁下丂下丂丂俿下丠丩
丟丂個下下
▁俿下丠倂丂丂倂丂
▁下丂俿下丂倂倁个懸懹丩倆丫丩
▁丩丩丌下丂丟丂丫倀丂個丂
▁懺懺丩丩丩下丂俿下丂丟个丩丫
▁懸丟丌倁个個丠
▁懸懹丩倆丫丩
▁倝丂丂丫丩丟丂個下下倆丫丩
▁丟丩下丂下丂俿下下丂個下下丂丩
▁丟倁丂個丠倏
▁丩丩丌下下丂下丂個下下下丟丩
▁倁丩倀倆丟下倆丟丩
▁丟下丂丟丩丟丂丩下下下丂下
▁丟個懹丩
▁丟丩丩丟懸丟下
▁俿下下倅丟个丩倓懻
▁下下丂下丟倁个
▁倁个
▁下丂丂下丟個丂俿下丟下丠个
▁丩下丠倁丩倀倆
俿下下丂丂俿下
▁丂個下下個丠丂俿下
▁丟下下丂下丂下丂下
下下丂丂下丂個下丂下
▁丩下丠下丂丠倃下丂丠倃
▁下丂個丠倃下下
▁丂個丟丩丟丩
▁丟丂丩下下下丂下丫丩丩丩
▁丩丟下丂丟丩丩下丠
▁倁丩倁个
▁下倆下丟丂個下下下丟丩
▁下倆丌下丂下丂丠个下丂俿下
▁丩丩丌下懶丟丩下下
▁懸丟丌丩下丟個
▁丟
▁丩下下下丂個下俿下丠个
▁倝丂丟倁丂丂個下下
▁丟丩丩個下下倅丫丩下丂丂下下下
▁}
▁{
▁下下丟倀丟丩懸丟下
▁丟倅丠丩個丂丩
▁下丂丂個下下下丂
▁丩下下下丂個下丩下懺丟丟丩
▁懺懺丩丩丩丟丟丂丩丫下丂下丟个
▁懺懺丩丩丩丂個丠丩
▁丩下丫丩
俿丂下丂俿下下倂丂
▁丠個丩丌下丟丂丩下
▁倁丂下丂丌下丂俿下丂丟个
▁下倆丌丂個下下丟個下倃
個丩丌個丩丌丟丂丩下下下丂下
▁丂個下下丟倁丂個丠倏
ぜ
θ
▁丟下丩丟下丩下丂丟丩丂個下下下
▁個丠丂俿下下倆丟丩
▁下倆丌下倆
▁丟懷丟下下丠个丩丫
▁下丂丟丩下丂丟丩下下丂丟丩
▁丟丩丩丟丫倀丫倇丩丩丟倁个
▁‘
▁丟倅下懶
▁丩下倃
丂俿下丂俿下丂俿下丂倂丂
▁丩丩丌丂下丂下丂丫丩丟
▁丟丂個下下倆倁丟个
▁俿下下倆倁丫丩丂倆
▁丩下下下丂個下丠丂丂
▁丟丟丂丠个下下倆丫丩
▁丂俿下丂丂下丟丩
▁丩丩倀丟个
▁丟丂下丂下丫丩
▁丩丩丌丟下下丟丂丩下下下丂下
▁下丂個丠倃下下丟下丂下下
俿下下倆丟丩
▁丫丂丩俿下丠丩
▁下丂下丂個下下丂丩下倆丩
▁俿下下丂倂下個下丂丂下下下
▁丂倂丂丠個下下丠個下下
▁下丂丌倌丠丩丫倇丩丩
丫倀丂個下下下丠倏
▁下倆丌丟丂個下下下下丟丩丟丩
▁個丠丂俿下丂個下下下丟丩
丟丂個下下下丟丩
β
▁丩丌丂丟丩丩丟下倆丩下丟个
下下丂
▁下丂下丟下倏
Δ
▁下倆丌丟丩丩丟下下丂倂丂
▁下丟丂丩丂俿下
▁丩下丟个丠丂下下
▁俿下丠下丂丂俿下
▁丩下丠丂丁丂俿下
▁丟下丩丟下丩丂個下丂俿下
▁丟俿下俿下丂下丂個丂
▁丩丟下下丂下下丟个
▁丟丂下懶丩丩下丟倅丟个
丂俿下丂個下下下丟丩
▁下倆丌丂個下下下丟個丟丟
▁丟俿下丠丟丂丩下下下丂下下
▁丩丩倀丫倃懹丩丫倇丩丩
▁丟丂丂丩丟丫倀
丂俿下下丟丂個下下下丟丩
丟丟
▁丩下下下丂個下下下丂下丠個下下
個下下下丠倏
▁下丂下丂丠个下倆丟丩
▁丩丩丌俿下丠个
▁丠倌丩
▁下丂俿下丂倂丟下下丂
▁俿下丠丟丟丂丟下丂個下下丟倁个
▁下丂丌丟丂個下丂下丟倏懺丩
▁丠個丩丌丟個丟丩倂丂
▁丩丩倀下下丂丂下丟个丩丩
▁丩丩倀丟倁个
▁丩個倁丟个
▁丟下丂丟丩懹丩
▁丩下下下丂個下丩下丟個
▁下丟倁丩懹丩丂俿下
▁丟丂下丂丟个
▁丩下丠丩丌丟下下丟个
▁丂個丂丂下下丂下丟丂個下下
▁下丂下丂丟丩丩丟下丂丟个
▁丠個丩丌下下丂
▁丩丩丌丠倔丩
▁丟丠個下丩丩丟丂個下下
▁?
▁下丂下丂丩下倃丠丂倃
▁丠個下下丩丫丩倂丂倁个
▁丩丩丌丩下丩丫丂個下丂丂俿下
▁丟丟丂下懺丩丠個丩丌丟下丠个
▁下丂丌下丂下丂丠个下丂俿下
下丂丂下丂個下下
▁懺懺丩丩丩丩下丩丫丫倀丂個丂
▁丂個下下下丂丂下丟个倆倁丫丩
▁丠個丩丌下丂個丂
▁丟下丂丟下倆
▁懸丟下
▁丩丫下丟丂個下下下
▁丟丂丩下丩丟下丂個下下丫倇丩丩
▁下下丂下丩
▁倔丠
▁下丫倀丩丌丫丩下丠下下倅丟个
▁下倃丟下下丟个倁丩倀丂下丟个
^
▁俿下下倅丟丩個丂
▁下丂丌丂個下下下丂下丟个
▁丟個
▁丩下丩丟下丂個下下下丂下
丩丟丫倀丟倁丩下倂丂
▁下丟丂丩下丂下丂下
▁丟下下丂丟丩丟下下倏
▁丩丩丌丠倊倁个
倁丩倀倆丟丟下丠个個丠
▁懺懺丩丩丩丩
▁下丂下俿下
▁丠個下下下丂丟下丠
下丂俿下丂倂丟下下丂俿丂丂下
▁懹丩下丠丂
下倆丟丩
▁丟个下下丂丩丫丌下丂丟个下
懶丟丩下丂俿下丂倂
▁丟下下丂丂丂丂下丟倁丩下倂丂
▁俿下丠个
▁丂個下下下丟丩丟下丠个
▁丩丩丌下下丂下丩丟丠个
丩下下下丂個下
▁下丂俿下丩丫下
▁丩丩丌丂俿下丂丫個丂俿下
▁丠個丩丌丩下丟個
▁丩丫下丠個下下丂倆個丠
▁丩下下下丂個下下丂下丂俿下
▁丩丩丌丂個下丂俿下
丂個下丂下丫倇丩丩
▁下丫倀丩丌丫丩丟个個丠
丫丩
▁丂個下下下下丂下丠個下下
▁丟倁丂個下下丂丂個下下倏
▁丩下丠俿丂丂下下倅下倏
▁丂個下丂下懸懹丩倆丫丩
▁下倆丩
▁丟下下丠倝丂
▁丂個下下下俿下下倅丟个
▁丂俿下丂下丂丌
▁倝丂下丂下丫倃丟倁个
▁下丂下丂丩倁懻
▁丟丩丩個下下倅丫
▁下丂下丂下丠懶丟丩
下丟丂個下
▁丩丩丌下下丂丂下丂個下丂下
丩丩丩倀俿下俿下丂
▁個倂下丂丂個下下下丟丩
▁丟丟丂丩下下丂下
丂俿下
▁丂個下下下俿下倅下懶
▁丟倁丂個丠倏丩丩倓懻
ε
▁丩下丂個下下下丂下丟倅丟个
▁下倆丌下丂下下丂丌丂丩
▁丟丂個丩丟下丂丟丩下丟个
下丂個下下丂丟个
▁丩丫下倂丠丂丠個下下下丂下
下丠个
丂個下下下
丩丟下下下丂
▁丩下丩丫下丠丟丟丟
▁懺懺丩丩丩丂個下丂下丂個下下倃
▁丩丩丌倁丩丂個下下丂個丠
▁丂個下下下倅下倏
▁丂個下丂下丂個下下下丟丩
丂俿下下
▁丂個下丂下下丂下下丂下
▁丂個下下丟下丂下下
▁丟下丩丟下丩丟丂下倆丩
俿下丠下丂丂下丫丩丠倊倁个
λ
▁丩倁丂丟丩丂個下下下丂丟个
懹丩丫倃丟倁个
▁下丂個下下下丂倔丠
▁丟丩倁懻
倅下倏
▁丟丂下丂下丂倂丂
▁俿下丠
▁下丠个下下丂丟丩
▁丂個丂丂下丂個下下下丟丩
▁丫丂丩下丂個下下下
▁丩丩丌丂下倀丠下倃
丂個下下
▁丠個下下個丂倁个
▁丩丩丌下丂丂下丫丩
丩丟個下下下倕丫丩丩丩
▁下丂下下丂丌下倆丩
▁下丂下丫倇丩丩
▁下倆丌丩丩倀
▁丩丟丠丩丩丟丠个
▁倀亞丌丟丠倅丩个
▁丩下丠
丟丂丩下下下丂下丫丩丩丩
▁懺懺丩丩丩丂個丩丫下丂倂丂
▁懺懺丩丩丩丩下丟丩丟个
下丂俿下丂個丂俿下
▁個丩丌個丩丌丩下丩丟下
▁丂下丂丌下倅丟丂丩下下下丂下
▁丠个下丂下丂俿下
▁丟个個丠丂個下下下丟丩
▁丠個丩丌丟下丂個下下下丂下
下丂丂俿下丠個丩丌
|
▁下下懶丩丂下丂丌
丟個下下下倕丫丩丩丩
▁丩丩丌丂個下下下丟個丟丟
▁丂丩丟下丠倅丫倀下丂個下下下丂
▁丩丟丠丩丂個下下
▁俿下丠个丂個下下下
▁下丂下丫倀
▁丟俿下丠丟下丠个丂俿下
▁丟丟丂下丂下丂下丟个
▁丩丩丌丫丩丠个丂俿下
下丟個
『
』
▁丟丩丩丟下下丠
▁下丂丟丩下丂個下下丂丟个
個丩丌個丩丌
▁丟下丂丟丩丠个下倁丫倇丩丩
▁下丂下丂下下懹丩
丠倔倁个懸懹丩倆丫丩
懸丟下
▁丩下丟倅丟个
▁丩丩丌丩俿下下倅丟个
!
▁下倆丌丟個俿下倏
▁丫丂丩丂俿下下丂個丂丂下倁个
▁丫丂丩丩下丩丟下丂個下下
下倆丩
ぬ
丫倀丩丌丫丩下丟丂個丂丂
丟丠
▁丩丩丌下丂個丠倃下下
▁下倆丌懹丩
▁丩丩丌下丂
▁下丂丟丩丟丂丩下下下丂下
▁丩下丠丩丌倁丩丂個下下丂
下丂俿下下丟丩丩
▁下丂丌丟下丠个
下丂俿下丩丫丌下倆丩
▁下下丂丌下丂下下丂下
▁下倆丌丩丫下丠個下下丂倆
▁丩丫丩丂個下丂下
▁丩倓懻懸懸懸
▁下丫倀丩丌丫丩丠个下倁丩
▁丩下丂俿下丫倀下丟懷丟丟丟个
▁丂俿下丂個下下丂個下下
▁丂
丩丫
▁丟下丩丟下丩丠個丩丌個丠
▁丟丂丠个下丂個下丂丂
▁下倃
▁丩丩丌丩丩倀
丫倀
丟倁个丂俿下
▁丩丩丌丩個倁丟个
▁丂俿下下丂下
丟倏
▁下下丂丌下下丂下下倅下倏
▁丩倓懻丟倅個丂
下丟下丂丟丩
▁下下丂丌下下丂下俿丂下倏
▁下丂個下下
下丂俿下
▁下丂下丂下下丟倀丠个
▁懸丟丌丂俿下
丠倊倁个
▁下倃丂個下下
△
▁丂個下下下丟丩下下懶丩丂下丂丌
▁俿下下丠丂俿下倝丂
▁下懶丟丩丂俿下下
▁丂下丂下下丠懶丟丩下倆丫丩
▁丟丂下丂丂下丂俿下下下丂下
▁丩下下下丂個下丩丟丠丩丩丟丠个
▁丩下丂俿下倆丫丩下丠倏丩
丫丩丩丩
▁丟丟丂倀丠丂倁个
▁下丂丌俿下丠倂丂丂倂丂
▁丩丫丩丂個下下下丂丟个
丫丩丩
▁丠個丩丌下丂丂丂俿下懸丟下
▁丠個丩丌下丟懷丟丟丟个
Ω
丩下倆丟丩
▁下丫倀丩丌丫丩下下懹丩
▁丩下下下丂個下下倆
φ
▁丟丂個下下下丂個下丂下下丠丂
▁丟下下丂倂丂
′
▁下丂丟丩下丂個下下丠个
▁丟丂下丠下丂下
▁下丠
下丂丟丩丂個下下下
▁下丂丟丩下下下丟个下下丂
▁丟丩丩個下下倅丫丩下丠倁个
▁丠個丩丌下丂倁个
▁丩丩丌丟倅丩個丠丂個下丂下
丟下丂丟丩
▁丠个下俿下丠丂俿下
▁下倆丩丌丟丩丟下丠个
▁下丂下丂下丂下丫倃丟倁个
▁俿下丠丂個丂下下
下丠
倍
▁下丟懷丟丟丟个丩倓懻
▁下丟丂個
▁下下丂下
丫
丠個下下丩丫下下丠个倆倁丫丩
▁丩丩倀下下倆
▁丂俿下丟下丂下
▁下丂下丂俿下
▁俿下下丂倂下個下懶丟丩丂俿下丌
▁丂個下下下下丂下
▁丟丩丩個下下倅
▁丩下丟個丠个丩丩
▁丩下丟個丟下倀丂下丟个
丩丫丂個下下倆丫丩
▁下丂丟丩下倕
▁丟个下下丂丩丫丌下下下丠下倆丩
▁懺懺丩丩丩丩下丟個
▁丩丩倀丫倇丩丩丂俿丂丂下下倆
▁下丠懹丩丟丂丩下下下丂下
丩丫下懸懺丩懸懺丩
下下丠丂
丟倁丩丩倀个下下丂丟丩
▁丟丂俿丂丂下丟丂丟丟丟个
俿丂丂下
▁下丂丌下丟个下倆丂俿下
▁倀丩倆下下下倁丟个
▁丠個丩丌下丂下懹丩個丂
▁懹懹丟俿下下倅丟丩倝丂
▁丂個下下下下丠个
▁丩丩丌丩丫下丫丩丂俿丂丂下
丩丌
▁丟下丌丂
▁下倆丌丠倏丩丌丫丩
▁下丂下丂丂個下下
▁下倅下倏丟丂個下下
▁下丂丌丩下丠倔
▁下倆丌下丂下丂丂個下丂下
▁下倆丌個丠丂俿下
▁丟丂個下下丩倓懻
≦
下丂丂下下下倆丟丩
▁丟下丂丟丩丟下下丠个
丟丟丟
丩丩倀
▁丩下下下丂個下丟丠下丂丩
▁丟丩丩個下下倅丫丩丟下丂個丂
俿
▁丂俿下丟丂丩下下下丂下
▁下丂下丂丂個下下下丠个個丠
▁下倆丌俿下丠下丂丂俿下
▁下下丂丌
▁倝丂丟丩丩丟俿下下丫倇丩丩
▁丟懷丟丂俿下下下
▁懹丩丠個丩丌下倃下倏丫丩丩丩
▁下丂丟丩丟下個倂下丩丩
丂個下丂丌丩
▁丟倅丩個丠丂個下下下丟丩
▁丂個下下下丟丩丂丁丂俿下
▁下丂個丂下下丫倇丩丩
▁下倆丌下丟丂個下
▁下丂丂丂俿下下下丂丟丩
▁丂個下丂下丫倀丂俿下下下
▁丂個丂
▁丂丩丟丫倀丂俿下丂個下下下丟丩
▁下倆丌丟個丂俿下
丟丩
▁丠個下下丩丫下下丠个個丠
▁丩丩丌下丂個下下丂丩
〉
▁丩丫下丟懷丟丟丟个丩倓懻
▁丟丂俿下下丠
▁丠個丩丌丟丂個下下倆倁丟个
▁俿下倕丟丠倅丩个
〈
▁丩丩倀
▁丩丩倀丟丂下丟丂個下下
俿下下下下丂倓个
▁下丂丂下丂俿下下丂丂
▁丟下丩丟下丩丩丩丌
▁丂個下丂下個丠
▁下丂丌丂個下下下
▁丩丩丌丟丂個下下下
▁$
▁丩丩丌丂個下下丟個下倃
俿下下倅丟个
倏下倂丠倏
▁丟丂個下下丩丌丫丩下倆丟丩
▁下丠懶丟丩下懸丟下
▁丩丩丌個丠丩丩下倆丟丩
下丂丂
▁丩丩倀下丂個下下下
▁丠个丩丌丫丩丠個丩丌
▁下丂下丂下下丂下丂下下丂
▁下丂丟丩下丂個丠丩
ω
下下
▁丟丂下倏丂個下下下丟丩
▁下倆丌倁个丂個下丂丌丩
丩丟丠個丩丌
▁丩丫下丂個丠倃下下下倆丩丩倓懻
▁下下丂丌丩下丟丩下下丂下
▁下丂丟丩丟丟丂下下倆
▁丂個下下丠個下下丂俿丂丂下
丂俿下下倆丟丩
▁下丂俿下丂倂倁个丠個丩丌
▁俿下倕
▁懸丟丌下下丂下
▁下丂丟丩下丠下丂下丠個丩丌
▁下丂丂個下下下丂丠個下下
▁丟丂丂俿下丠倏
▁下丂丂下下
▁丩丟下丂丟丩丩倓懻
▁下丂下丂丩丟丂個丂丫丩丟下丠个
▁丩丩丌丂丫丩丟
▁丫丩丟丩丂俿下丟倀丠个
▁下丂下下倆丩
η
▁丟下丌丂丟下下丂下
丂個下下丂
▁丠個丩丌丩丩倀丫倃下丂下
丠个
▁丫倀下丂個下下下丂
▁丩下丠俿下下丂丂俿下
▁丩下下下丂個下下丂下丫倇丩丩
倁
▁丂倝下丂下
▁丩丩丌下丂丂丂俿下下下丂丟丩
丂個
▁丩丩丌丟丠丟倅丟个
▁下丂下丂下丟个下丂丂下下丌倁丩
▁丫丂丩丂俿下下下下丫丩
▁下倆丌下下丠个丩丫
▁丟丂個下丂下丟倏懺丩下下丂丟个
▁丫倀丠倔
▁丩丩倀下下丂丂下丟个下丂下
▁丂個
▁丩丟下個下下丂丂丟个
▁丂俿下丟丂個下下下下丟丩丩
▁懸丟丌
丂個下
▁下丂丂下下下
▁下倆丌丩丫下下丂
▁丟丩丟个
▁下丂俿下丂倂倁个下丂下
倉
▁倝丂下倆丂俿下
丂個下下下丂下
▁丠倏丩丌丫丩
▁下丠个丟丂丩下下下丂下下倆丩
▁下懶丟丩丂俿下丌丫倇丩丩
下丠丂
丟
丂
倆丫丩
丫倃下丂下
▁丂個丂丂下懺懺丩丩
▁下倆丌丠个下下丂丂俿下
▁下丂個下丂丂下丂個下下丩倓懻
下丂個下下下
▁丟俿下俿下丂
下丟个
▁下倆丌下倅下倏
▁下倆丌下懺丩丠個丩丌丟下丠个
個丠
▁丩下丩丟下丠個下下下
下丟丂
▁個丠個丠個丠丠個丩丌
丫倀丠丂丩下下下丂下
丩丫下下丂下
Φ
ζ
丟下倆
▁丟下丂丂俿下丩下丩丟下下丂
丠丂
σ
▁丂個下丂丌丩丂個下丂下
下下下丂倕丫丩丩丩
▁丟丩丩丟下丂丟丩丟丟丟
個
懸懺丩懸懺
&
▁丂丁丂個下下下丂
▁下丂丂下丂俿下下下丂下個丠
▁丂個下下丂個丂丌丩丩倓懻
▁倝丂丩倓懻下丠丠個下下
▁丩丫下下丠个個丠
▁下倆
▁丩丟丠丩丟
ゥ
下丂下丟个
▁倝丂丟倁个下丟下下丂下
▁丠個丩丌丟下丂個下下丟倁个
下丠個丩丌丟下丠个
倀丠个
▁丟懷丟丩丩倀下倆丩
▁丂下倀丠下倃丂個下丂下丠個丩丌
▁丟下下丠丂個下下下
▁丩丩倀丫倃
▁下丂下丩丫下下丂
倓个
▁丟下下丟个下丂下俿下
▁丩倓懻丩丫下倂丠丂丠個下下
▁丟丂倀倆下
▁下丟个下倆丂俿下
▁下倆丌丂下丂下丂丫丟
倏
丩丟
丩下
▁丂丩丟丫倀丂俿下下丂下
▁丟下丩丟下丩丟
下丂丂下倂下倆丟丩
下丂俿下丂個下丂下
丩丟下丂丟丩丟倁丩下倂丂
丩下丩丟下下丂
丠個下下
▁丟懷丟丩丫丩丠倌下下丂
丩丫丩
下丟懷丟丟丟个
▁丩丩丌下下丂丌個丠懸懹丩倆丫丩
俿下俿下丂
▁丂個丂丂下
▁丩丩倀丂俿下下下
▁下丠倏丩
▁丠個丩丌丟倁下丠個倏
▁丩下丫丩丟丩倝丂
▁丟丂丩下丟個丟下丠个
Σ
ν
丟丩倂丂
▁丟倁
下下懹丩
▁丩下下下丂個下丟丂丩下下下丂下
τ
ρ
▁丩丟下丂丟丩倔丠下丂
倀倆
▁丂俿下下下丂丌個丠下丟个
▁丟丂下丂丂下丂個下下
▁懺懺丩丩丩下丂下丟丂個下下
▁丩下丂俿下丫倀丂俿下丠個丩丌
倆倁
▁丠個下丩
下丟丂個下下
下丂個丂丂下
▁懸丟丌下丠下下倅丟个
▁懺懺丩丩丩丟个個丠
▁下倆丌丩丩倀丫倃下丂下
▁下倃丫倃
丩下丂俿下丫倀
▁丩下下下丂個下個下丂俿下
▁丟下下丟丂丩下下下丂下個丠
▁丂個丂丂下丩下下下丂個下丂倆
▁丟俿下丠丂個下丂丂丩倓懻
個丂
▁丂倂丂丟倁个下下丂下
丟下丂個下下下丂下
▁丩下丟丩丟丩下丂
▁丩倁丂丩丂下丂下
丠
▁丂俿下丟個下下下倕丫丩丩丩
下丂下下丂
▁丩下丟個丟下丟倅丟个
▁下丂下懶丟丩丩下丟倅丟丩
▁下下丂丂俿下
下丂個丂
丩下丠
▁丩丟下下下丂
▁丂丩丟丂個丂俿下
下倏下下下丩下丟倅丟个
▁丟下丂丟丩丫倇丟丩丩
丠個下下丂
供
▁丂個丩丫下丂倂丂丂倆
▁下丂丂下丂個下下
○
▁丩丩倀丩丌丂俿下下丫倀倁个
▁丩丩倀下下丂
倁丩丂個下下丂
▁丟丟丂下丂丂個丂丂下丫倇丩丩
俿下
▁丩丩丌下丂個下下下丂丟丠下丂
▁丩倁丂丩
懹丩
丠個丩丌
▁丟丂丂個下下丂個丂丌丩
▁俿下丠丂丩丟丠個丩丌
▁下丂丌下丠倁个
下丂丂下下下
▁丟下下丟个
丩丟下下
▁懸丟丌俿下下丫倀丂個丂
ゃ
▁丩丩丌下
倁丩
下倃丂個下下
▁丩倁丂丟丩丂個下下丟個丟丩倃
▁下丂下丂俿下丂俿下倅丟个
▁丂個下下丟个丫倇丩丩
▁下丂下丂丫倀下下丟懷丟丟丟个
▁下下丂丌丩丠下下丂下
▁丂個下丂丌
下丂個下下下丂下
▁丟丂丩丟俿俿個丫丩丩丩
▁丟下丂丟丩倝丠
下下丂丟个
▁丩下丂俿下倀亞丌倝丂
▁下倆丌丂丫丩丟
▁丂下倀丠下倃下丟懷丟丟丟个丂倆
丟倁丩
≒
丂個下下下丟丩
▁下丂個丠倃下下倔丠下丂
▁丩丟丠丩下丟丂個下下下丟丩
▁丩丩丌下丂丂下倂
丟下下丂下丂下丂下
▁丂個下丂丌丩丩丩倀丟倏
▁丟俿下丠丟丂丩下下下丂下
丂下下丌倁个
▁丟丂丂倂丂
丟丂個下丂下丟倏懺丩
▁下丂下丂丂個下下下丠个丂個下下
下倏
ぴ
下倏下下下
▁懸丟丌丩
▁丩下丠丩丌俿下下倅丟个
ヵ
丩丟下個下下丂丂丟个
丫丩丠个丂俿下
▁下倅
丟丩丟丩丟丩丟丩
▁丩倓懻
個下下
下丂丟丩
▁丩丌丟倀丟丩丂俿丂丂下
▁丠個下下丩丫下下丠个
下丂個下下丂丩
丟丩丟丩
▁丩丩倀下下丂丟丩
丂個下下下丂丟个
丟丂個
下下丟个
丫丩丟
▁下丂下丩丫下下丂丠倌丩
倁丩丫丫个
▁丟个下下丂丩丫丌丩丫丂俿下丠倏
丟下丂下
▁下丂個丠倃下下丟下丂下丂俿下
倔丩
丂個下丂下
▁丟个個丠丂俿丂丂下
▁下下下丂倕丫丩丩丩俿下丠个
▁下丂丟丩下丂丟丩
π
▁丟下丩丟下丩丩下丩丟下
▁下丂丂下丂個丂丂下丫倀丟倁丩
下丟
下下倆丩
▁下丂俿下丂倂
▁倁丩
▁下丂丂下下下丫倃倃個丠
倝丂
丩丫下下丂
▁下倆丌丟丂個下下
倀丠丂倁个
下丂個下下
下丂個下丂下
丠个丂俿下
丂下丂下
▁丂個丂下丂下下下倅丟个
▁丫丂丩下丂丂俿下下下下丫丩
丫丩下下丂丂下丟倅丟个
下丂下下
▁丫丂丩
下丂個下下丠个
▁丂下倀丠下倃丂丂丩丟下
個下丂俿下
▁下下丠丂丂倆
倁丩倀倆
▁丩下丩丫丂個下丂丂俿下丟下丠个
丩丟下丂丟丩
▁丠個丩丌丩丩倀丟倁丩個倏
▁丩丟下丂丟丩丂個下下
▁_
下丟丩
倅個丂
丩丟下丠倏
▁下丂下丂下丂下懹丩丂俿丂丂下
丩下丂俿下
▁下倂倆丟倝丂
δ
▁下丂俿下丂倂倁个
丩丩丩倀
下丂丌
丟倁个
▁下丂丟丩丟丂個下下
▁丟丩丩丟懷丟丟
倌
倀
丟丩丩丟下下丠倁个
▁丩丟丠
▁丩丩倀丫倃下倂倆丟
丠個
俿下丠下丂丂俿下
下下倕
丂倆
▁個下丂俿下
▁丟丠丂个
倅丟个
▁丩丩丌俿下倕丠丂
▁倝丂
▁丠個丩丌懹丩丂俿下
▁下下下丟个
▁丩下丩丟下丂個下下倏
▁丩丩倀丂個丂下下
▁下丂下下下懺丩丟丟丟下丠倁个
個丩丌
▁丂個丂丂下丫丂
▁丩丫
▁丩丩丌下丠个丩
▁丟丂丂個下下下
▁丟倁丩
▁下下丠丩下下丠丩丂個下下下丟丩
丂個下丂下丫丩丩
▁丠倏丩丌丫丩丩倓懻
▁丟个下下丂丩丫丌丠个下倁丩
▁俿下下丠丂俿下
個俿下倏
丂丁
▁下丂丂下下下丫倃倃
下下丂丩
俿下丂下懸丟下
▁下丂丟丩丂丩丟丠個丩丌
丟個丟丟
▁丩丩丌丟個丟下下丂倂丂
▁下丂下丂丩下丠
丂倂丂
丌個丠
丫倀丩丌丫丩
▁丂俿下丂下丂丌倁丩丂個下下丂
▁下懶丟丩
▁下下下丂倕丫丩丩丩丩下下丂下
▁下丂個下下下丂丟丠下丂丂個下下
▁丟丂丟倅個丂
▁丩下丩丟丌
▁丟下丩丟下丩丩下
▁丩下丠下倂丂丂個丂
俿丂丂下下倅下倏
下丂俿下丩丫下
▁丩下倃丫倇丩丩
丟丩丟下丂丟丩丂個下丂下
▁丟丂下下丂下丂個下下下丟丩
▁下丂倁个個丩丌個丩丌
▁丂倂丂丩倓懻
▁下丂下丂懹丩丂俿下
下丂下下丂下
▁下倃下丂下丂下丠丂俿下
▁下下丂丌丟下下丂丟个
▁丩丟丂個丂丫丩丟下丠个
▁丟下丩丟下
丩丟下下丂下
▁懸丟丌丂丫丩丟
丟倁丂俿丟丩下丟个
俿丂丂下下倕丫丩丩丩
丠个丠丂
丟丂個下下下
下丠個下下下
丩丫下
▁丟下丩丟下丩丟下下丂丟丩
丂丂下
▁倀亞丌丟懸懹丩倆丫丩
▁丩丩丌丟
丠倔丩
▁丩丩丌丟下下
▁丂個下丂下丠個丩丌
丫倃
倁个
▁丩下下下丂個下丟丂下丂下倓个
▁丂個下下下丟下下丂下丂下丂下
▁丂個下下下下丂丟个
下下丂下
丂個丂
▁下丂丟丩下下
▁丟丠個下
▁丩倁丂丟丩
下丂丂下下
丩丟丠个
懸懺丩懸懺丩下懶丟丩
▁下丂下丂丟下丂丟丩懸丟下
丟下下丂
俿下倕
▁丟下丩丟下丩
▁丟下下丂丟丩
≧
倂丂
ψ
▁丟俿下丠丠個丩丌
丟个
▁丩下丂俿下
▁丟懷丟個倏
▁丩下丠丩丌丟下丂丟丩丂倆
倃
▁丩下丠俿丂丂下倀丫倇丩丩丟倁个
懺丩丠倏
▁下下丂丂倆
俿下下
》
丩丟下丂下
▁俿下下丂倂下個丩丫丂俿下丠倏
▁下倆丌丩下丩丟下
▁倁
丟下丂下下
丩丩下
丟丂下倆丩
▁下丂丂俿下下倆丂俿下丟倀丠个
▁丟懷丟下下丂下
▁丟丠下丂丂個下下下
《
▁倁丩倀倆丟
丟下丠个
▁倝丂丟丂下倆丩
懺懺丩丩丩丟
ヅ
▁下倆丌丂個下下
丩丫丫倀丂個丂
丠丩丂個下下下丠倏
下丂丂下
▁倝丂丂個下下丂個丂丌丩
▁丂俿下下丂個下下丂丩
▁丩丩丌下丂丂
▁丟下丂丟丩丟丩下丠丂個丂
丟下丂丟丩懸丟下
下懹丩下丂下
下丠丠個下下
▁丂個下丂下俿下俿下丂丩倓懻
▁丂俿下丂丩丟下丂下下
▁下倆丟
▁丟丠下丂
丩下倂
倂丂丂個丂丂
丩下丟丩
下丂下丂個下下下丟丩
▁丩下下下丂個下丟个懹丩
個丩
▁丟懷
▁懸丟丌丟倅下懶丂個下下
▁丟丂丩丟下下丂下丟下倆丌懶丟丩
▁丂個下丂丫倇丩丩
丟個俿下倏
丟個丩
▁下丠下丂丟丩下丂丟丩丂個下下
倀倆下
丟丩丩丟
▁下丂丟丩丟个下下丂下
丟下倔
丟個丩丟下丂丟丩
▁下丂丂下下下倆丟丩
▁丂俿下丂下丂丌丩下
丠倊倁丩
▁丩俿下下倅丟丩倝丂
▁下下丠倅下丟丂個下下下丟丩
俿下丂下下俿下倁个
丩丫下丂俿下
下倂丂
丂個丂丂下
▁丩丩丌俿下丠
√
▁俿下倕丩下懸懺丩
▁下俿下丂下懸丟下
丩下丂
丩丩倀个下下丂丟丩
丌丩
▁丠個丩丌丂個下下下
▁丂丁
丟丩丩丫丩丩丩
▁下下下丂倕丫丩丩丩下丠个丩
下丂下丂俿下
ぱ
丁
▁丂丫丩下丠个
個丠個丠個丠
個倏
▁丂個丂丂下丠下下丌丂下下下
下丂丂下下下丫丩
▁下丂俿下丂丫倀
丩下丩丟下
倕丫丩丩丩
丂個下丂俿下
▁丟倁丂個丠倏個丠
俿下下倅丟丩倝丂
丠丂下
▁下丂丟丩丠倏丩丌丫丩
▁懺懺丩丩丩丠个下下懹丩
▁懸丟丌倁丩丫倇丩丩
丩丟下
▁懺懺丩丩丩丩丩倀下丂下丟个
▁丩丩丌下丂丂下丂俿下下下丠丩
丩下丟個
▁丂俿下丂
下丂下下倆丩
▁下丂丟丩丠倔
下丂個下丂丌丩
▁下丟
俿下下倅丟丩個丂
丂丫丩丟
俿下丠
倝丠
下丂丂下下下丫倃倃
丫倃丂俿下
下丠倏
倆丂俿下
丂個下下下丟個丟丟
▁倝丂丟個丟下下丂倂丂
丩倓懻下丠丠個下下
丟下丠个丂俿下丂個丂俿下
倂丂丩丟下丂丟丩
▁丩丫俿下倕丂丟
▁下倆丌下丂下俿下
倔丠
▁丟个下下丂丩丫丌下倂丂倏
丫丂
下倃丟丩
▁丂俿下下丂下丟下倃丂個下下
丟個丟丩倃
▁丩丫下丂個丠倃下下下倆丩
▁下丫倀丩丌丫丩下下丂丂丩丟下
▁丫丂丩下丠丂個丂
▁丠個丩丌丂個下丂俿下
丩丫下丂丂丩丟下丂個下下
▁下丂丂下丂俿下下丂丟丂
▁下倆丌下丂下丟丩丟丩
▁丩下倃丂個下下下
倂
俿丂下
丩下懺丟丟丩
▁丩丩丌丩
▁丩丩倀丫倇丟丩丩
倀亞丌
倎下丫丩
丠倔
▁下丂下丂丟丂
〔
丟倅丟个
丩丫丂個下下
━
丂個丂丂下下丂下丩丫下下丂
▁丟丂個下丂下丟倏懺丩
▁丂俿下下下
▁下丂丟丩丠個下下丠個下下
丂下下丌丟下丠个
下倃
▁丩倁丂丟丩丫丩丠个丂俿下
▁丩丟下丂丟丩丩下丠下丂下
▁丂倂丂下下丠个丩丫
〕
丂下下下
丩丫倇丩丩
下下丂下丠個下下
▁丟丂下懶丩丂個下下下丟丩
個丠丂俿下
下丂下下丂丌下丂下下丠倏
▁丟个下下丂丩丫丌丩丩倀
▁丩丫下倂丠丂丠個下下
▁下丂下丂俿下丩丫下丂俿下
丠下倅
▁丩下丩丟下丂俿下丂倆
下丠個下下丂倆丫倇丩丩
丌丟下丠个
▁丩剗
丟丠下丂
▁丩丩丌丂下丂下丩丌丫丩
丫丩丩倓懻
丂下下
▁丩丫下下丠丂下倅倔丩
下丂丂俿下下下下丫丩
▁丂個下下下丠倏丩丌丫丩
▁下下丂丌下下丂下
▁丩丩倀下丂丟丂個下下下丠倏
丂個下丂下丫丩丩丩丟下丂丟个
丟倁
丟倅
▁倝丂丩丫下丟懷丟丟丟个
▁丫丂丩丩丫丩倂丂丟丩
▁倀亞丌丟
▁丩下丠丩丌丠个
下丂下丟倏懺丩
下丂丂俿下下下下
下丂俿下丂倂
丠个下倁
▁丟丂下下
▁下丂下丂丂個下下下丠个丂個丂
下丂下丟下倃丂個下下
下下丫丩
▁丂個下下丟丩
▁下倆丌下
丩丟丫倀丫倇丩丩丟倁个
▁丩倁懻
下下丠个
下倆丂俿下
丟下倆丩
▁下丂丌丩下丠
下下丂丟丩
▁下倂丂倅下丟丂個下下下丟丩
▁丂丂丩丟下丩丫下下丂
▁丩丌丂下丂下
倀亞
▁丠下下丌丂下下下丫倇丩丩
Γ
懸丟丌丟下丠个
▁丫丂
▁俿下倕丠丂
▁丩倁丂丩丂俿下下下
丫倀丠倏
▁丩丩倀下下丂下丩
▁丩丩丌下下丂
▁下下下丂倕丫丩丩丩丟個丂俿下
懹
丟下下丂倂丂
下丂俿下丩丫丌
▁丩丩丌丂個下丂下丂個下下下丟丩
▁下丂下丂丩
▁下丂下丂丟倁
▁丩下丩丟下下丂
#
丟下
▁懺懺丩丩丩下懹丩下丂丌丟下丠个
▁丟個倂丠丂丟個倂丠丂
丟丂個下下下丫倇丩丩
▲
丩丫下下下丠丩
丂丂丩丟下
下丂下丂個下下
丩下丩丟下丂俿下
▁丠個丩丌丩下丟丂丟倁个丩
丠倌
倁丩下丟丂個下下下丟丩
下倅
俿下倕丂丟
▁下丂下丂下丠丂俿下丫倇丩丩
▁丩下下下丂個下丠个
▁丟下丂丟丩丟丩丩丟
懸懹丩倆
ぷ
▁俿下倏丫倇丩丩
▁下丂丟丩下倃丟丩
下丂個下丂
下丂丂下下丌倁个
▁下丟倁丩丂倆丫丩丩丩
▁丟丂丂個下丂
下丂個丠倃下
丟丂
▁丂下丂下丠個丩丌
俿下下丫倇丩丩
ヂ
下下丂下丟丂個下下
▁下丂丌下倕
丩下丩丟下丂個下下下丂
▁丂個下丂丌丩下丂下
▁丟懷丟下丂下丂俿下丟倅丟个
υ
▁丩倓懻下下倆
丂俿下丠個丩丌
▁下丂下懶丟丩
丟下下倆
÷
゚
▁丂俿下丂俿下丂
▁下丂丂下下下丫丩
丫丠倆丩
下倆丌懶丟丩
丟下丂下丠倏
▁丂俿下丩下丟丩丟个
▁俿下丠个丩丩
丟倀丠个
▁下倆丌下丂下下丂丌
懶丟
下丂下丂下
▁下倂倆丟
下丂個丠倃下下
▁丠個丩丌下丂下
▁下丂丟丩下丂下下丂下
▁丟下丩丟下丩下下下丂倕丫丩丩丩
下丂下丂個下丂下
↓
▁丟丩丩個下下倅丫丩
丩下丟个
▁俿下
丩丌丫丩
▁丩丩丌下倆
▁下丂丟丩丩
▁懺懺丩丩丩下丂個下下丂丩下倆丩
懶丩下丂丌
丩下丩丟
▁丟丩下丂俿下丟丩丂倆
▁丟個丂俿下
下下下
下丂下下丠倏
丠丂俿下
▁丂個丂丂俿下下丂個下下下
丌
丌丠倊倁个
下丂俿下丂丟个丩丫
俿下下倆丩丌丫丩
丂俿下下下
▁丂俿下丂俿下下下倕
▁丟俿下丠
▁丠個丩丌丠倔
▁丟丟丂
▁俿下下下丂丌丂俿下下倆丩
懹懹丟
下丂個
▁丩下懺懹丩丫倀丟下下丂
下丂俿下丂俿下
丂倂丂下丟丂個丂丂
▁丠個丩丌丩下
▁丩丩丌下丠下丂下下丂下
丩丫丂個下丂丂俿下
▁下丂丟丩下丟个下倆丂俿下
下下倆丟丩
▁丟倅丠丩個丂丩丟丩丩丟倀倆下
倂下
個丟丩丟丂丟倅个丠下下丂
▁丟下丂丟丩下丂下丫倃丟倁个
▁下丂下丂丂俿下
丠个倆倁丫丩
▁丫丂丩丩下倃
▁丟丩丩個下下倅丫丩丟
κ
▁丟丩
丂丂丂下
▁丂俿下丂下丂丌丠倏丩丌丫丩
下丩
▁丂丩丟丫倀丂俿下丟下下倆
▁倝丂下丂個下下丂丟个
倔
▁丂俿下丠倏
▁丂下丂丌下倏下倆丟丩
丟個
▁下丟个丩
下倆
▁丠个下倁丂個下下下丟丩
─
▁丩下丠丩丌丂個下下丂
下下倆
▁丟丩丩丟懷丟丟丟丂個下下丠倏
丂個丂丂下俿下下倅丟丩下倆丩
丂丂下下丂
▁下丠个丟丂丩下下
ヴ
倁个下丂下
▁下丂丟丩丂個下下下下丂
▁下倆丌丩下
懺丩丠丂倃
▁丩丩丌下倆丌丟丠下丂
▁丂丁下倆丫丩倁个丂個下下下
▁下倂
俿下丠丂個下丂丂
▁丂俿下下丂個下下下
下丂俿下丂
▁下丂下下
俿丂下倏
▁丩下丂俿下丫倀
丂下丂丌
▁下下丂丌丠个丟丟丟
俿下下丂倂下個下丂俿下丂丟丩丩丫
▁倁丩下丂丌下丟丂個下下下丟丩
▁丂丩丟丫倀丂俿下丠倏
丩丌丫丩下丂
ο
個下下下倕丫丩丩丩
丂個丂丂
下丂俿下下下丠丩
丠下丂
下下丠倏
丠下下
▁丟丂個下下下倅丩丩倅丩丩懶
Λ
丟下丂丟丩丂個下丂下
丂俿下丌
丂俿下丟
懺懺丩丩丩俿下倕
▁丂個下丂丌丩下丂丂下倂下倆丟丩
丩丫下丫丩丂俿丂丂下
ヲ
▁下丂個下丂丂下丂個下下
下丂下丟
下丠个丂俿下
▁丂下丂丌下倏
▁丩丩丌丂
丟个下倆丂俿下
丩丩倓懻
▁丂個下丂丌丩丟倁个下下丂下
倂丂下丂丟丩
丟倁丩個倏
下丂下丂丂個下下下丟个
▁下丟丂
下丂倂下個
▁丟丂丩丫丂俿丂下丩丫丂個下下
▁丟丂丟
丟丩丟下丠个
▁丂俿下丟
丟下丂下倓个
下丂個丂倂丂
▁丂俿下下倃丂俿下丂俿下丂俿下
懸丟丌
▁丩丩丌下丠
俿下下倆
▁下丂丟丩丟下下丂
▁丩丩丌丂俿下下丂個丂丂下倁个
▁倁丩丂個下下丂
▁懸懺丩
▽
▁下丂個下下下丂下下
俿下倃
▁倁丩丫丫个
▁俿下丠丂
▁丟丩下
下丂倁个
俿下丂
▁下倂丂
▁丫丂丩丩
丂個下下丂下
▁下丂下丂丂個下下下丠个
倕丂
下丂個下丂下下丂個下丂下下
▁下下丠个丩丫下丟丂個下下下丟丩
下丂俿下丂丟丩丩丫
▁丩倁丂
▁下丂個丂丟丩下丂個丂丟个
下丂下丂丂個下丂下
▁下倆丌丟
▁丂俿下丟丂俿下丟下下丟个
倃丂俿下丂俿下丂俿下
下丂下丂丫
▁丩下丠丩丌丟倅丩個丠丂個下丂下
▁丟丂丩下下
▁懺懺丩丩丩丟倁个下下丂下丩倓懻
▁丂俿下丂倂丂下丟丂個丂丂
▁丩丫下丠個下下丂倆丫丩丩丩
▁丩下下下丂個下丟下丂下下
個下下下倕
▁丟俿下丠丂個下丂丂
丂俿下丟丂俿下
丠懶丟丩
下丂俿下丟丩丂俿下丟丩
俿下倏
▁丟丂丟倁
▁丟倅
▁下下下丂倕丫丩丩
▁丂個下下下丠个
∈
▁下下下丟个下下丟个
▁懹丩丂俿下丫倇丩丩
丂丂
▁下倆丌倀丠丂倁个
▁俿下倕懹丩
丩丌丫丩丩倓懻
下丟个下下丟个
丩下下丠丩
下丂下丫倃丟倁个
丠丩
丩丫丂俿丂下丩丫丂個下下
下丂丂俿下
丩丩丫
▁倂丂下丠丟倁丩丩下倆丩倆倁丟个
丫倇丩丩丂俿丂丂下下倆
▁丂俿下丩下懺丟丟丩
▁倁个丩
▁下丂丌丟
▁丩丩倀丟倁丩個倏
下丫丩
▁丩下丫丠倆
下丂俿下丟丩丂俿下
俿下丠丩
▁倁丂下丂丌
▁下倆丌丠个下倁丫倇丩丩
▼
□
■
倅
倕
▁丟丂丩下下下丂下
▁下丂丟丩下下丂丌個丠下丟个
▁下丂下丂俿下丩丫丌下丂倁个
下丂丂下丫丩
俿下丂個丂
▁丟丩丟丩下丂下
▁丠個丩丌下丂丟丩丠个倆倁丫丩
▁懸丟丌丟下丠个丂俿下丂個丂俿下
丁俿下
◆
◎
●
丫個丂俿下
丠个下丂俿下
丂個丂下下
丩丟倁丩
▁@
▁丟下下丂下丂下丂丌倝丂
▁丟丂丩丫
▁丩丟丠丩丟個丩
丂個下下丂個丂
▁丠個丩丌個丠
▁丩下丩丫丫倀丂個丂
▁下倆丌下丂下丂俿下
▁丩下丠丩丌丠个下俿下丠丂俿下
丟丩丩丟俿下下倆
丂俿下丠倏
▁下丂個丠倃下下丩
下丂個下下下丂
丟倅下懶
倂丂下倅
丠下下丌丂下下下
ぇ
下丂丂下倂
丟個丂倆
丩丩下丩丟下丂個下下
▁丂個下丂下下丂下
懸丟
丩下丩丟下丂個下下下丂下
丩丟下丂個下下
下下丂個下下
懶丟丩
丟个丩
丟倁丂個丠倏
▁丩下下下丂個下懺懺丩丩丩
下丂個下丂丂下丂個下下
▁下丂下丂下丂下
倆倁丟个
丟個丂俿下
倀下丂下下丂俿下下倆丩
▁下丂丂下丂俿下下丂個丠个
▁下丂丂下丂俿下下丂個丠丩
‐
個倂下丩丩
