<unk>
<s>
</s>
_1
▁丟丂個下下丟個丩
▁,
_2
▁。
▁下丠下下丂下
▁倁倆
▁個丠丩丩
▁丠個下下丂
▁、
▁0
▁丂個下丂
▁1
▁丂丌丩丠丩
▁倁丩下倆丩
▁)
▁丩剗下下丠丂
▁下丠丠個下下
▁2
_3
▁丟丂下倏
▁丟丟丂下下倆
▁丟下丂丟丩丂俿下
▁丟下下丂下
▁丂個下下下丂下丟个
▁丟个個丠
▁倆倁丟个
▁丫丂丩丟下下丂下
▁丟下丌丂丟個丟丟
▁(
▁丩下丠下倂丂倁个
▁下下倆
▁下丂丟丩丂個下下下
▁丂個下下下丂個下下下丂下
▁下丠懶丟丩個
▁丩下丟個
▁丟下丠倁个丩
▁丩丩丌下丂下懹丩
▁下下丂丌丂個下下下丂下
▁懹丩丠個丩丌下倃下倏
▁下丂丌倀丂倏
▁剗
_12
▁丟丂丟下丂下下
▁丟倓个
▁丩倓懻下倆丩
▁下丂丟个下
▁丂個下下下倆丩
▁丟下丂丟丩丂個下丂
▁下丠个
▁下下丂丌下丟丂丩
▁C
▁下丂下
▁丩丩倀下丂下丟个
▁下
▁倂丂丂倂丂
▁3
▁丩丩倀丩丩下丟个
▁下倆丂俿下
▁下倕丌
▁丟个下下丠个
▁-
▁丟丂下丂丟个下
▁丟丂下丂俿下丠个
▁下懹丩下丂丌丂倆
▁丩下丂俿下丂個丂俿下
▁下丂丩
▁倁丩丂個下下丂丩倓懻
▁下丂丌丩下丩丟下丂個下下丠倏
▁丂丁下
▁丟下丩丟下丩下丂下下倆丩
▁5
▁丩丟下丂丟丩懸丟丌丟下丠个
▁丟懸懹丩倆丫丩
▁下下丂丌丂俿丟倏
▁丟下下丂下丂
▁下丟丂丩
▁丂個下下下丂丟个
▁丟下下丂丂俿丟丩丂倆
▁下丂丂丂俿下懸丟下
▁丟下下丂個丂丂倆
▁丂個下丂俿下
▁丟下下倌
▁下丟丂個丂丂下下下
▁剗剗丌下丂下丂俿下
▁丩倓懻丩下丟丩
▁
▁丟倁个丟丩
▁下丂丂下下下丫丩
▁m
▁丠个下丂俿下
▁丂個下下丟个
▁4
▁丟丠下丂丂俿丟丩
▁丠个丂
▁丂丩個丂個下下
▁.
▁P
▁a
▁下下懹丩個丠
▁S
▁丟俿下丠丟丠下丂
▁丂個丟丩
▁丟丠下丂俿下
▁丩下丩丫下丠
▁下下丠丂
▁丩下剗丠倊倁个
▁下丟丂個下下下丠丂
▁丟下丂丟丩丂倆
▁倀倆下
▁個丠丂俿下
▁丂下丂丌下倏
▁e
▁丩丟下丂丟丩
▁丩下丩丟下丂丟丩
▁O
▁丩下丫丠倆丩倁个
▁下丂丟丩丠倔
▁下下丠丂丂倆下丂下
▁i
▁下丂剗丌丠个下丩丫下丩
▁丩下丠丩丫下丩
▁下丂丂下下下丟个下丂下
▁丩丩倀丫倃倔丠
▁下倃丟丩
▁A
▁丩丩丟丫倀倀倆下
▁丩下剗丠個下丂下丂俿下
▁丟丩丠个
▁丩下丩丟下丂俿下倝丂
▁下倅下倏
▁下丟丂個丂丂
▁丩下剗下丂
▁9
▁丂丂丩丟下
▁下倆丌俿下丠下丂丂俿下
▁剗剗丌丩下懹丩丠倏
▁丟倁丩丂丩
▁個丠
▁I
▁丩下丟個丟下倀丂倏
▁下下丂下丟倅丟个
▁丩丌丂丟丩丩丟下倆丩
▁丟倁丠個下丂下個丠丟下下丂
▁丩丩丌下懺丩丠丂倃
▁丩丫下下丠丂
▁6
▁丂個丂下下
▁丩下丫丩丟丩丟下丠个
▁丂俿下下下丂丂下下丌倁个
下丂
▁倀丂倏
丩丩
▁丠个
▁丠个下下懹丩
▁n
▁丩下懸懺丩丩丌丫丩下丂
▁丩丌丂下丟个丩
▁丩下丟个
▁丟倁丩丟倁丩
▁丩丟下丂丟丩下丠个
▁下下丂丟丩
▁o
▁M
▁丩丩丌下下倕
▁下懶丩下丂丌
▁丟下丌丂下丂下下倆丩
▁丂個下下下丂下丟个下丟丂俿丟丩
▁下倆丌丂個下下下丂下丟个
丂俿下丂俿下
▁丂俿下丂俿下下丟丩丩
▁下丂丟丩下丂下丂丂個下下下丟个
▁丂個下下
▁丩倁懻
▁丩丩丌下丠丟丂個下下倆丫丩
▁丂個下下下丂下丩
▁丟丂下丂丂俿下下下下
▁”
▁“
▁丟丂丂個下下下
▁r
▁8
▁丂個下下丠個下下
▁下丂丟个丩
▁下倆丌下丂倁个
▁下剗丟个
▁丟下丩丟下丩丩丩倀俿下俿下丂
▁丟倁个丂俿下
▁丩下剗丠个
▁t
▁丟丟丂丂個下下下下倆丩
▁N
▁下丂丟丩丟個懹丩
▁7
▁丂俿下丂俿下丂俿下
▁丩下剗下懶丩下丂丌
▁丂個丂丂下下丂丂俿下下下下
▁D
▁下丂丂下下下丫丩丠個下下
▁下丂丟丩丟丠下丂
▁丟丂個下下下
▁丟下丂個下下下丂下
▁l
▁丟丂丟倅下懶下
▁丩丩丌丂個下下丂俿丂丂下
▁下丠下丂丌丩下丟丩丟个
▁T
▁倆丫丩
▁丟丂個丂俿下
▁下丠丟丂個下下倆丫丩
▁丂個下下下
▁下丠个丩丫倇丩丩
▁下丂丟丩下下丂丟丩
▁下下丠丂丟丟丟
▁下下丂丩丫
▁E
▁丩倁丂丟丩倀丠丂倁个
▁丟丂丟下下丂
▁下丠下丂下丩
▁s
▁丂丁丂俿下丫丩丩丩
▁下丂丟丩俿下下倅丟个
▁下丟丂個下丟倁丠個下丂下
▁丟个
▁丟下丂丟丩丂俿下丟下丂下
▁下下丠倏
▁丩丌丂俿下丠倏
▁丟丂丂俿下下倆丟丩
▁丩下丟個丟下丠个
▁丟个下下丂下
▁丟下下倌丩丟下下下丂
▁丩丩丌倔丠下倆丟丩
▁丟倁丩丩下丟丩丩丫丩丩丩
▁丩丩丌丟下丂丂俿下
▁丂丩個丂俿下
▁%
▁丂個下下丩下丂俿下倆丫丩丟丟丟
▁下倆丌丠下下丌丂下下下
▁丂俿下丟丂個丂俿下
▁下丂丟丩下丂丂俿下下下下
▁R
▁倂丂丟下丠个
▁剗剗丌下懶丟丩下
▁丟丂丠个丠丂
▁c
▁丂個下丟倁个丩丩
▁丂丩丟下丠倏
▁/
▁丂個下下丂丂丩丟下
▁剗剗丌倁丩
▁丩下丟丩倂丂丂個丂丂丌丩
▁下丂丌下懶丟丩丂俿下丌
▁下丂丟丩丩丟下下下丂
▁丩下剗下下丂丩丫
▁F
▁丂俿下個丠
▁H
▁下丂下丟丂個下下
▁下丠丂倀倆下
▁丩下丩丟下下倆丟丩丟丠下丂
▁懸丟丌丂俿下
▁下丂俿下俿下下倆
▁下丂丌倁個丟丟
▁g
▁丩丫下丠個下下丂倆
▁丟下丂下丂俿下丩倓懻
▁下下丟倀丠个
▁L
▁丩丌下丠懶丟丩下丂俿下
▁丩下剗丩下懺丟丟丩
▁丟丂丩下下下丂個下
▁丟下丩丟下丩丂個下下下下丠丂
▁丩下丂個丂
▁丟丩丩丟下丂丟个
▁B
▁丩倓懻下丟丂丩
▁丂俿下個丠丂倆
▁丩下剗丠个丟倏
▁下丂丌丩丫丂俿丂下丩丫丂個下下
▁丂丫丩丟
▁下倆丌丠倌丩丫丩丩丩
▁下丠倁个
▁丠個下下
▁下倆丌丩下丩丟下懸丟下
▁丟丂丩下丩丟下
▁丩丌丂下丂下丩下丟倅丟个
▁丫丂丩下下丂下丠個下下
▁下丂個丠倃下下懹丩丫倃丟倁个
▁丟丂丂丩個
▁丂俿下下下
▁p
▁丩下丠丟下丠倁个丩
▁下丂下丂下
▁丩下剗丩丫丂俿下丠倏
▁丟丂下丟倁丩丂倆
▁倝丂丠个下下倆丫丩
▁下下
▁下丫倀丩丌丫丩下丟丂個丂丂
▁·
▁下丂俿下丂丟丩丩倓懻
▁丩下丂俿下倆丫丩下丠倏丩
▁丩丩丌丫倀丟倅丟个
▁丩丟下下下丠丂個下下下
▁丟下丩丟下丩下丂個丂丟个
▁丟倁个下倆丟丩
▁丩丩丌丟下個倂下丩丩
▁丩丩倀丫丩丠个丂俿下
▁倝丂丟倁个下倂丂
▁丩下下丂下
▁u
▁丂俿下下下下丫丩
▁俿下倏下倆丩
▁下丂丟丩下倆丟
▁下丂丠倃丩丩倓懻
▁下丟丂個下
▁丩丌丟丂丩下下下丂下
▁丟下丂丟丩丂俿下丫丩
下丂俿下丂俿下下下丂丂下丟倅丟个
▁下丂丌丩
▁下丂丂下下丌倁个
▁丟倁丂俿丂下丟懷丟丟丟个
▁下丂個下丂下
▁丩下丟个丠丂丂倆
▁丟丟丂俿下下倅丟个
▁丟个懹丩
▁丂俿下下丂
▁下下丂下懸懹丩倆丫丩
▁丂俿下丟倓个
▁丠个丠丂
▁丟下倆丌懶丟丩
▁俿下丠下丂丂下倅丟个
▁下倆丌丟丂丩下下下丂下
▁俿下丠下下懹丩
▁丟丂個下下下丫倇丩丩
▁:
▁;
▁倁个丂俿丟倏
▁G
▁丠个下倁丂俿下
▁d
▁下丂丟丩倁丩下倆丩
▁丟倁个丂個下丂下
▁丂丩丟丫倀丂俿下丂個丂
▁下倆丌個丂倁个
▁丟丟丂丂倂丂下丠倅丟下丠个
▁下下丠个丂俿丟倏
▁丩丫下丟丂個下下下丩倓懻
▁丩丫丂個下下丂下
▁下丂丟丩丠个下丩丫下丩
▁下懶丟丩丂俿下下
▁丩倓懻丟丠下丂
▁丟個丂俿下丟倁丩丟倁丩
▁俿下下下下丂倓个
▁丩丩丌丠倊倁个
▁丩丩倀丫倃下丂下
▁丩丟下下丂下丟下丂下
▁丟丂丩下下下丂下下倆丟丩
▁俿下倅丟下丠个
▁下丂下丟丂個下下倝丂
▁V
▁丩下剗下倆丩
▁下丂下丂下丟个俿下倏
▁下丂下丟下倕
▁丟丂下下丂倁丩
▁下倆丌下倃丂個下下
▁剗剗丌丂俿下下下
▁丠倌丟丩
▁丩倓懻下下懹丩
▁俿下倕丂
▁丟下丩丟下丩俿下倕丂丟
▁剗剗丌個丠丂俿下
▁丂下丂丌丟倏下下
▁丫倇丟丩丩
▁丟丩丩丟丫倀倁个
▁倝丂丟丂下倆丩
▁剗剗丌丟個丩
▁下丠下丂丌下下丂倁丩
▁丟个下下丂丩丫下
▁丟丂下丂丂下丫丩
▁丟下丂個下下丟倁个
▁下丂丂俿下下下下
▁丂俿下丂下丂丌丟倁个丂俿下
▁丟下丂丂俿下丩倓懻
▁丩丟下丂丟丩丩下丩丟下
▁下丂丟丂倀倏丂個丂
▁下丂丟丩下丂丟个
▁丂丩丟剗
▁下倆丌丟俿下丠
▁h
▁丠個丩丌下丂下丂丂個下下下丟个
▁丟丂個下下下丟下倆丩
▁下倆丌下丂下下倆丩
▁俿下倕丂俿下丂個下丂丌丩
▁下丠懶丟丩下丂俿下丫倇丩丩
▁丟下丂下丂俿下
▁丟丂下懶丩
▁k
▁下倆丌丩丩倀丫倃下丂下
▁丩丩倀下丟懷丟丟丟个
▁下下丠个
▁丟下下倌丩丟丠丩丩丟丠丩
▁丫倀丟倅丟个
▁下丠丂個丂
▁丩倓懻下丟个
▁下倆丩丌丟个
▁懸丟丌懹丩丂俿下
▁丩丌丟倀丠个丂俿丟丩
▁剗剗丌丂個下丂下
▁丩丩倀下下丂下丂俿下
▁丩丩丌丂個丂下下
▁丟倁丂俿丟丩
▁下丂丟丩丟倓个
▁丩下丩丟下
▁倂丩丟下丂丟丩丟丠下丂
▁下丂丌丟個下下
▁倝丂下下倆丫丩
▁丩下丟丩丟个
▁俿下丠丟丂俿下丂個丂丌丩
▁丠下下丌丂下下下
▁丩丩丌丩下丟丂丟倁个丩
▁倝丂俿下下倅丟个
▁下丂下懹丩
▁丫倇丩丩
▁倝丂丩下丟個
▁丩下懹丩下丠丂
▁下丂丌下丟丂俿丟丩
▁丂下丂下
▁丂個下下個丠丂俿下丫丩丩丩
▁丟下下下倅下丂
▁下懶丟丩丂倆
▁倁丩倀倆下丟丂俿丟丩
▁丩下丩丟下丂個下下丫倇丩丩
▁下丂俿下丂丟丩
丟下丠个下丂下丂下
▁丩丩丌丩丩倀丫丩丠个丂俿下
▁下丂丟丩俿下下倅丟丩下倂丠倏
▁下丂個下下丠个
▁下懹丩下丂丌丟倁个
▁丂個下下下丂個
▁b
▁丟倁俿丂下倏
▁下丟丂個下丂倂丂下丠丩丟丠个
▁丂個丟丩丟丩
▁俿下倏
▁丩丩丌丂個下下下倅下倏
▁丠個丩丌俿丂下倏
▁丟個俿下倏
▁丂個下丂下丠个丠丂
▁丩下丠倁丩倀倆
▁下丂丟个
▁下丂丟個丂
▁下下丂
▁下倆丌丫倀丫倃下丂丟个
▁丩下剗下丂下丂下
▁俿下下倅丟丩個丂
▁下丂個丟丩丟丩
▁丩丩丌丂丩丟丠個丩丌
丂俿下丂俿下丂俿下下倆丟丩
▁丩丩丌俿下丠下倏
▁下倆丌丟倁丂俿下丠个
▁下下丂丌下倆丩丌丟个
▁丩丩倀懸丟下
▁俿下倏下丠丂
▁下懺丩丠個丩丌
▁下丂下丂丟丂下倆丂俿下
▁丩倓懻丟下丂下丠倏
▁剗剗丌下丂倀丩丩下丟个
▁俿下下丠丂俿下丩丟下下下丂
▁丂倂丂
▁剗剗丌丟丂丩下下下丂下
▁丩下剗丂俿下丫丩
▁丩丟丠丩丟倁
▁倝丂丩倓懻下丠丠個下下
▁下丂丂下丫丩
▁丟下下丟个丂俿下
丩丩下丟丩丩丫丩丩丩
▁丩丩丌倀丠丂倁个
▁下丂丂下丠個丩丌丟下丠个
▁丂俿下丂俿丟丩
▁下丂下丂丂個下丟下丂丟丩
▁剗剗丌俿下下倆倁丫丩
▁丠个下倁
▁下丂下丂下丟个個丠丂俿下
▁下丂丌丩下丩丟下丂俿下
▁丩丫丂俿下丫倇丩丩
▁丩下剗俿下倏
▁丩丩倀下懹丩下丂下
▁下倆丌俿丂下倏
▁丂個下下丟個丟丟
▁下丟丂個下倂丂丂倂丂
▁W
▁丩下剗丂個下下下丂丟个
▁下丂下丂丌丟下丠个
▁丟下丂丟丩丟倁丩丟倁丩
▁下下丂丟个
▁下丂下丂丂個下下下丂
▁丩丌俿下丠丩
▁下丂個丠倃下下俿下倏
▁丟倁个個丠
▁丂俿下下下懹丩
▁丂俿下
▁丩丌丟倁俿下下倆
▁下丂下丂丩丩丌個倏
▁丟下丂下丠倏
▁俿下倕丠丂丂俿丟丩
▁丂個下下丂丂俿下
▁下丂下丂下丟个下倅懶丟丩
▁下丟倁丩丂倆
▁下丂丟丩
▁丂個下下丂
▁下丠下丂丌丠个下丠個下下丂倆
▁丂個下丂下
▁丟下個倂下丩丩
▁丂下倀丠下倃丫倇丩丩
▁丩丫下下下丠个丠丂
▁下丂丌個丠
▁丟丂丟倁丂俿丂下丟懷丟丟丟个
▁丠個下丂下丂俿下
▁丩丩倀丫倇丟丩丩丂倂丂
▁~
▁下丠下下丂
°
▁下丟丂個下丩丫下懸懺丩懸懺丩
▁下丂丂下下丌丩丫下下丠个
▁丂俿下丂個下丂丌丩
▁丟丂下下丌丠倊倁个
▁丩丩倀丟倁丩丩倀个下下丂丟丩
▁下下下
▁丟下下倆
▁丩剗下丠下下丂
▁丟丂丂丟下丠个丟丟丟
▁懸丟丌倀倆下
▁丂個下下下丂下
▁丟下下丠丂個下下下
▁剗剗丌丠个下丂俿下
▁下丂下丟倀亞丌丟下丠个
▁下丂丟丩丟倁个丂俿下
▁丟丂個下下
▁下倆丌丩下丠
▁丩下剗丟个丩
▁丩丟下丂丟丩丟个個丠
▁丩丩倀懸丟下下倆丟丩
▁丩丟丠丩剗下丠倏
▁丟下丩丟下丩下丂丌倌丠丩
▁下倆丌丟丩丟下丂丟丩丂個下丂下
▁丟丂個下下下下丟丩丩
▁下丟丂個下下懺丩丠丂倃
▁下丂下丂丟懷丟下丟个丩
▁丩倁丂丩丂俿丟倏
▁丩下丩丟下丂個下下
▁下丂下丂丟丂下倏
▁丩倁丂丩下丂下
▁懹丩下丠个丟丟丟
▁丟下丂丟丩下丂丩丩
▁丟丟丂丟丠下丂丂個下下下
▁下丂丂下下丌倁丩丟丂丟丩丟丩
▁丟丂下丠倏丩
▁下丂下丂丩丩丌丟倁个丂俿下
▁丩下丠丩丌下丂個丠丩
▁下倆丌下丂丂下丂個下下
▁丠个丩倁丩下丟丂俿丟丩
▁下丂丟丩下丠倁个
▁y
▁丠個丩丌丩丫丂俿下丠倏
▁下丠下倆丫丩
▁丂俿丠个丂倆
▁下丂下丂丩丩丌
▁丟下下下倅
▁丠倔
▁丟个丩個下下倅丫丩
▁丠个丂下丂下
▁下懺丩丠倏
▁丟下下倌懹倁下倆倁丫丩
▁丩丩丌下下丂下丠個下下
▁丩丟下丂丟丩下下丂下丠個下下
▁倝丂丠个下丩丫下丩
▁丩俿下下倅丟个
▁丩丩丌
▁下丂倁个
▁丩丩丌丩下下丂下
▁剗剗丌丩丩倀丟丂下丟丂個下下
▁下丂丌下丠懶丟丩個
▁丂俿下下倕
▁U
▁丩丩丌下倆丂俿下
▁丩下丠丟倅下懶下
▁下懹丩下丂下
▁丂下丂下丂丫丟
▁丟丂倁个
▁丟下丂丟丩丟丩丩丟丟丂個下下下
▁丂俿下丫丩
▁下下丂下個倂下丠
▁丩下丠
▁丩丩丌倀丂倏
▁下丂下俿丂下丠
▁下倆丌丠倌丩個丠
▁下丠下丂下
▁丩丟下下丂下下丟个
▁丟下丂丟丩丟倁俿下下丫倇丩丩
▁丟下丩丟下丩丂丩個丂個下下
▁下丂下丂下倂倆丟
▁下丠丂俿下
▁丟下下下倅丟下下丠个
▁倁丩丟丂丩下下下丂下
▁下丂丟丫倀丂俿下丂俿下
丟下下下倅丟下下丠个
▁丟下丂丟丩
▁丟丟丂倁个下丂下
▁x
▁丟倅丩個丠丂個下丂下
▁下倆丌
▁丂丂丟下丩丂俿丂丂下
▁丩丩倀下下丠倏
▁丩丫下丂丂丩丟下丂個下下
▁丟丂下丂丂俿下
▁丟丟丂下丂下丂下
▁倝丂丂俿下下下
▁丟下丂丟丩丟倀倆丫丩
▁K
▁下丂下懶丟丩下丠下丂丌
▁丟倁丂個下丂下下
▁丟下下倌倁丩下丂下
▁下丂下懶丟丩下丂丟丩
▁丂下丂下丂丫丟下丟丂俿丟丩
▁下丠
▁下倆丌丩丩倀懸丟下
▁下倆丌丟下丂丂俿下
▁倔丠下倆丟丩
▁下丂丌丟丂丩下下下丂下
▁俿下倅下懶
▁倔
▁丂個下下丂個下下丂個下下
▁下丂丌下倏
▁丟下個倂下丩丩丟下丠个
▁丠丂丂
▁下丂丌丂丩丂俿丂丂下
▁丂個下丂丌丩
▁丟倁丠個下丂下
▁丩下丩丫丂個丫倃丂俿下
▁下丂下丂
▁下丂丌丟倓个
▁X
▁剗剗丌丟倓个
▁下丂丌丩下丩丟下
▁丟下下丠个
▁丩倓懻個丠
▁丟下丠丂
▁個下丂俿下
▁丩丫下丟丂個下下下
▁下丂丂下倂
▁下倆丌丂俿下丂俿丟丩
▁倝丂丠个丠丂
下下倆丟丩
▁丂俿下丂俿
▁f
▁丟丂倀丂倏
▁丩丩丌下下丠个倆丫丩丩
▁丩丌
下丂俿下丂俿
▁丩丟丠丩丟丩下丠丂個丂
▁下丂丟剗剗丌丟個丩
▁丟丂下丂丂俿下丟下丠个
▁丩丩丌丂下倀丠下倃丫倇丩丩
▁丠丂下俿
▁丩丩丌丩下丟个丠丂
▁丩丩倀丟倏
▁下倆丌丂丌丩丠丩
▁丩丟下下丂下丩丫下丂俿下
▁丩倁丂丟丩個丠
▁丩丩丌丟丂個下下
▁丟丂丩下丟倅丟个
▁丩丫下下丠丂倆
▁下倆丌倁个下下丂
丩丂丩丂
▁丩丩丌丫倀丫倃下丂丟个
▁丩丩丌丟下下倌
丗
▁下丂丟丩丂個下下下丫倇丩丩
▁丟丂丂倂丂丟丂丩下下下丂下
下倃丟下下丟个倁丩倀丂下丟个
▁下丂個丂丩
▁丩丌丂個下丂
▁丟个丩
▁丟丠個下丩丩丠倊倁个
▁丟個丩剗丂倂丂
▁丩俿下丠
▁下倅個丠
▁=
▁丂俿下丂下丟个
▁丂個下下下丂丌倁丩倀倆
▁下丂丂丩丟下丫倇丩丩
▁丟下下丟个下丂俿下丩丫下
▁下丂個丠丫丩
丩丟下丂丟丩丟倁丩下倂丂
▁下丂丂丩丟下
▁丟丂丂俿下丟下下丟个
▁下丟倁丩下懶丟丩下下
▁剗剗丌丟倁个丂俿下
▁下丂下丂丂個下丂下
▁下倆丌下丠下下倅丟个
▁丂俿下下丌個丠
▁丩下倃丟倁丩丩丟下丂下
▁丩丩丌丂個下下丂丂丩丟下
▁下丂下丂下丂丟个下
▁丩丩丌下丂丂俿下丠個丩丌
▁丩丩丌丫倀丠倏
▁丠個下下個丂倁个
▁丟丟丟下丟丂俿丟丩
▁丂俿下丂下丂丌下丂下俿下
▁丟丂丂俿下丂下丟个
▁下丠下丂丌丟倀丠个
▁丂丫丩丟丂個下下下
▁丂俿下下下丂丟个
丩下丟個丟下丠个
▁丩丫下下丂
▁v
▁丂俿丟倏
▁丩下丠下丠下下丂
▁下丂下丂丂俿下丠丩
▁下丂個丩丌丫丩
▁下丂下丂倁个下丂下
▁丂丩個
▁丟下丂丟丩倝丠丩倓懻
▁丩丩丌丩下丟個丟下倀倆下
▁丟丂丂俿丟丩丂倆
▁丠個丩丌下倃丂個下下
▁丩下丂俿下倆丫丩
下丂個下下丂丌丩丫倇丩丩
▁下丂丟丩丟下下丂丟个
▁丩下丩丟丌丂倂丂下丟丂個丂丂
▁下懹倁下
▁下丫倀丩丌丫丩
▁下倆丌丠倊倁个
▁丂丁丂俿下
▁J
▁下倆丌俿下丠下懹丩下丂下
▁下丠丩丟丠个
▁丟丂俿下下下下丂倓个
▁倝丂下丂俿下丂個丩丫下丂
▁丟下丂丟丩倀倆下
▁下下丂倁丩
▁丠個丩丌丩下丟丩丟个
▁丟下下倌丩丩倀懸丟下
▁丩丩丌丟下丂下丠倏
▁剗剗丌丟倁个丩丩
▁剗剗丌丩丩倀下下倆丫丩
▁丂個下下丟丩丩丟下下丠倁个
下丂個下下丂丩下倆丩
▁下丂丟丩下丂個下丂丂下丂個下下
▁丩丟丠丩
▁丟丂丩下丩丟下丂俿下
▁下丟丂個丂丂下倆丩
▁丟倁丩丂俿下
▁下丂個丠倃下
▁下丟倁丩下丂丂俿下下下下
▁丟下丂丟丩丂個下下
▁下丂丟丩下丂倁个
▁丩丟丠丩丩丩倀下下丠倏
下丂下
▁剗剗丌丂俿下丫丩
▁個下下丠倝丂
▁丩下剗丟下丂丂俿下
▁丂個下丂下丟倁个丂俿下
▁下倆丌丟倅個丂
▁剗剗丌丂個丟丩
μ
▁俿下下倆倁丫丩
▁丟丂下倆丂俿下
▁丩丫下下丟个丩倓懻
▁丩丩丌丟丩丩丟倀倆下
▁下丂丂俿下丟下丠个
▁丩下剗丩下丂丂丩丟下丂個下下
▁下丂下丂下丟个丟倁剗
▁丠个下倅下丟丂俿丟丩
▁丟丂下下丂下
▁丩丩丌懹丩丂俿下
▁丩丩丌丩丟下下下丂
▁丩丌丠个下倁丩
▁丟下下丂
▁懹丩丂俿下
▁}
Z
▁{
▁下丂丂個丩丫下下丂
▁剗剗丌丟下丂
▁下丟丂個下倀丠丂倁个
▁下丂下丂倁倆倁丟个下丫丩丩丩
▁個丩丌
▁丟倁丠個下丂下丂個下丂丌丩
▁俿下丠個丂俿下
▁丟丂下丂個下下丠个
丂俿下丂下丂丌丟倁个丂俿下
▁丂個下下倆丟
▁倝丂丩下丩丟下丂個下下下丂
▁丩丩下丟个
▁丠个下丂俿下個丂
▁丩下剗丟下下丂
▁丂個下丂丂下
▁剗剗丌丟倁俿丂下倏
▁丟丂丂丌丩丠丩
▁下丂丟丩下丂丟丩下丂丟个
▁下丂下丂下丂下丟丂個下下
▁丂個下下丩下丂俿下倆丫丩
▁丩下丠俿下下倆丩丌丫丩
▁下倆丌丩下丠倔
▁下丟丂個下丩下丟丩丟丩下丂
▁倀丂下丟个丂個下丂丌丩
▁丩丟丠个
▁丩丟下丂丟丩丂丁丂俿下
▁剗剗丌下丂下
▁丂個下下下丠倏
▁剗剗丌懹倁下丟懷丟丟丟个
▁下丟丂個下丂丩丟丠個丩丌
▁俿下丠丂俿下丩下丩丟下下丂
▁倀亞丌倏
▁倝丂丂個下下
▁下丠个丩
▁下丂丌下丂丂俿下下下下丫丩
▁丟丩丟下丂丟个倁个下下丂
▁丠个個倏丂倆
▁丩下丠丟丂下倆丩
▁丟下下下倅丂個丟丩
▁丟丂個下下下丟
▁w
▁下丂下丂丩下懸懺丩丂個下丂下
▁下丂丌
▁丟丂丟俿下丠丂個下丂丂
▁丩剗丂個下丂下丂俿丟丩
▁丟倀倆丫丩
▁丟下下丂丟丩丟下下倏
▁丟下下倌俿下倕丠丂
▁丟丂丩下下丂下
▁下丂丂俿下下下下丫丩
▁丟倁下丠個倏
▁丟下下丂倂丂俿下丠丩
▁下丟個
▁丩丩丌丂丫丩丟
▁下丂丟丩丩下下丂下
▁下丂丟丩下懶丟丩下丠丂
▁丩丩丌丠个下下倆丫丩
▁下下丂下丟倁个
▁丩倁丂丟丩丂丩
▁下丂丟丩丩下懺丟丟丩
懸懹丩倆丫丩
▁下丠丂個下下倀倆下
▁丩丟丠丩下丂丂下下下倆丟丩
▁下丂
▁丠個丩丌丟個俿下倏
▁丟丂丩下剗下丂下丟丂個下下
▁俿下下丠下丟丂俿丟丩
▁丩丫下丩丫丩下下丂
丩下丩丟下丂個下下丠倏
▁丂倂丂下丠下下丂
▁下倆丌丂個丂下下
▁丩下丂俿下倀亞丌丠倌丩丫丩丩丩
▁丩丩丌丩丩倀下丂下丟个
▁z
▁丩丟丠丩丟俿下丠
▁丟丩丟下倆
▁丩下下下丂個下
▁俿下丠下丂丂俿下
▁下丂俿下丩丫下
▁下丟丂個下下丂下下丂下
▁丟下丂丟丩懸丟下
▁丟俿下俿下丂丩倓懻
▁下倆丌丂個下下下
▁丟丟丂俿下下下下丂
▁丟倅下個丂
▁下丂丌俿下丠丩
▁丂俿下下丂下丂丟丂俿丟丩
▁丟丟丂丩下下丂下
▁丩下剗下丂俿下丂俿下
▁丟丟丂下丂下下倆丩
▁丩下剗丂俿下下下丠个
▁下丠下丂丌丂個丂下下
▁丩丩丌下丂丟下丂個丟丩丟丩
▁倀丠丂倁个
▁下丟丂個下丂個下下下下倆丩
▁下丟丂丩丂俿下
▁下丟丂個下丩下丠
▁丠个下倁丫倇丩丩
▁丂個丂下丂俿下丂個下丂下
▁下倆丌下丂個下下丂丩
▁下倆丌丩下丩丟下
▁下丠下丂丌丠个丟倏
▁下丂丂丂俿下
▁下丂丫倀懸懹丩倆丫丩
▁下丂丌下丟丂丩
丟丟丂丟下丂個下下丟倁个
▁下丂個丠倃下下
▁丫丂丩俿下丠丩
▁丩下丟個丟下倀丂下丟个
下丂下下丟个下下倆
▁丂個下下下丂
▁下倆丌下丂丂下下下倁丩倁个
▁下倆下丟丂俿丟丩
▁丟丟丂丟倁丂個
丟個丩剗下
▁下丂丟丩丩下丟丩丟个
▁丂倂丂下丠丩丟丠个
▁下下丠丩下下丠丩丂個下下
▁Q
▁丟丩下下倆丟丩丩倓懻
▁丩下丠丟下丂下倓个
▁剗剗丌丟倅下懶
▁下丠下丂丌倁丩下丂下
▁丩
▁丟丩下下倆丫丩倁个
▁丂丂丟下丩丂俿丂下
▁丩下丩丟下丂個下下下丂
▁丂丫丩下丂下
▁丂丩丟丠個丩丌丂倆
▁丩丩丌丟丩倁懻
▁丂丁丂俿下下懶丟丩
▁下下丂倂丂
▁丩丩倀下下丂下丂俿下丂倆
▁丩丫丩丩倀丂俿丟倏
▁+
▁下丂丂個丩丫下下丂下丟个丩
▁下丂丟丩丟个懹丩
▁丟倁俿下下丫倇丩丩
▁下丂丌下倏丠個丩丌
▁丂丩丟丫倀丂俿下丟下下倆
▁下丟丂個下下下丟倁个
▁丟丂丟个個丠
▁丩丩丌丩
▁丩下懺丟丟丩丂倆
×
▁下丂丂下丂個下丂下丫丩
▁下倆丌丫倀下丠下下丂
▁丟丂俿下丂下下俿下倁个
▁丩丩丌丫倃丂俿下
▁下丂丟倔
▁丩丩倀下丂俿下丂個下丂下
▁下丂個下丂下倂丂
▁丟下下下倅丂個下丂
▁丠個丩丌丩個倁丟个
▁丩丩丌丂個下丂丌丩
▁下下丂下丂俿丟丩
▁下丂下丫倀下丠倔
▁丩丫下倂丠丂丠個下下下丂下
▁丩下剗下下丠丂
▁丫丂丩下丠丩丟丠个
▁下丂個丠倃下下丩下丂俿下倀倆下
▁下丂剗下
▁丠个下下倆丫丩
▁下丂下丂丟丩丩丟下丂丟个
▁剗剗丌丩俿下丠丂個下丂丂
▁丂丩個丩丫丂個下下丂下
▁丂倂丂下丟丂個下
▁丩丩丌丟個俿下倏
▁丟下丂下丂俿下丠下下丌丂下下下
▁下丂丂丩丟下丠
▁丩丟丠丩丂個下下丟个
▁丩丟下下丂下丂俿丂丂下
▁丩下丠丩丌下丂下丂下
Y
▁下丂俿下丂丟个
▁丟下下下倅俿下下倅丟个
▁懸丟丌下丂丂下下下倆丟丩
▁丟倁丂個丠倏
▁丟下下丂丟丩下下丠丂
下丂俿下丂俿下丟丂丩下下下丂下
▁丟丩下下倆丫丩下丂丩丩
▁丂個下丂俿下丂俿丟丩
▁倌丟丩
▁丠个下倁丩
▁下丟懷丟丟丟个丩倓懻
▁丟倀剗丂個下丂丌丩
▁丩丠剗
▁丂個下丂下丫倇丩丩
▁丟丂丩下下下丂下丂俿下
▁下丂下懹丩個丂
▁剗剗丌丟丩丩丟下下丠倁个
▁丩丩丌懹丩下丠个丟丟丟
▁倁丩倁个
▁下丂丟丩下倆丩
▁丂倂丂丟倁个下下丂下
倂丂下丠下懶丟丩下丂俿下丂倂
▁下丂個丠倃下下丟下個倂下丩丩
▁下丟丂個下下丂個下下丠个
▁下丠個丠
丩倓懻
▁丩丩丌俿下下丫倀倁个
▁下丂丟丫倀個丠
▁丩丩丌個丠丂俿下
▁下丂俿下丂丟个丟倁丂俿丟丩
▁丟下丂丟丩下丂丌下倃丂倆
▁丩倁丂丩丂個下下丂
▁丟丂丩下丂俿下丫倀下倆
▁丩下丠丟丂下倆丩丂個丟丩丟丩
▁倀丩倆下下下倁丟个
▁俿下丠个
▁丩丩丌丩下丫丠倆丩俿下倕
▁丂個下丩丫下下丠丩個倏
▁丂個下丂下懸懹丩倆丫丩
▁丟懷丟丂個下丂丌丩
▁丩丩丌俿下丠下丂個丩丌丫丩
▁倁倆倁丟丩倂丂
▁丩丟丠丩丩丩倀丫丩丠个丂俿下
▁丟丂丩丫下下丂
▁下丂丟丩丟丂個下下丂個丂
▁俿下丠下懹丩下丂下
▁丟倁丂個下丂下丌
▁丩丩丌下倆丟丩丂個下下下
▁丩丩倀下丂丟丂俿丟倏
▁下丟倁丩丂倆丩下丟倅丟个
▁丂個下下丂丟丩
▁丟下下下倅丠倊丂俿下
▁下倆丌丟丩丩丟下下丠倁个
▁丟懹丩
▁丟下丩丟下丩丟丂下倆丩
▁丟下丩丟下丩丠个下丂俿下
▁丩丩倀倀倆下
▁下倃丟丩丟倀丠个
▁丟丂丟个丩
▁丟下下倏
▁]
▁[
下丂丂下丟个倆倁丫丩
▁俿下倕丩丌俿下倕丩丌
丩丫下丂丂個下丂丌丩
▁下丂俿下丂個
▁丩丫下丫丩丂俿丂丂下
▁個丠丂俿下下倆丟丩
▁丫丩丠个丂俿下
▁個丂下
▁丩下剗丩丟下下下丂
▁下丫倀丩丌丫丩丠个下倁丩
▁下丂剗丌下倂丟丩
丫丩丩丩
▁丟下下下倅丩剗下丠下下丂
▁下丂個丠倃下下下丂下丟倀倆下
▁丩丩丌下丂丂個下下下丂丠個下下
▁丟丩丩丟倀亞丌倏
▁丟丂下丂下下丂下
>
▁丂俿丠个
▁丟倁个
▁下丂丌倀丠丂倁个
▁丂俿下丟下丂下
▁俿下下丩丟丠个
▁丟丂丂個下下丂
▁丟下丩丟下丩丟下下倏
▁下倃丟下下丟个
▁丟下丩丟下丩下丂丟丩丂個下下下
丩下丠俿下下丂丂俿下
▁下丟丂個下倆倁丟个
▁下丂下下丂丌下倆丩
▁丟倀剗個下丂俿下
▁丩下丠下丂丟个
▁丂俿下丟丠下丂
▁下丟丂個下丂丫丩丟
▁個倂下丩丩
▁丂個下下下丂丂下丟个倆倁丫丩
▁下丟丂個下下丂剗下
▁俿下丠个丩丩
▁丩下丩丟下下倆丟丩
▁下倆丌下丠倏丩
▁丩丫下下丠个個倏
▁丟丠個下丩丩丫倃丂俿下
▁下丂丌丂個下下下丂下
▁丟下下下倅丂俿下丂俿下
▁俿下丠丟下下倏
▁丩丩倀丩丟丠个
▁丩丩丌下丠下丂丌丟丠下丂
▁丂個丩丫下下丂下丫丩丩丩
▁丂個下下下俿下下倅丟个
▁丂丩丟丫倀下下懹丩
▁丩丩倀丟下倏
▁剗剗丌下倂丂倏
▁丟個丩剗下
▁倁丩倀倆
▁丩丩丌下丂丂下倂
丂
▁下丂丂下丂俿下下丂
▁丟丂丂俿下丠倏
▁丟下丂丟丩丟丩下丠丂個丂
▁下下丂下丠個下下丟倁俿下下倆
▁下丂個丠倃下下下倃丂個下下
▁下倆丌丠個下下丂
▁丟丂下丂下倓个
▁剗剗丌俿下倏
▁俿下倕丩丫丂個下下丂下
▁丟丂
▁丩丩丌下倂
▁下下丂丌
▁丟下丂丟丩丩下丂俿下丂個丂俿下
▁下丂丟丩下丂個丠倃下
▁丟倁个丩丩
▁下丟丂個下下
▁倝丂下下丂倂丂
▁丟下丂
▁丟下下下倅丂丩丟丠個下下
▁丟丂下懶丟丩
▁下丂丟丩下丂丂俿下
▁丠個下下丩下倂丂丟丩
▁下丂丂下下下丫丩丟丠下丂
▁丟丂個下下下倅丩丩倅丩丩懶
▁丩丩丌下丂丂
《
》
▁懸丟丌倁个個丠
▁丂個下丫倃
▁丟丟丂下丂丂個丂丂下下丫倇丩丩
▁下丂丟丩下倂下下丂下
▁丟倁俿下下倆
▁丟下丂丟丩丩丟丠个
▁丩下丠下丂丠倃下丂丠倃
▁丂個下下丂個下下
▁下丂個丠倃下下丟个個丠
▁下下丂丌倀丠丂倁个
▁下丂丟丩倁个
▁丟丠個下丩丩丂俿丂丂下
▁丟下丂丂俿下倏
丫倇丩丩
▁下倆丌下下丂丟丂個下下下
▁下丂下丟下倏
▁個丠丫丩
▁下丂丟丩下丂丟丩丩丟丠个
▁懸懺丩個丠
▁丟下下下倅下丂俿下丂個丩丟下丂
▁丟俿下丠丩下丟個
下丂下丂丠个下下丂下
▁下下下丟个丂個下下
▁丟丂丟下個丠
丂個下丂丌丩
▁丩丩丌下下丠丩下下丠丩丂個下下
▁剗剗丌倂丩丟下丂丟丩
▁丂丩個下倆丟
丩
▁俿下丠下倏
▁下丟倁丩下倏
▁下丟丂個下下丠懶丟丩下丂俿下
▁丩下剗下倆
▁下丂個丠丩
▁下下丂丌丩下丟丩
▁倝丂丠個下下
個丠
倂丂丂個丂丂丌丩
▁倁个
▁丩倓懻下下丠倏
▁丠丂下俿下丠倁个
▁丂俿下下下懹丩丫倇丩丩
下下丂
▁丟丂俿下下丫倀倁个
▁丂個下下下丂丟个下丟丂俿丟丩
▁下丂丟丩丂個下下下丂丟个
▁丟倀剗丟倀丠个
▁丩下丩丟丌丂丁丂俿下
▁丟下下下倅丂個下丂俿下
▁下丂丂下下下倆丟丩
▁丠倏
▁丩丩丌丂俿下丂丫倀丠個丩丌
▁丂丂倁个懸懹丩倆丫丩
▁丩丟下丂丟丩下丂丂俿下丠個丩丌
▁丂丫丩丟個丠
▁丩下剗丂丁下
▁丟丂俿丂丂下
▁丩倓懻倌下丂
▁丂下丂丌下倏懸懹丩倆丫丩
▁倝丂丂丫丩丟丂個下下倆丫丩
▁丩下丠丩丌
▁下丫倀丩丌丫丩俿下下
▁俿下倕丟下剗个
▁倝丂丩丩倀下下丠倏
▁下倆丟
▁下丂下丂俿丟丩
▁丂個下下丟下下丂下
▁下倆丩
▁下丂丟丩下丂丂下丂個下丂下丫丩
▁丂下丂下倂丂丟丩丠个丩倁丩
▁剗剗丌剗下丠倏
▁丟丩下丠丂個丂
▁丩丩丌丂下丂下丂丫丟
▁下下丂下丩
▁丩下剗丠个丟丟丟
▁丩丩丌下丂個丠倃下下
▁下丂下丂丫倀下下丟懷丟丟丟个
▁丟下丩丟下丩丟俿下丠丂個下丂丂
▁丩下懸懺丩丂個下丂下
▁丟下下下倅下丂個下下丂丩
下丂個下丂下丫丩
▁倝丂下倆丂俿下
▁丫丂丩丂俿下下丂個丂丂下倁个
▁丩丌下丠下倆丫丩
▁丩下丩丟下丂俿下丠倏
▁丂俿丟丩丟個懹丩
▁下丠個倅下丟丂俿丟丩
▁丩丩倀丫倃下倂倆丟
▁下倆丌剗
▁俿下丠倆倁丟个
▁丟下下下倅下丠个丩
▁丂俿下丂俿下丂丫倇丩丩
▁丩丌倆倁丟个
▁倁丂下丂丌下懺丩丠丂倃
▁j
▁丟丂倝丠
▁丩丟下丂丟丩丂俿下下下
丠個下下
▁丩丩倀丟倁个丂俿下
▁丠個丩丌丩丩倀懸丟下
▁下倆丌丩丩倀丫倃倔
▁丟下下下倅倓个俿下下下下丂
▁丩下丠俿丂丂下下倅下倏
▁下下丂下丠個下下
▁丟下丂丟下倆
▁丟丂下丂
▁丩丩倀丂個下下丂
▁下丂下丂丫倇丩丩
▁丂個下丠懻
▁丩丩丌丟倁丂個下丂下下
▁丩丩倀下下丂丂下丟个下丂下
▁丟丩丟丩丠个
▁丟丩下倆丟丩
▁下丂丂下下丌丂俿下丫丩
▁丂個下下下下丂
▁下丂下丫丠倆丩
▁丂俿下丠丩
▁丩丩倀丫倃下丟个丩
▁丫倀下下丠倏下倆丩
<
▁丂俿下丟丩丟下倆
▁下丂丟丂丂丟下丩丂俿丂丂下
▁下丟倁丩丟下下丂丟个
▁下倆丌丟下倏
▁丟丟丂丩丩丌下下倆
▁下丫倀丩丌丫丩丂個下丂下
▁下丂個丂丟丩丂倆
▁丂個下下丂俿下丠丩
▁丩丟丠丩下倆
▁丩下剗丟下丂丟个倝丠
▁丂下丂丌下倏下倆丟丩
▁丟倀剗丟個俿下倏
▁丠个丩倁丩倝丂
▁丂丂個下下
▁俿下丠下丂丂俿下丂倆
▁丂下丂丌下倅丟丂丩下下下丂下
▁下丂剗丌丂個下丠懻
▁丩丫下倂丠丂丩倓懻
▁丟個丂個下下
▁丂丁下丂丩
▁丩倁丂丩下丂俿下丂個下丂下
▁下丂丟丫倀丩丟丠个
▁下丂丟丩丟丠
▁俿下下倅丟个丩倓懻
▁丂俿下丂丂下丟丩
▁下丂丟丩丩丫俿下倕丂丟
▁丟下丂丟丩丂丩丟丠個丩丌
▁丩丠下丂個丂
個丩丌個丩丌
▁丩倓懻俿下丠丩
▁下下下丠下倆丩
▁丂俿下下倂丂倏
▁倁丩丫丫个下丂俿下丩丫下
▁下倆丌俿下丠倂丂丂倂丂
▁丩下剗丟丂個下下下丟下倆丩
▁下丠丟倏丩
▁丟下下下倅下丂下倕
▁丩丩丌丩下丟個丠个丩丩
丟丩
?
▁丟俿下丠丂俿下
▁丩丟下丂丟丩倀倆下
▁丂俿下丂下丂丌下懶丟丩下
▁丟丩丟下丂丟丩丂個下丂下
▁丟丂丂丩丟丫倀下下懹丩
▁下丂俿下丂個下丂下丂倆
▁丂俿下丂下丂丌丩丩倀下下丂丟丩
▁丩丩丌下丂下丂俿下
▁丟下下下倅丟倁个丂俿下
▁丩丩倀丟倁个丂俿下下丟丂俿丟丩
▁下丂下丫倇丩丩
▁丩下丠丩丌倁倆
▁下丠下丟个丩
▁下丂下丂下丠丂俿下
▁丫倀下倕下
下丟丂個下
▁剗剗丌丂丂丂丁丩丂俿丟倏
▁下丂丟丩下丂下
▁丩下丂個下下丟倅丟个
▁丠個下下倁個丟丟
▁丩丩丌俿下倕丠丂
▁丩丌丂丟倁丩倆倁丟个
▁丟下下丂下丂下丂下
▁丟下下下倅丩丟下下丂下下丠个
▁下丟丂個下丂丁丂俿下
▁丟下下丟个下丂下俿下
▁下倆丌下倆
▁丩下丫丠倆丩俿下倕
’
▁丩下剗丂個下丂下丠個下下
▁下丠下丂丌下丂個丟丩丟丩
▁丟丂下懹丩下丂丌丂倆
▁丩丩倀丂俿下丂俿下
▁丠個丩丌
▁下倆丌丟丠下丂
▁俿下丠丂個丂丂倆
▁剗下倆丩
▁下丩丟丠个
▁下丂個丠倃下下丂個下丂俿下
▁下丂下丂丟俿下丠
▁丩下剗下丂倀丩丩下丟个
▁下丂丂俿下
丟
▁丟丠個下丩丩丩下丠倔
▁丂個下下丩下丩丟下丂個下下
▁丩丫下丠個下下丂倆個丠
▁下丂丟
▁下倆丌下丠丟个丩
▁丩丩丌倁个下下丂
▁丂倂丂下丟个下倆丂俿下
▁丩下剗丠丂丂
下
▁丩丟下丂丟丩下丂丂下丫丩
▁丩下丠下丂丠倃下丂丠倃丟下下倆
▁丂個下丂下下倆
▁下丟丂個下下倂丂
▁倀丩丩下丟个
▁丂俿下丂俿下丂
▁下倆丌下丂丂下丠個丩丌丟下丠个
▁丟下丌丂丟下丠个
丟倁丂俿丂下丟懷丟丟丟个
▁丩丩丌丩丩倀下丂個丂下下丫丩
▁下丠个下丂下下下懺丩
▁丟丩丩丟下丂丟丩丟丟丟
▁下丟丂個下丟
▁丩丩丌丩丩倀丟丂下丂下丫丩
▁下丂丌下丂下丂丠个下丂俿下
丂俿下
▁丟倅下懶
▁下倆丌下丂下丂丂個下丂下
▁丩下丠丩丌丠倊倁个
▁丩丩丌丂丩個下下丂下
丟下丠个
▁倝丂下丠倁个
▁丂個丟丩丂倆
▁下丂下俿下
▁剗剗剗剗下
▁丩下剗下下丂下丠個下下
下倆丫丩
γ
▁丟个個丠丂俿丂丂下
▁剗剗丌
▁丩丩丌下懶丟丩下下
▁丩丩丌倁丩丟丂丩下下下丂下
▁懸丟丌
▁下丠懶丟丩個丂俿丂丂下
丂個下丂下懸懹丩倆丫丩
▁丂丂丟下丩丂俿丟倏
▁下倆丌丩下丩丫丂個下丂丂俿下
丂個下下
▁下倆
▁丩下丠丟丩丟丩下丂下
▁下倆丌丩丫丩丩倀丂俿丟倏
丂俿丟丩
▁丩丩倀丂俿下下下
▁丟丂下懶丩丩下丟倅丟个
丂俿下丂俿下丂俿下丂倂丂
▁丩下丟個丟下丟下下丟个
▁剗剗丌下下丂下丂俿丟丩
▁丩下丠丩丌倀丠丂倁个
丩下丩丟下下丂
▁丩丩丌丫倇丟丩丩
▁丩丫下下下
▁丟丩丩丟丫倀下丠倁个
▁下丂丟下下丂個
丠
▁丟丂下丂下
▁丟丂丩下下下丂下丫丩丩丩
▁下丂丟下下丠个丩丫
▁下倂倆丟
▁剗剗丌丩下丟个
▁丩丩丌下丂丟丂丫倀丂個丂
▁個丠丂俿下下丂剗下
▁下丂下丂丩下丟個
▁下丟倁丩丂倆丫丩丩丩
▁丩下丩丟下丂個下下下丂下
懸丟下
▁下丠倏丩
丟下丂下丂俿下丩倓懻
▁丩丩丌丟倁个下倆丫丩
▁丂丩丟丂個丂俿下
▁下丂下丂丠个下倆丟丩
▁丟下丂丟丩丂丫丩丟
▁丟俿下丠丂個下丂丂丩倓懻
▁q
▁丟下下下倅下丂丂下丂個下下
▁剗剗丌丟丩丠个
→
▁倝丂丟倁丟丂個下下下
▁丂俿下個下下丠倝丂
▁丟丂丟倏丂俿丟丩
倝丂
▁丩下剗個下丂俿下
▁倝丂丟個丟下下丂倂丂
丟個俿下倏
▁丩下丫丩
▁丟下丂下下丫倇丩丩
▁丩丩倀
±
▁丩倓懻丟下丂
▁丩下剗下丂下丟丂個下下
▁丂俿下丂丫倀丠個丩丌
▁丩下丠丩丌丟倅丩個丠丂個下丂下
下丂下丫倃丟倁个
▁下丂下丂丟
▁丟下丩丟下丩丂個下丂俿下
▁下丠下丂丌下丂個下下丂丩
▁俿丂下倏
▁丂丫丩下丠个
懹丩丫倃丟倁个
▁下丂下丂下丟个
▁丩丩倀俿下俿下丂
【
▁丩下剗丩下丟個
▁丟丂下丟个丩
▁丟下丩丟下丩丠个下丩丫下丩
倂
▁下倆丌丟丩丩丟丫倀倁个
▁丟丂個下下倆倁丟个
▁個丩丌個丩丌
▁丩丩丌下丂俿下丂丟丩
下丂俿下
▁下倆丌丂俿下丂下丟个
▁丩丩倀丫倃丟丂個下丟丟丩
▁下倆丌丟倅下懶下
▁丩丩丫下丟个
▁下丫倀丩丌丫丩丟倁个個丠
】
▁丩下丩丟下下丠丩丠
▁下丂個丠倃下下丟下丂下丠倏
▁下丠下丂丌下丂俿下丂個下丂下
俿下丠
丟丂丩下下下丂下
▁丂個下丂丌
▁丂俿下丂下丂丌丟下丠个
▁倝丂丟倁剗丫倇丩丩
丟下丂丟丩
▁丂個丩丫下下丂下丫丩丩丩下丂下
▁下倆丌丠倏丩丌丫丩
▁倝丂丟倁个下丟下下丂下
▁下倆丌下倅下倏
▁下下丟倀丟丩下倅倔丩
▁丂個丂丂下丟倁丩
▁丠個丠個下
▁俿下倕丟丠倅丩个
α
▁下倆丌丂個下下丟個丟丩倃
▁俿下下倅丟丩下倂丠倏
*
▁丟下丩丟下丩丂丠下丂個丂
▁倁丩倁丩倁丩丫倀丂俿下下下
▁丂俿丟丩丩丩倀下
▁下丂俿下
下下丂丟个
▁丂丩個丩丩丌丟下丂丂俿下
剗下丠倏
▁下丠下倆
▁丩下剗丩丟丠丩丩丟丠个
▁丩丩丌俿下下下下丂
▁下丟丂俿丟丩
▁丩下丟丂丟倁个丩
丩下丩丟下下丂下倆丟丩
倁丩
丟個
▁丩丩丌下丂下丂丂個下下下丟个
▁丂丠丟下下丟个下下丂丩丫下
▁丩下剗丟個丂個下下
▁丟下下下倅丩下丩丟下下丂
▁丩丩倀下丂個下下下
▁丩丩丌下丂下俿下下倆丟丩
▁丩丩丌丟個懹丩
▁下丂下懶丟丩丟丂丩下下下丂下
▁丟倀剗丂個下丂下丂俿丟丩
▁下倆丌丟丂個下下
▁丂俿下丂下丂丌俿下下倅丟个
▁下丠下丂丌丂俿下丫倀丠倅
▁丩丟丠丩下丠下下倆丫丩
俿下俿下丂
▁丂個下下丟倅個丂
▁丟俿下丠個丩丌個丩丌
丂俿下下下
▁下丂丟丩丠個丠個下
`
丂個下下下
丠个
▁下倆丌丩丫下下丂
▁丟下丂丟个下丂丌下倃
▁丂
下丠个丂個下下倃
▁丟丟丂下丂下下丂丌下下倆
▁丂俿下丟丂個下下下下丟丩丩
▁丩丩丌丟丂個下下下下丟丩丩
丂個下丂下
▁下丂丌下丂下丩丫丂個下丂俿下
▁丟個丩丌
▁丩丩丌下丂丂下丟个俿下倏
▁丟丂丠个丟倏
丩丩倀
▁丟下丂丟丩下下丂
́
▁丟倅丠丩個丂丩
▁丂丩個丟丂下懶丟丩
▁倝丂下丠下下丂
▁下丂丟丩丩丟下丂丟丩懸丟下
▁丩丫丂俿丂下丩丫丂個下下
下下丂下
丫倀丩丌丫丩下丟丂個丂丂
▁丩倁丂丟丩
▁丩下丠丩丌丟下下丟个
▁丩丩丌丂個下丂俿下
▁丟丂個下下丩倓懻
下倆丩
▁丟丂丂個下下丂個丂丌丩
▁丩丩丌下丂下
剗
▁下丂下丂個下下丂丩下倆丩
▁丠个下丂俿下丟下下倆
▁下丟丂個下丂個下下丂
▁下丂下丂丟個下丂個下下丂丩
▁丩丫下丂個丠倃下下下倆丩丩倓懻
下丂下丂
▁下丫倀丩丌丫丩下丠下下倅丟个
▁丩下倃
▁丂個下下下丟丩
▁丂丁丂個下丟丩
▁丂個丂
▁丩丩丌丩下丩丫丂個下丂丂俿下
▁下倆丌丠倌丩
▁丟丂丟丂個下下
下下丂下丟丂個下下
▁丠個丩丌下丟丂丩下
丩丟丫倀丟倁丩下倂丂
▁下丂丟丫倀
▁下丂丟丩丟丂個下下
▁丩丫下下丠丂下倅倔丩
▁丟下丂丟丩丩丫丂俿下丠倏
▁下丂丌丂個下下下丂下丟个
▁剗剗丌丩下丟個
▁俿下下倆倁丫丩丂倆
▁下下丂丌丩下丟丩下下丂下
▁下丂丂下丟個丂俿下丟下丠个
▁剗剗丌下丠下下倆丫丩
▁下倆丌丟丠個下丩丩丠倊倁个
▁丂下丂下倂丂丟丩
▁丩丟丠丩丂個下下下下丂
▁倁个丩
▁下丂丂下下下
▁下丂丂個下下下丂下下丂個
▁丫丂丩下丂個下下下
▁剗剗丌丂俿下剗
▁下丂丟丩下下丂
俿丂下倏
▁丟下下下倅丂個下下丂
▁下丂丟丩下丂丟丩下下丂丟丩
▁下丂丂個下下下丂丠個下下
▁下倃丟下下丟个倁丩倀丂下丟个
▁丂俿下丟倀丠个
▁丩丩丌丩下丠下倂丂倁个
▁丟倁丂個下丂下丌丩丟下下下丂
丟下丠个丠丂
下丂丂下丫丩
丩丟下丂丟丩
丩丟
▁下丂下丂懹丩丂俿下
▁下丂丟丩丟下丠个丠丂
▁丩下丂俿下丫倀丠倏
▁丟下下下倅丠个丩倁丩
▁丟丩倁懻
▁丠个下下丂丂俿下倁丩倀倆
▁丟丂下倆丩
下丂丂俿下
▁下下丂下下丠丂
▁下丂丂下下下丫倃倃
▁下丠下丂丌
▁懹丩丠倏
θ
丂個下下丂
▁丩倓懻丩下丫丠倆丩
下下
▁下倆丌下丠个丂個下下倃
▁下丂丟丩丟倅丠個丂
▁下丠下丟個個丠
▁丂俿丟丩下倆丟
▁丂個下丂丌丩丟
▁倝丂
▁丩下丠丂丁丂俿下
▁丟丠個下丩
▁下丂丟丩丟下個倂下丩丩
▁丟丠下倆丫丩
▁丟丂下丂丟个
▁丩丩丌丂俿下丂個丟丩
▁下倆丌丟丂丩下下下丂下倝丠
▁下丂下丂丟個丟下下丂倂丂
▁倁丩倀倆丟下倆丟丩
▁丩丩丌俿下倕丟下剗个
▁丩下丠丩丟下個下下丂丂丟个
▁下丂丟丩丟丟丟
▁丟下下下倅丂丩丟丂俿丟丩
倆丌懶丟丩
▁丟下下下倅丂個下下丟個丟丟
▁丩下剗下丂丟下丠丂俿下
▁倁个丟個丩剗下
▁丫丂丩丠个下丂俿下
▁丟丟丂下倅個丠
▁下丠下丂丌丟丠下丂丂個下下
▁下下懶丩丂下丂丌
▁丂個下下個丠丂俿下
β
丩下丠
▁下倆丌下懶丟丩
▁下倆丌丠倌丩下丂下
下丂下丂俿下
▁下丂下丂丂個丂丂
▁丠個丩丌丟個丟丩倂丂
▁倔丠
▁丟懷丟丩
丩下下下丂個下
倅個丂
▁下丂個丠倃下下下丂丂下丂個下下
▁丟下下丠倝丂丂個丂
▁丩丩丌個丠丩丩下倆丟丩
▁丂個下丂丌丩下丂丂下倂下倆丟丩
丂丩下下下丂下
▁丂個丂下下倝丂
丩丌
丟倁丂個丠倏
▁丩倓懻丟下倔
下丂下下
▁丩丩倀下倆丩
丟丠下丂丩
▁懸丟下
▁下倂丂倅下丟丂俿丟丩
▁下倆丌丟丠丟下丂下倆丌
▁懸丟丌丩下丟個
丟倁丂俿丟丩
▁丟懷丟下丂下丟丂個下下丩
倏
▁丩丩丌下丂丂丂俿下下下丂丟丩
▁丟丂丟下
▁丩倓懻丂個丂丂下丟倁丩
▁丟下丌丂
▁丟下下下倅丟丂個下下下下丂丟个
▁個丠丂俿下丂俿丟丩
▁丟懷丟
下丟個
▁下丠懶丟丩
倅下倏
▁下丂下丂下丠丂倀倆下
▁丩丩丌丩俿下下倅丟个
倁
下丂丂俿下丠個丩丌
▁丠個丩丌懹丩丂俿下
▁丟下下丂倂丂下丂丂
▁丩下丂俿下丫倀丟下下倏
▁下丂剗丌下丂丂下下丌倁个
丂俿下下個丩丌個丩丌
丟丂丟丟个
▁下丂倀丩丩下丟个
▁丂俿丟丩丂丁丂俿下
▁下丂丌丂俿丟丩
俿下
▁丟丂丩下丟個
▁下下丂丂俿下下丂丂下下
▁丟倅丩個丠丂俿丟丩
▁下丂下丂丩下倃丠丂倃
▁丩丩丌丟
▁丠個下下個丠丟丩
▁下丂丂下下
俿下下倅丟丩下倂丠倏
▁丂俿下丂下丂丌下丠个下下倕
▁下丫倀丩丌丫丩丟下個倂下丩丩
▁丩下丟個丟下丟倅丟个
▁丟下下下倅丩下丠下倂丂倁个
▁下倃丂個下下
▁丟
▁丂俿丟丩下下懶丩丂下丂丌
丂個
▁剗剗丌丩剗丟倁个下下丂下
▁丟下下丟个
▁丂倂丂丟倁丩
▁丂下倀丠下倃丂丂丩丟下
▁下丂丟丩下丂丟丩倀丂下丟个
▁丩倓懻下丠倁个
▁下丂丟丩丟
▁下倆丌丟丂個下下下下丂倁个
▁丠個丩丌丩下丟個
▁下倆丌倔丠個丠
▁下丠懶丟丩下懸丟下
丟个
▁丩下剗下倅丟倏丟丂個下下
▁丟丂下丂丂下丂個下下
▁丩下剗倁个下下丂
▁丟懷丟下下丠个丩丫
▁下丟丂個下丠個下下丠個下下
▁下丠下丂丌倔丠
懹丩
下丂下丂俿下丩丫丌丟丟丟
▁丟倀剗丩丩倀俿下俿下丂
▁丩丟下個下下丂丂丟个
▁丟下下下倅丂俿下丂個丟丩
▁下丂下丂下丠懶丟丩
下丂丟个
▁丩丩倀下下丂丂下丟个丩丩
▁俿下丠
下丂個丂
▁下丠下丂俿下丩丫丌下倆丩
▁倝丂丩丫下丟懷丟丟丟个丩倓懻
▁丟丂倔
▁下丂下丂丩下丟丩丟丩下丂
▁丩下丟个丠丂
▁下下丟倀丟丩懸丟下
▁丩下丩丟下丠丟丟丟下丟丂俿丟丩
▁丠個下下丩下丠下丂下
▁丩丩丌下下丂下丩丟丠个
▁剗剗丌丠个下下懹丩
下丂個下下丠个
丫倀
▁丟倁丂個下丂下
下下丂下丂俿丟丩
下丂俿下倆丫丩
▁下丂下倆倁丟个
▁下丂個下丂丂下丂個下下丩倓懻
▁丩丩丌丩丫下丫丩丂俿丂丂下
丩丟丂個下下
▁下下丂下
丂個丟丩丟下丂丟丩下丟个
▁丟下下下倅丟
丠丂
▁丟下丩丟下丩
▁丠個丩丌下下丂
▁丩丩丌倁丩丂個下下丂
▁下丂丟丩丩丌倁個丟丟
丠倏
▁丠個丩丌下丂個丂
▁丟下丩丟下
▁丟丂俿下下丠
▁丂個下下下倅下倏
丩丫下倂丠丂丟倀丠个
丠個丩丌
下下丂下丠個下下
倁丩倀倆丟
▁丟下下丟个丂俿下丂個下下
▁下下丟倀丠个丂俿下
▁丂個下丂下丂俿丟丩
▁丂俿下下倅倀倆下丂俿丂丂下
▁下丂下丂下丂丂俿下
▁下倆丌下丟丂個下
倀丠个
▁下丂丟丩下下下丟个下下丂
▁丟倀剗丟丠倁个
丩丫下下丠个倆倁丫丩
▁丟俿下丠丂個下丂丂
丂俿丟丩懸丟下
懺
丂倆
▁丂俿丟丩丟下丠个
丟丟
▁下丂下下下丂丟丩丟倀丠个
丂個丂丂下
▁下丂下丂丠個下下
丂個下下下丂下
▁下下丂丌丟下下丂丟个
▁丟下丩丟下丩下丠倏丟丩
▁丂個下下丟倀丂個丠倏
▁丠個下丩
▁下丂丌丂下丂下
▁丂個丂丂下下丂下丟丂個下下
▁下丂下丂倁丂下丂丌下懺丩丠丂倃
▁丂個下下丠個下下丂俿丂丂下
▁丠個下下丟下剗个
^
▁下倆丌丩下丩丟下丂個下下下丂下
▁下丂下丂丠下下丌丂下下下
▁下倆丌下丂下丂丠个下丂俿下
▁下下懹丩
▁丠個丩丌下丂下懹丩個丂
▁下丂下丂俿下丩丫下丂俿下
下下下丂丂下丟倅丟个
下丂個下下丂丩
▁下倆丌丩下丟个丠丂
▁下丂剗丌
▁下丂俿下丂丫倀丂俿下丂俿
▁丟下丂丟丩倝丠
▁丩丟下下下丂
▁丫倀下丠下下丂
▁俿下倕丟下倆丫丩
▁下倆丌丂丩丟丫倀丂俿下丟下下倆
▁丩丩丌丫倀下倕下
丠个下丂俿下
▁下倆丌丂丁丂個下下下丂
▁丟丂個丩丟下丂丟丩下丟个
▁丩丩丌下丂個丠倃下
▁下倅倔丩
倁个
丟丂個下下
▁懹懹丟
▁個倂下丂丂俿丟丩
▁丩個倁丟个
▁下丂丂下丂俿下下下丂下
▁丠個丩丌丩丩倀丫倃下丂下
▁丟丂丂個下下丂個下下
下丂丟丩丂個下下下
▁丟下下下倅下丂丂俿下下下下丫丩
丩丟下丂丟丩懸丟下
丟个丩
▁丩剗下下丂個
▁丩丩倀丫倃丟下丂下下
▁下丟丂個下丂俿下丂丂下丟丩
▁丟倀剗丟倅丩個丠丂個下丂下
▁丟丩丠个下
▁丩丟丠丩倁丩下丂下
▁下倆丌倏
▁丟個
▁丩丩倀下丟个下倆丂俿下
丂俿丟倏
▁丟丂下丂下丫丩
▁丟丂下倏下丂
▁丩剗丟丩丩丟丟下下丂倂丂
丟丂個下下下
▁丟個剗下
丂個下丂下丟倏懺丩
▁丟倀剗丟下丂個丂
下倅下倏
丟倁个丂俿下
▁丟丂下丠下丂下
▁丫丂丩倔
▁倝丂下丠下倆丫丩
ε
丩丟下丂丟丩丩倓懻
▁丩倓懻丩丫俿下倕丂丟
▁丟下下下倅丟下丂丟个倝丠
▁丂倂丂下丂丂下下丟倀丠个
丂俿下下下丠个
▁丩丫下下丠个
▁丂俿丟丩
丂個下丂下下丂丂下丫丩
▁丩丟丠丩丟
懸懺
▁丂俿下俿下丠下倏
▁丩下丂俿下
▁丟個丟丟丫倇丩丩
▁丂丂倁个下丂下
▁丩倓懻丟倅個丂
▁下丂下丂丩丟丂個丂丫丩丟下丠个
丂個丂
▁丂丩個下丂丂下下下
丩丫下下丂
丂個下
▁丂個下下丫倀下丠下下丂
下丂丌
λ
▁下丂個丠倃下下丂個下下
▁下倆丌丂丩丟剗
倉
▁丩丩倀下倆
丠倔
▁丟下丂丟丩丂倆下倆丟丩
▁下丠个下下丂丟丩
丠个丠丂
▁下丂丂下丂俿下
▁丩下丟倅丟个
丠个下倁丩
▁下下丂丌丩丠下下丂下
▁下下丂丌個丠下丟个
▁下丠丟丂個下下丂丫丩丫倇丩丩
▁下丠懹丩丟丂丩下下下丂下
▁丩丩倀丟个
丠下丂
丂俿丂丂下
丂個下丟丩
▁俿下丠个丂個下下下
▁丟下丩丟下丩丩丫下丠個下下丂倆
倓个
▁下丂丟丩下丂下丂
下丠下下丂
▁下丂下丂俿下
′
▁俿下下丠丂俿下
▁丟下下下倅丟下下丠下倆丩
▁丩丩倀丫丩下下丠丩丂俿丟倏
▁丩下丠丩丌倁丩丂個下下丂
▁丫丂丩個倂下丂丂俿丟丩
▁下丂丟丩丟丂丩下下下丂下
下丟丂個下下下
丟丂下丂下丫丩
▁丠个個倏
下丂個
▁下倆丌丂個丂丂下下丂下懹丩
下倆丟丩
丂俿下下丂個丂丂下倁个
下丂下下丂下
」
|
▁丩下剗
丩下倂丂
「
▁丫丂丩下丟丂丩
丂下丂下
丟下丟下丠个丟下下倆
丟丂個下下丠下丂
▁丩丟丠丩丩丟丠个
丩下丠倔
▁丩丩丌丩個倁丟个
▁丩丩丌下丂
▁下下丂丌下下丂下
▁丩丩倀下下丂丟丩
▁下丂下丂丟個丩丟下丂丟丩
▁丩丟丠丩丂個下下
丟下下丂下
▁下丂丟丩丩丩倀
▁下丂丟倝丂丩下丩丟下丠
▁丩下丂俿下倀倆下
▁下丂丌下丂下丟丂個下下
▁下丂丂下丟個
倂丂
▁下丂丌懹丩丟下下丟个
▁丩下丂俿下丫倀丂俿下丠個丩丌
下倏
▁丟倀剗
▁丩丩倀丟丂下丂下丫丩
▁下下丂丌丠个丟丟丟
倁倆
▁丟懷丟下丂丂下丂個下下
▁丩下丩丟下下丠
▁懹丩丠個丩丌下倃下倏丫丩丩丩
▁丂俿下下丂個下下丂丩
丩下丂俿下丂個丂俿下
下下丂丩丫
▁丂個下下下俿下倅下懶
丠个下倁
下丟倁
丫丩丟
下丂丟丩丠个倆倁丫丩
下丂丂下下
個丠倃下
丂丂
丟個丩
▁丟丩丩丟懸丟下
▁下丂丟個丠丫丩
▁下丂下丂下丠丂
丩下
▁下丂丟丩丩丫下下下
下倆
▁丟丠倅丩个
▁丟下丩丟下丩下倂丂
下丂個下下
▁丂倝下丂下
▁丂個下丂丌丩下
下丂丂下下丌
▁丩下剗丟丠下丂丩
懹丩丂俿下
▁俿下丠丩丫下下丠丂
丂下下
▁丂俿下下丂個丂丂下倁个
▁丩丩下丂
▁下倆丌丟丩丩丟丟下下丂倂丂
▁丩下丠下倂丂丫丩丩丩丩倓懻
▁下丂下丂下下丟倀丠个
▁下丂下丂丟下丂丟丩懸丟下
▁下丂下丂丩下倃
▁丠个丩丌丫丩丠個丩丌
▁丟下下下倅丟丂丩下下下丂下
φ
▁下倆丩丌丟丩丟下丠个
▁下丟个下倆丂俿下
▁下倆丌懹丩下丠个丟丟丟
▁丠倌丩
▁丩倁丂丟丩丂個下下下丂丟个
▁下下丂丂倆
▁丂個丂丂下丂丁丂個下下下丂
丩丫
下下倅
▁丟下下丠倝丂
倆丫丩
▁丩丩倀下下倆
▁倀亞丌丟丠倅丩个
▁下丂下丂下丟个下丂丂下下丌倁丩
下下下丂下
下丂下丟丂個下下
▁丠個丩丌丠倊倁个
▁倀亞丌丩下懺丟丟丩
▁丩下丩丟下下丂
▁下丂丌丂個下下下
▁丂俿下下
▁下下下丟个倆倁丫丩
▁下丂丟丩下丂個下下丠个
丂丟下丩
▁丂個下丂丌丩下丂丩
▁下丂俿丩下丂俿丩
▁丠个下丂俿下丂俿丂丂下
丟下下丂
▁丟下丂丟丩懹丩
Δ
丩丟下下丂下
▁倀亞丌丟個俿下倏
▁丩丩丌丩丫下懸懺丩懸懺丩
丠倌
▁丩下下倂丂下丂丂下下下丂丟个
懷丟丟
▁丟下下丂倂丂
▁俿下丠丟丟丂丟下丂個下下丟倁个
丫丩丠个丂俿下
▁下倆丌丩丩倀
▁丩下丩丫丫倀丩下丟個
丫倃
▁丟倁丂個下下倏
丟倏
丠丂俿下
▁丩丟下下下丠倁丩下丂下
丂倂丂
▁丩丫丂個下丂下下丂俿下
▁剗剗丌丩下丠丂個下下下丂下
▁丩丟丠丩丟下丂下下
俿下倕
!
▁懸丟丌倝丠
丟丟丟
△
▁丩丩丌丫丩丠个丂俿下
下丠個
▁丩丩丌下丂個下下丂丩
▁丩下丟个懸懹丩倆丫丩
▁丟个個丠丂俿丟丩
倀丠丂倁个
▁丂個下丂下丟下下丠下倆丩
▁丟下丂丟个
Ω
丩丟下
▁丂丩個下懶丟丩丂俿下丌
俿下下丂丂俿下
▁丟倁丂個下丂下下丂個下下
▁丠個丩丌下丂丂丂俿下懸丟下
▁丫丂丩下丠倏丩
▁倁丩丟倀丠个
▁丂俿下倂丂
▁下丂丌倌丠丩丫倇丩丩
▁丩丩丌丟丠丟倅丟个
▁丂俿下丂下丂丌丟丩
下丟个下倆丂俿下
▁丟倀丠个
下丠
倅
俿下下
丩丫下丂
丌丩
▁丠倏丩丌丫丩
丂個丂下下
▁丠個丩丌丟丂個下下倆倁丟个
▁丂個下下丂個丂丌丩丩倓懻
▁丂丩丟下丠倅丫倀下丠下下丂
下下下丠下倆丩
▁下下丂丂俿下
▁丟丂個下下下丂個下丂下下丠丂
▁丩下剗倌下丂
▁丩下丠下丠倏丟丩
丫倃丂俿下
丟下丂下
丂個下下下丂
▁下丂下丩丫下下丂
▁下丂丟丩丟下丠个
丟倁丩丩倀个下下丂丟丩
丟倁丩
▁丠个下丩丫下丩丟下丠个
丟丂
下丟
▁下丂丟丩倁個丟丟
倀亞丌
▁下倆丌俿丂下下
丩丫下丩
丂下下丌
▁下丂丌下倕
▁俿下倕
▁丂俿下丂個下丂下下倅丟个
丟倁
下丂倁个
丩下丟个
俿下下倅丟个
丂個下丂俿下
下丠下倆丫丩
⊿
▁丫丂丩下丠
▁下下丠个丂個下丂丌丩
▁丩下懸懺丩
▁丟丩丟个
丟倁个丩丩
丟倁丠個下丂下
▁下倏丟倏下丂
▁下丂丂下丂俿下下丂個丠
▁丟下
▁下丂丟丩下丟丂丩
▁丩下丠丩下丂俿下倀亞丌倝丂
倀亞丌丟下丠个
丠個下丩
▁丂俿下丩丩倀下丂下丟个
▁丟下下倌下下丂下丠個下下
▁丠個丂個下丂倆
丩丩下丟個
▁剗剗丌下下丂個
丩倀
丠个個倏
丠下倆丫丩
▁丩丫下
丟個丂俿下
▁丠個下下丠个下丩丫下丩
▁丩丩丌丟丩
▁丠个下下丂丂俿下
▁下丂下丂丩倁懻
▁丟下丂下懹丩
▁丠个下丠個下下丂倆丫倇丩丩
丫丩
丠倊倁个
≦
▁下下丂丌丂倂丂下丟丂個丂丂
▁丟下下下倅丩丫丂俿下丠倏
▁丟丩丟丩下丂下
▁丂俿下丟丂丩下下下丂下
▁丂丩丟丫倀丂俿下下丂下
▁下丂下丩丫倅丟个
▁丂俿下下丂下
▁丟懷丟下丂下丂丂個下丂下
▁下丂個下下丂
▁丩丌丂丟倁丩下丠个
▁丂俿下丠个下丂俿下
丂下下丌丠倊倁个
▁下丂下丂下下
▁下倆丂俿下下倆丂俿下
▁丠个丩下丟丩倂丂丂個丂丂丌丩
▁丂俿下丂下丂丌下倏
▁下丠倏丟丩
▁丂個下丂下個丠
▁丟倏丟下丂丟丩下丟丂俿丟丩
▁下倆丌倁個丟丟
丌丂
倀丠丂
下丂個下下下丂下
▁下丂下懶丟丩
▁下丂丂俿下丠個丩丌
下倂丂倏
俿丂下丠
▁丂個下下丟個丟丩倃丟倀丠个
丩丟丠个
▁丂丂倁个丠個下下
▁丫
▁丠個丩丌下下丠个
ω
下丂丂丩丟丠個丩丌
▁丫丂丩丟丂個下下
倕
▁下丂丟丩倝丂下丠丠個下下
下懶丟丩下
下下丠倏
▁丟丂個下丂下丟倏懺丩
▁丩丩丌丩丫下倂丠丂丠個下下
丂下下下
▁丩下丠丩丌俿下下倅丟个
▁丟下下下倅剗
▁下丂下丂丩下丠下倂丂丫丩丩丩
下下下丂個下
▁丩丫下丩
▁懸懸懸丂個下下下丂丟个
丠個下下丠個下下
▁倁丩倁丩
丩丩下丟个
▁丂丁俿下丠
▁丂個下下丟个丫倇丩丩
▁丟下下下倅丩丩倀懸丟下
▁下倆丌個丠丂俿下
▁下丂丌丟下丠个
下丂丟个下
▁丟個丂俿下
下丂剗下
▁丂倂丂丠個下下丠個下下
▁丩下丫丩丟丩
下下丂丟丩
下丂下俿下
▁下丂丂丂俿下下下丂丟丩
丩下倆丟丩
▁丩丩倀下丠懹丩
下丂丟
丠丩
丟下丟丂俿丟丩
▁下丂丟丩下丂丟丩
▁丩俿下下倅丟丩丠個下下
丂個下丂
俿下丠丩
丂俿丟丩丂倆
▁下丂丟剗剗丌
▁丂個丂丟丂個下下
倀倆下丂俿丂丂下
▁丠個丩丌丟下丂個下下丟倁个
▁丠個丩丌丂個下下下
懹丩下丂下
丩丩下
▁丟倀剗下丂丂下下下
丠個下丂下丂俿下
▁丩丩丌丂下丂下丂丫
倆倁丟个
▁丂丁下倆丫丩倁个丂個下下下
▁俿下丠丂丩丟丠個丩丌
下丂丂下下下
丩下丩丟下
個丠倃
▁丩丩倀下下丂丂下丟个丂俿丟丩
▁丠丂下俿丟丂個下下丠下丂
▁下丟丂個下丩丫下丂丂丩丟下
丂個丂丂下丟倁丩
▁丩丩丌下丠
▁丩倁丂丟丩丂個下下丟個丟丩倃
▁丩下丩丟丌丂個下下丟個丟丩倃
倁丩倀倆
下下倆丩
懸懺丩懸懺丩
▁丂俿下丟丩丟丩下丂下
▁丂個下下丂倁個丟丟
丩丫下下丠个
η
▁丂俿下丩丩倀
▁下丂下丂丂個下下丠個下下
丩丟下丂丟个
丠个倆倁丫丩
下丟丂俿丟丩
▁丩丟丠丩丩下
俿下俿
俿下倕丠个
▁丂倂丂丂個丟丩
丂個下下丂個丂
▁丂個丂丂下丩下剗丂倆
丟下倆丟丩
倅丟个
下下丂丌
下下丟个
懶丟丩
下丂個丠倃下
▁丩丟丠丩下丟丂俿丟丩
▁下丂丂
▁丂俿下丂下丂丌
▁丩剗
▁丟下丩丟下丩丩下丟個
下丟懷丟丟丟个
丠个丟丟丟
丫丫个
▁丟丂個丂
下下下
下丂個下丂下下丂個下丂下下
▁丩丩丌丩下丟个丂倆
▁丩倓懻懸懸懸
丟下倕
▁下丂倁个個丩丌個丩丌
▁丂下丂丌下丂倁个
丠個下下丂
▁倁丩下懶丟丩
▁下丂下丂俿下丩丫丌下丂倁个
丟下丟下下丟个
▁丂下丂下丠個丩丌
▁丂個下下下丂丟丩丟丠下丂
丩丟下丂下
下丂丂俿下丂
▁丩倁丂丩倏
▁丟下下丂丟丩丂個下下丂個丂丌丩
丟倁个下下丂下
下丂俿下丂個下丂下
▁丩丩倀丟丂下丟丂個下下
▁剗剗丌丩下丩丫丫倀丂個丂
丩丟下個下下丂丂丟个
▁下倆丌丟下倀丂倏
▁下倃丫倃
下丂丟丩
▁丩下下
▁丫倀丠倔
▁丩丩倀下下丂下丩
▁下倆丌下懺丩丠個丩丌丟下丠个
▁下丂下丂丂個下下下丠个
丫丫个下丂俿下丩丫下
▁丠個丩丌丟倁下丠個倏
丟个個丠
▁下丂丌下下懹丩
▁丟丂下丂個下下丂丩下倆丩
▁丂俿下丠下下丌丂下下下
▁丟下下下倅丂丁丂俿下
ζ
▁下倆丌丂俿下
▁丠個丩丌丟下下丂下
丂丁丂俿下
▁丟下下丟个丟下丠个丠丂
▁丟丂倀倆下
▁丟丟丂丟下下丂下倅個丂
▁倝丂丠个
▁俿下倅倀丂倏
▁下下丂丌丩
倆
倃
丩下懶丟丩
丂俿下下下下
▁丟丂丂倂丂
丟倅丟个
▁丩丩丌丩下丫丩懹丩丟倅丟个
▁下倆丌下下丂丟个
▁丂個下下下丟下下丂下丂下丂下
丫倀下下丟懷丟丟丟个
丂個下下丟個丟丩倃
▁丩丫下下丠个個丠
▁下倃
▁下倆丌下俿下下丂下丟个
丟下丂丟丩丂個下丂下
丟下丂下丂俿下
丩下剗丩下丩丟下下丂
▁下丂丌丟丠下丂俿下
▁丩下丂個下下
丩下丟個
▁丂俿
▁丩丌丂丟倁丩
▁丂個
下丂個下丂丌丩
倅丩個丠丂個下丂下
丂個下丂下丌丩丟下下下丂
▁丂俿下下倅下倏
▁下丂丟丩下丂
▁懹丩
▁丩丩倀丫倃
▁下倆丌丂
丩下丫丩
▁丟下下下倅下倆
▁丟下丂丟丩丟下下丠个
σ
丟丟丩
▁丟下丂丟丩丫倇丟丩丩
▁丂個下丂丌丩下丂下
▁丟丂個下下下倃
▁丂俿下下丂剗下
▁剗剗丌丟丂個下下丂個丂
丟丩丟丩
▁丟丩丩丟懷丟丟丟丂個下下丠倏
丩丩丩
丟下下丂下丂下丂下
▁丩丟
丟丠倅丩丩丩下丩丟下下丂
▁丩下懺丟丟丩
▁俿下下倅丟个
▁俿下丠倂丂丂倂丂
▁丫丂丩下丂丂俿下下下下丫丩
丟下丂丫丩
下丂丩丫
▁下丂丟丩丂丁下倆丫丩倁个
下丟丂個下下
▁丟丂俿下
▁丠個下下丂個下丂
下丂個下下下
▁丂個下丂丌丩丟倁个下下丂下
丟下丂下丠倏
▁丂俿下俿丂下倏
▁下丂個丠倃下下丩
▁丩丟丠丩下丂下
▁$
▁下丂丟丩丩
▁下丂丟丩丂丩丟丠個丩丌
▁下丂丟丩丂丩丟剗
丩丟下丠倏
▁丂丂倁个
下倆丂俿下
▁丩丟下下下丠
▁下丫倀丩丌丫丩丟丂丩下下下丂下
▁丩丟下丂丟丩丩俿下下倅丟个
▁丂丩個丩丫丂俿下丠倏
丂丁下倆丫丩
個丩丌
τ
▁下丂下丂丂俿下
▁下倆丌丟個丂俿下
ν
倂倆丟
▁下丂下丂丟个
▁下丂個
ρ
▁倁丩
下丠懶丟丩
▁懸丟丌丂丫丩丟
丟丂下倆丩
丁
▁丂俿下丂下丂丌倆倁丟个丂個下下
▁丂個丂丟下剗个
▁倁丩倀倆丟
▁下丂個丠倃下下丩下丟丩丟丩下丂
▁倝丠
下丠个
丩丫丫倀丂個丂
▁下丂丟丩丠倏丩丌丫丩
▁下丂丫倀
丂丟下丩丂俿丂丂下
下丂下丟个
▁懸丟丌下丠下下倅丟个
▁丩下丠丩丌丠个丟丟丟
▁俿下下
▁下丂個丠倃下下丟倁个丂俿下
丟倁丩下倂丂
懸懺丩
下丠倁个
剗下
丂丩丟
▁下丂丌丩丫
▁丂俿下丂下丂丌丟下下丠个
▁丂丩個丟丩
丠倅丟下丂下丠倏丂俿丟丩
▁丟丩丩丟
下丂個丂丂下倁个
▁丟俿下丠
▁懸丟丌下下丂下
▁丠倌
▁下下丠倅下丟丂俿丟丩
▁下丂下丂丟個
▁丟下丩丟下丩丠個丩丌個丠
○
▁下丟丂個下下丂
下丂丂下倂
丂下下丌倁个
▁俿下倕丩下懸懺丩
&
丂丩丟下
▁丟倁剗
▁下丂下丂丟下丂丟丩
丟倀丠个
丂俿下丠倏
▁下倂丂
▁丩下丩丟下丂個下下丠倏
▁下丂下丂丂個下下下丠个丂個丂
下丂個下丂丂下丂個下下
丟丂俿下丂個丂丌丩
丩下丩丟下丂個下下下丂
▁倝丠倀倆下
▁丩丩丌下丂丟
̄
▁丟丂下下丂下丠倔
下懹丩下丂下
▁丩丟下下
▁下倆丌下丂下下丂下
▁丩丩丌倁倆倁丟丩倂丂
丩下丟个丩
▁丩丩丌倁个
丟倁俿丂下倏
丩下懺丟丟丩
▁丂丩個下丂丟个
下下丠个
▁丟丂丩丟丠个
▁丩丩倀丫丩
▁丩丌丂下丂下
丩丟丟丂個下下下
丠个下丠個下下丂倆
▁丠個丩丌丠倔
▁下丂丟丩丟个下下丂下
▁下丂個下下丂丌丩丫倇丩丩
▁丫丂丩下丂下丂丟
▁下丂俿下丂倂丂丩
▁丟下下丂丟丩
▁下丂下丫倀
丩下丟丩丟个
▁丂俿下下下丠个
▁丂個丩丫下下丂下丫丩丩
▁丟下丂下
▁丂下倀丠下倃
▁丂個下下丂個下下丂
下丂丌下倃
▁下丟丂個
下丠个丩
▁剗剗丌丂俿下
▁丂個下丂丌丩丩丩倀丟倏
丫倇丟丩丩
▁丂俿下丟個丟丟
▁丩丩丌丩丩倀
▁丟下丩丟下丩丟
丟丂個下下下丟下倆丩
個倏
▁丩丩丌丟倁个丂俿下
▁丩下丠下丠个
丩丫下
下丟倁个
▁丩丟丠丩丩丫下下下
▁丩下丩丟下丂俿下丂倆
▁倌
丂俿下下倆丟丩
▁下丂丟丩下丂下丫倃丟倁个
▁丂丩丟丫倀丂俿下丂俿丟丩
▁丫丂丩丩下丂俿下倆丫丩
懸丟丌
丠个下
▁丩丌下下下丟个下下丟个
丟个丩個下下倅丫丩
▁丂下丟倁丩倁丩
倅個丠
▁丟丠下丂丩
▁丠個下下下丠个丩
▁丂俿下下丂個下下下
丟丂下丂下
▁丩丩丌丟個丟下下丂倂丂
丫丩丩
▁丩丩丌倁個丟丟
丩下丠下丂下
丩丫下下丂下
倂丂俿下
▁丂俿下丟下倔
▁懸丟丌剗
▁懸丟丌個倂下丩丩
Σ
丩下下丂下
▁丩倁丂丩
懶
▁倀丠丂倁丩下丟丂俿丟丩
丟下丠倁个丩
≒
▁丩丩丌下丂丟丩下丂丟个
▁丟丩丟下丂丟丩丫倇丩丩
丩丟下下丠倁个
▁丩下倃丫倇丩丩
▁丩丫
下下丂丟丩下丂丂下丂個下下
個
▁剗剗丌丟个個丠
▁丂個下下下俿下丠
π
倁丩丂個下下丂
▁下丟
▁丂丁丂個下下下倆丟丩
丂丩個
丂個丂丫
丂俿下丂個丟丩
▁下丂個丂丟丩下丂個丂丟个
▁俿下丠丂個丂下下
▁下下丠个丂俿下
▁丠个下
▁下倆丌下丂下丂丂個下下下丟个
▁丩丩丌丂俿下下丂個丂丂下倁个
▁丫丂丩
▁下倅
▁丩丩倀丫丩丂俿下丂個丟丩
▁丂俿下丩下丟丩丟个
▁下丠倏丟丩丩下丟倅丟个
▁丩丩倀丂個丂下下
俿下下倅丟丩
▁丟下下下倅下懶丟丩下
丂丂下
▁丩丩丌下丠个丩
丂俿下下
▁丩丩倀丫倇丟丩丩丂個下丂丌丩
▁丫丩
▁丟倁丩
丩丩倓懻
▁丩丟下丂丟丩丩倓懻
倝丠
▁下丂下懶丟丩丩下丟倅丟丩
▁下倂倆丟丟丂丩下下下丂下
丩剗
▁下丂下丂丂個下下下丟个
下丂丠倃
▁丟丟丂
▁下倆丌丟個俿下倏
俿丂丂下
下丂下丂丂個下下下丟个
丩丫下下丠丂
▁倁丩下丂丌下丟丂俿丟丩
δ
丂俿下下下下丫丩
▁下懶丟丩
▁丟倁
▁丫丂
▁丂個丂丂丁丂俿丟丩
丟下個倂下丩丩
丩下剗下丂下丟丂個下下
▁丟丟丂下丂下丂下丟个
▁丩俿下下倅丟丩倝丂
丟丠下丂
▁丩丩倀丫倃下倅個丠
俿
丠个下丩丫下丩
丂丟丩
▁丂丁
▁丟下丩丟下丩丂個下下下下丠个
‘
▁下丂下丂丩下
▁丂個下丂下丠個丩丌
丩丩倀下下丂丟丩
▁丟丂個丠丩丩
▁丟下下倌丟个個丠
丂個丂丂
▁丂俿丟丩丂俿丟丩懸丟下
▁下倆丌下丂個下下丂丩下倆丩
▁下丂下丂丂個下下
丠倊下倆丟丩
下丂個下下丂
丟倁丩個倏
▁下丂丟丩下下下丟个
丟下丂下倓个
丠倃
▁丂個下丂丌丩丂俿下丂個下下倏
▁丟下下丠
丂個下下丂個丂丌丩
▁懸懺丩懸懺丩丂倂丂
▁下丠個
下丟个丩
▁丂個下下丂個丂
丟倏下丂
下丂個下丂下
懶丩下丂丌
▁下丠丠個下下倝丂
▁丫丩丟丩丂俿下丟倀丠个
下丟个
▁丂個下丂下下
▁下丠个丂個下丂下
▁丟下丂丟丩丟丩
丠丂丂
▁丩下丩丟丌
▁下丂丟倝丂
丂俿丂下丩丫丂個下下
個下下
倂丂丂倂丂
▁丂個下丂丌丩下丂丂下丂個下下
丩下丩丟下丠
丩丟丫倀
丟下
▁丩下丫丠倆
丂丫丩丟
▁丟丩
▁丟懷丟個倏
▁丩丩丌丫倀
丩丫丩丩丩
丁丂俿下
丂丂丩丟下
▁丩下剗丟丂丩下下下丂下
▁丩丩倀丫丩丂俿下丂俿下丂
▁下丟个丩
俿下俿下丂丩倓懻
▁_
下丂俿下丫倇丩丩
▁丟下丩丟下丩下
▁下丂丂俿下下倆丂俿下丟倀丠个
▁丟丠下丂丂個下下下
▁下丂俿下丂
▁倀亞丌
下下倆
下丂下丂下
丂下丂丌
▁丩倓懻
▁懸懺丩個
丫倃倃
俿下下倆丩丌丫丩
倁丩倁个
丠倁个
下丂俿下丂丟个
▁下下丂丌下下丠倏
下丠丂
▁剗剗丌丩下丟丩丟个
▁丩丌丟倀丟丩丂俿丂丂下
▁丩丩丌丂
丫丠倆丩
丠个丟倏
倂丂下丠丩丟丠个
丟個丟丟
▁下倆丌丂丩
倆倁丫丩丂丁丂俿下
▁懸懺丩
下丂下丟丩丟丩
▁俿下
丠倅丩个
丂下倁个
▁懸丟丌丟倅下懶丂個下下
▁丟下丂丂俿下丟下丠个
丌個丠
▁丩丩丌個丠丩丩
▁丟丂丟
Φ
▁丂俿下丟倁丂俿下丠个
丂下
個丠丩
▁丟丂丟倅個丂
丠个丩丩
▁丩下丠下倂丂丂個丂
≧
俿下丂下下俿下倁个
▁丟懷丟丟丂俿下丟下下丟个
丂下丟个下丂下
▁丟下下下倅丟丂個下下
丩下下丂下丠個下下
▁丠個丩丌丟丂個下下丠下丂
供
▁丂個下下下下
▁下倆丌丟丠丂个
下倅
下倕
倀丂下丟个
▁丩下丫丠倆丩
▁丩倁丂丩丂俿下下下
丟下下倆
▁丠個丩丌個丠
丩下丩丫丫倀丩下丟個
▁丂丩丟丠個丩丌
倁个下丂下
下丂丂下丂個下下
丩下丟丩丟丩下丂
▁倁丩下丂丌
丫倀丩丌
▁丟丠個下丩丩
と
丂個下下丟個丟丟
▁丂俿下丟下丩丟下丩
▁丠個丩丌俿下下倅丟个丩倓懻
丫丩下下丂
下下下倕
▁下下丂丌下下丂下丠个下倁
▁丠個丩丌丂丩丟下丠倏
▁丂俿下丂
下丟倅丟个
下丂下下倆丩
丩丩下丟丩
下倃丂個下下
丠个下下倆丫丩
丩丌丫丩丠個丩丌
▁丟下個倂
丩丫下倂丠丂
丂個丂俿下
▁下懶丟丩下丠丂
▁丠個丩丌下下丂下丠個下下
▁懸丟丌倀丂倏
▁丩丩丌俿下丠
▁丟丂下
▁丟丂下下
丌
丂個下下倃
▁丩丟丠丩丩下丩丫丂個丫倃丂俿下
▁懸丟丌丟下下丂下
▁丂俿下丂下丂丌丟個俿下倏
▁丩丩丌丩下丟個丟下
下下丂丩丫下
丟丂俿丟丩
▁剗剗
丂丩丟丠個丩丌
下丂俿下丂俿下
▁丠個丩丌下丂倁个
▁丂俿下丟個丩剗下
▁丠個丩丌丩丩倀丟倁丩個倏
丂丩
丠个丩丫
▁丩丩丌丂個下丂下丂俿丟丩
ψ
倆丌
▁丟俿下丠丠個丩丌
#
▁丩下倃丂個下下下
丫倀倁个
▁丟丂個
下丠倔
√
丩下丂
〉
▁倁
▁丟丂個丂丂下下丂下丩丫下下丂
丩丫丫倀丩下丟個
下倂倆丟
▁倝丂下下
▁下倆丌丂個下下
丩丩丫
▁丩下剗丟个懹丩
丠下下丌丂下下下
▁丟下丩丟下丩丂
下丂俿下丂丟丩
▁下丂丟丩下倃丟丩
丟下丂丟个倝丠
丩下倆丩
丩下丟丂丟倁个丩
下倕下
▁下下下丟个
俿丂丂下下倅下倏
個丠丂俿下
丩丫丌下倆丩
▁丩丫下倂丠丂丠個下下
丂個丂丫丩丟下丠个
倁个倁个
▁下下丂個個丠丟
下懺丩丠丂倃
丠个下下懹丩
▁丟下下下倅下丂下
下丂丂俿下丂倆
▁俿下倅
▁丟丟丂倀丠丂倁个
丟倁丂個下丂下下
▁丂俿下丩丟下丂丟丩
▁下丂丂下丂俿下下丂俿丂下倏
丂個下丟
▁丩丌丂
▁丟懷丟丟
▁丂個丂丂下
▁下丂丟丩下丂下下丂下
▁丂俿下下丂下丟倀倆下
下丂俿下下下丂下
▁丟丠丂个俿丂下倏
▁丂個下下丟個丟丩倃
▁丠個丩丌丟
個丂
丂俿下下丂下
丂下倆丂俿下
丂個下下倏
下丂倂丂
▁丟下下下倅丠個下下
▁丂個下下下下下丂下丠個下下
▁丂俿下丂俿下下下倕
▁丂俿下丟丂俿下丟下下丟个
▁下倆丌下丂下丂
▁丂俿下丂倂丂下丟丂個丂丂
▁下丂俿
▁下倆丌下丂下俿下
丫丩下丟丂俿丟丩
▁丂俿下下倂丟丩
俿下倏
▁丩丩丌下下丂
丠個丩丌個丩丌
丩丫俿下倕丂丟
丂丁
丩下丩丟下丂俿下
▁丟倅丠丩個丂丩丟丩丩丟倀倆下
▁丩下丟個丟下
丫倀丂個丂
▁下倃下丂下丂下丠丂俿下
下丠下丂丌
下丂俿下丩丫下
▁丂俿下丂下丂丌丠倏丩丌丫丩
▁丩下丂俿下丫倀
▁下丂丂個下下下丂下
▁懸懸懸
倝
倍倍
▁下丂下丂丟个個丠
丠下下丌
▁丟下下丠丩丩倓懻
下丂俿下丂倂
▁剗剗丌倂丂
▁丫倀丫倃下下丂
俿下下丂下丟个
倆倁丟个下
▁丩丌丠個下丂下丂俿下
▁丩丩倀下下丂丂下丟个
丂俿下下丟丂俿丟丩
丂俿下丂俿
俿下丠丂個下丂丂
ッ
倂丠丂
ラ
▁丂丩丟丫倀
下丠倏丟丩
▁下倆丌下丂下丟下倕
▁丂俿下丂俿下下下倕下丟丂俿丟丩
丂個下丂丂
倂丂丟丩
▁下丂下丂丩下丩丫丫倀丂個丂
▁丩倓懻下下倆
丩丫丂個下丂丂俿下
▁丂俿下下倆丟丩
下丂俿
丩丟丫倀下丠倁个
▁下倂
▁下丂個丂
▁丂個下丂丌丩丟个丩
▁下丂丟丩丫倀丠倏
▁丟丟丂下丂下丂下丫倇丩丩
倀丂
▁丠個丩丌下倆丩
下丠個倏
丩丟丠丩丩丟丠丩
丩下丟倅丟个
▁丂丩丟下丠倅
▁下丂個丠倃下下下下丂
▁下丂俿下丂俿下
▁丩丩丌丂個下下丂
丩丌丫丩
▁丟丂個下下下丟下倃丟丩
▁丟下下下倅下丂丂下下
丠個丩丌丟下丠个
下下丠
丂個下丟丟丩
▁丩下丠丩丌丟倁个丩丩
下丠丠個下下
▁丂個下下丟丩
▁倂丂
▁丩倁
▁下下丂個
下下倅丟个
下下丠丩
▁下丂剗丌丟個丂俿下
▁丟下下下倅丟個懹丩
_
5
下懺丩
▁下丟丂個下下丂下
丂倂丂下丟丂個丂丂
懸丟丌丟下丠个
丩倀下
▁俿下倕丠丂
▁下丠下丟個
▁下丂丂下下丌
▁丩下丂俿下丂個丂俿下丂丁倁个
下丂下下丂丌
▁丩丫下丂個丠倃下下下倆丩
倔丩
丫丩下丂
個下下丠倝丂
丫丩丫倇丩丩
▲
丠倏丩
倊
倔
▁丟丂丂丟下丠个
∑
下丂俿丂丂下
▁下倆丌丟丩
懸懸懸
ˊ
倁个丂俿下
丠倅
Γ
▁俿下下丠
▁丩丩丌下倆
▁下丂丟丩倀倆下
▁下下丂下丟
▁丩丫下丂個丠倃下下
丩丩丌
▁丫倀
▁丟丠丂个
俿下下丫倇丩丩
丩丫倇丩丩
俿下下倆丟丩
丟倓个
ン
ド
ト
倅下
下下倕
▁丂俿下下丂下丂
下丂丂下下下丫丩
バ
▁丂個下丂丌丩下丂丟
個丠丟下下丂
▁下丟个丫倀丟下下丂
丠倏丟丩
丫丩丂俿丂丂下
▁丂俿下丠个下丠個下下丂倆
下丂丂下
▁丫丂丩丩
▁丂個下丂丌丩丟下倆丌懶丟丩
゚
▁丟丂丟倀倆丫丩
丠倏丩丌丫丩
懺丩
▁丩丩丌個丠
丩丟丟丟
▁倝丂丩丩倀
▁丠倏丩丌丫丩丩倓懻
丩丟下下
▁丠個丩丌下丂下
▁丟丠下丂
▁丠個丩丌下俿下倕丠个
÷
▁下丂丂下丂個下下
丂俿下丂個下下
▁俿下丠丂
▁下丂丟下下丂丟个丩丫
丟下剗个
下丂俿下丂個丂俿下
下丂丂丩丟下丂個下下
丂個下下丂下
倆丂俿下
す
下丟丂
下倃
懹丩下
丂俿下丫倇丩丩
丟丟丂丟
倅下個丂
▁下丂下丂個丠丂俿下
▁下丂個下丂丂下丂個下下
▁丟下丂下下
丂個下下下丠个
丩丩倀俿下俿下丂
倆丫丩丩
▁剗剗丌丩
倅丩丩倅丩丩
下丠下丂下丠個丩丌丩倓懻
▁丟丂丟倁
▁下下下丟个下下丟个
▁丩下丠丩丌丠个個倏
↓
▁丂個下下下丠下下倅丟个
丟下下丠个
▁丟下丂丂俿下丩下丩丟下下丂
̇
丩丟下下下丂
▁丂個下
丟下下丂倂丂
▁俿下丠下丂丂下丫丩丠倊倁个
倆丩
▁懸丟丌下丂丂俿下
下丂個丟丩丟丩
κ
▁下丫倀丩丌
懹丩丟下下丟个
▁丩下丟丩
丟丠丟倅丟个
▁丩下丠丩丌丟
俿下下下下丂
下丂俿丟丩
倍
倀
丩丟下丠个
▁下丂丂下
▁丂個下丂丌丩倁丩丂個下下丂
▁懸丟丌丟
▁下倆丌懹丩丂俿下
丩丩倀个下下丂丟丩
下下丠个丩丫
υ
▁下丂下丂丟丩
丩丩倀懸丟下
丟丩丩丟倀倆下
俿下倕丠丂
下倂
━
'
▁丂個下下下丂下丟个下倃
▁剗剗丌倁个下下丂
▁下倆丌丟
▁丟懷丟俿下倕丟倀倆丫丩
丟下下丂丟个
▁丠個下下丩下丟个丟丩
懸丟
▁丩下
丟下下下倅
〞
〔
〕
〖
〗
〈
『
』
▁丂俿下丟丠丟倅丟个
▁下倕
リ
ミ
▁剗剗丌丟
テ
丩丫丌
▁丠個丩丌丩下丩丫丫倀丩下丟個
の
レ
ネ
▽
下丂俿下丂個丩丫下丂
ナ
俿下下倅丟个丩倓懻
下丠下下倅丟个
丟下下丂個
丩丫丫倀
▁丂丁下倆丫丩倁个
オ
懹丩下丠丂
ア
カ
キ
ゲ
グ
シ
丩丟丂丩下下下丂下
▁丟丩丩丟懷
ジ
丂丩個下丂丟丩
▁丠个下丠個下下丂倆
▁丂俿下下丂俿下丂丟丩丟倀丠个
下下懹丩
丫倃下丂下
下懶丟丩丂俿下丌
丟丂下丟丂個下下
丂俿下丌
∕
▁下丂俿下丂丫倀
丠个丩
下丂個丠倃下下
▁剗剗丌下丂個下下丂丩下倆丩
▁下下丠丂丂倆
丂個下下下丂丟个
▁丟倁丂個丠倏丩
下倆丟
▁剗剗丌丟下下丠倝丂
▁丩下丠丩丌丂個下丂下下丠丂
丠個丠
▁丩下丂個下丂俿
▁丩下丠丩丌丩丟下下下丂
▁丂俿下丂個下下丟个
下丂下懹丩
丟下丠丂俿下
丂俿下下下丂丟丩
下丂個下丂俿
丟個下下
丟倁俿下下倆
ま
丂個下丂下丂俿丟丩
▁剗剗丌下丂下丟丂個下下
丩丫丂俿下丠倏
▁丂俿下丟下
丂俿下丂俿丟丩
あ
▁剗剗丌下丂
丩丟下下倏
丟丂丩下下下丂下下
丂下下倆
▁丩下丩丟下下丠下丂俿下丂丟个
▁下倆丌下
丂丫倀丂個丂
▁丂俿下丟
丂個下丂下丌
下丠丟个丩
丟下倆丩
丌丂丁丂俿下
丟倀
▁丂俿下丩下懺丟丟丩
▁丩下丠下倂丂
下丠倅丟下丠个
俿下下倆
▁俿下丠下丂丂下
▁丂俿下丂個下下
下懶丟丩
丩下丩丟下丂個下下
倀倆下
下下丂下丩
丟倁丂個
下丂丂
丠懶丟丩
Ψ
ο
Λ
丠丂倃
▁丩丫俿下倕丂丟
∈
丂丟
懷
丟懷丟丟丟个
丟下倔
丟下倏
丂下下丫倇丩丩
丟丩倂丂
▁丂個下丂丌丩丩丩倀
丩丌丫丩丩倓懻
丩丩丩倀
▁丩倁丂丟丩丂個丂下下
丠丩丫倇丩丩
▁下丂丟丩下丟个下倆丂俿下
▁丟丟
丂俿下丫丩
≈
▁丂俿下下丂下丟下倃丂個下下
丟個丟丩倃
丩丫丂個下丂俿下
倆丫
▁丂俿下下丂丟丩下丂丟个
▁下丂丟丩下丂丂下下下丫丩
▁丩丫下下丟个
下丂個下下丌下丟丂俿丟丩
丩下丩丟下丂個下下下丂下
下下倆丫丩
丂個下下下丂丠個下下
倀丠下倃
懸懹丩
▁丩下丠丩丌丟下下丟个丂俿下
下倂丂
ゼ
俿下下倆倁丫丩
▼
■
倌
丂丟倁个
丠個
倅丠個丂
▁下下丠丩
▁丠個丩丌下丂丟丩丠个倆倁丫丩
丂俿
丩丫下下下
◆
◎
●
丩下懸懺丩
▁丂個下丂下下丟个下倆丂俿下
下丂丟丩丟丠下丂
丟下下倏
丩丫丂個下下
丩丟倁丩
▁@
▁下丂丟丩下丂丂
丟丂個下下丂
▁下丂丂下下丌丟倅丠個丂
倅下懶下
下丂丟丩下丂丟个
下倅下丟丂俿丟丩
▁下倆丌下丂下丂俿下
下丟丂丩下
▁丩下丠丩丌丩丟下丂丟丩懸丟下
倆倁
だ
た
丩丟倀倆下
▁丟個丟丟
▁丠个丩
下下下丟个下下丟个
下下丂倂丂
下丂俿下下丟丂俿丟丩
丫倀下倆
▁丟丂下丂俿下
‐
下懶丩下丂丌
¥
フ
下下倏
