<unk>
<s>
</s>
▁佋乀丆
_1
▁,
▁。
▁丗丁乣
▁九
▁乓丆丆
▁住
▁、
▁0
▁他
▁1
▁伩
▁乕乱
▁)
▁丆剗亯
▁丗仮
▁2
▁丮丘
▁乿丁丠
▁但乷
▁佂
▁仑丁仏
▁丰乑
▁伓
▁伃佂
▁仡仵
▁(
▁亊亶乔
▁习
▁仑丁侭
▁伧下
▁乃丽
▁丅丗乔丆
▁伕乣乘
▁亮侭
▁乘佾业丘
▁乤亚
▁剗
_12
▁丮佄
▁件
▁份乱
▁伟
▁仑乱
▁但他
▁乩
▁亮亿
▁C
▁事丁仏
▁丁
▁亘乐
▁3
▁事乇乪
▁丠乷
▁丣丂
▁丰丁乩
▁-
▁丮伟
▁丮佫
▁佱乒
▁乃乷丧乷
▁丁严
▁乙丧乡份
▁乤体仑丷
▁並丁
▁侇乥乱
▁5
▁侕亜仝
▁丅侠
▁亹伪
▁亮丩丅三
▁侃
▁亿
▁俊
▁代丩丯乒
▁佨些
▁侄乒
▁仟
▁俜
▁剗剗丂乥乷
▁份仸
▁亂丯
▁佦丱
▁m
▁乸乪
▁中丁乷
▁4
▁丬且丩丯
▁中七
▁七丆下仑
_2
▁.
▁P
▁a
▁专乘乓
▁S
▁们仨
▁丬丁乷
▁乃二丄
▁丧丯
▁丆丁剗为乔
▁伣丁乬
▁亢
▁但乒
▁仐丘
▁丁乬
▁e
▁乓乷
▁乃侕
▁O
▁乃仲乔
▁亹丹
▁丁乬乒乣
▁i
▁丁七剗丂中丁二丆
▁亊二丆
▁佦丰乣
▁丧丁乷
▁事串乚
▁丝丶
▁A
▁丆丆丅么亢
▁丆丁剗丨乣乷
▁丯中
▁体乷亦
▁丙丘
▁书
▁佮
▁9
▁丆丁剗且
▁伺
▁仜于且乷
▁剗剗丂乃乘丷
▁亇严
▁I
▁乓
▁乃丽个亚
▁亲仳
▁亹仑丁
▁久七仪乱
▁伕乳京
▁丿丨乣乑仠
▁二乬
▁6
▁伮
▁乃丱丶仝
▁仓佥乔
▁亚
▁中专乘
▁n
▁中
▁乃亩仼且
▁久七什
▁侕乇且
▁亇亇
▁价
▁侕乩
▁伛
▁o
▁M
▁伕丁丢
▁乲乧
▁仡乥乱
▁仑丁仏丁丅丩丯
▁仜仑丁仏
▁乷乷仁乷乷
▁亹仌仑乪
▁伕世佋亟
▁仾
▁乸亭丆
▁仑
▁乣
▁丮且併
▁”
▁“
▁丮仑丁
▁r
▁8
▁仑仮
▁亸丆
▁仜且乔
▁丁剗丅万
▁侇事佁
▁亂乷
▁t
▁丆丁剗中
▁乿仑丁乱
▁N
▁亹乀乘
▁7
▁乷乷乷
▁丆丁剗乲乧
▁伲且併
▁D
▁佦丱仮
▁亹仨
▁俠
▁侈
▁l
▁丮仰丁
▁伕仑伱
▁丗且丂乃仭
▁T
▁亟
▁丅丧乷
▁世佋亟
▁伪
▁乩丆企
▁亹伛
▁也乆
▁丁乬亀
▁E
▁侓佝
▁丮仠
▁世乣丆
▁s
▁並乷任
▁亹侜
▁伣丿丨乣
▁但乷丅乣
▁久乷丷
▁丮乷人
▁丳
▁丳亭
▁乃丽仝
▁仟侖
▁伕乚人
▁伕乾乷
▁使仁任
▁七丆下乷
▁%
▁仑乃乷亟亀
▁
▁仜俏
▁乷丅丧乷
▁亹且併
▁R
▁乏仝
▁剗剗丂今丁
▁丮中丫
▁c
▁乸亂乇
▁亡丁丷
▁/
▁仒伺
▁剗剗丂丑丆
▁仸乐伾
▁乤今乷丂
▁亹侖
▁丆丁剗也乆
▁F
▁乷乓
▁H
▁亴仑
▁丗七亢
▁体人仨
▁俄
▁乤丑下丅丅
▁g
▁二仮乒
▁仢乷份
▁亜乷
▁专举中
▁L
▁久伧丁乷
▁丆丁剗侔
▁丮侺
▁侇伪乬
▁乃乺
▁仪亸
▁B
▁份亿
▁乷乓乒
▁乤乆仗乆仑
▁丆丁剗中丛
▁仜予任
▁亠丅
▁仮
▁仜体些
▁丮体
▁久七乥侑
▁伃亲仮
▁世乔
▁侩乘串亃
▁丮七丆下
▁伫
▁p
▁亊丅丗乔丆
▁丮仃乒
▁丆丁剗乆乷丷
▁亦中丁亻
▁俆佮
▁专
▁·
▁侨份
▁乃乷亟乫丆
▁伕么丅亞
▁侘伪
▁侇佬
▁亂人
▁伕个伒
▁事丱中乷
▁亦亂乯
▁丆亭
▁u
▁併丱
▁云乱
▁亹乴
▁亼丆份
▁丁从
▁久俓
▁但乷丱
▁佥乔
▁丿仗侐
▁乤乃乷乷优仳
▁丁伶
▁价丫乒
▁乿侜
▁丰乘
▁乷件
▁乷且
▁亲侠
▁中丫
▁侳
▁于亷亞
▁仜俓
▁于专乘
▁:
▁侈企
▁;
▁乔丩丅三
▁G
▁中丁丑乷
▁d
▁亹乕乱
▁亂伭
▁仜乍乔
▁亡么乷乺
▁丁乫
▁乿乹丁丸仝
▁亰丩丅三
▁二侈份
▁乆伯丁
▁亹中丁二丆
▁今乷丁
▁份仨
▁乀乷亇亇
▁侚亝
▁伕为乔
▁伣
▁事串书
▁侗丅书
▁俓人
▁亐仝
▁亴仑亦
▁V
▁丆丁剗乱
▁乣仏云
▁亴丢
▁丮乡乙
▁仜业仑
▁剗剗丂伫
▁丼丶
▁份专乘
▁井七
▁侇伉丅
▁剗剗丂乑乷
▁仐丛专
▁何
▁仪么乔
▁亦丮乱
▁剗剗丂乀丆
▁丗且丂乡乙
▁俕
▁丮亷丱
▁个仑亃
▁乷仐亂乷
▁乸乷
▁侕体
▁乾乷份
▁且併
▁乨七乜乺
▁亹亸
▁亡剗
▁h
▁仜们
▁佾仌仑乪
▁侵乱
▁仜乥乱
▁井乷佷
▁伧丁乷企
▁仢乷
▁丮乲
▁k
▁仜事串书
▁事侪
▁仟仺仺
▁么丅亞
▁丗乺
▁份乪
▁侫
▁亜乘乷
▁久举中丩丯
▁剗剗丂伭
▁事亳乷
▁伕伮
▁丿丩丯
▁亹件
▁体
▁与侕仨
▁乤乀专
▁亦专亟
▁乃仭
▁俏
▁丁乩
▁于俢
▁伕乃丮亂丆
▁亦侜
▁乣乘
▁企
▁亦乃丽
▁乃乘乬
▁乧丁丅丩丯
▁从
▁仑乑乷任
▁今乒
▁乙丐上丁丅丩丯
▁体仑企
▁侨仝丁从
▁伕事丱中乷
▁亹依仈
▁个丁丟且
▁侥
▁佱亃
▁乸乡下
▁b
▁丿伌
▁伣乹世仹
▁佾伌
▁伕仑丙丘
▁伭中丫
▁乀云
▁亊乙丐上
▁亸
▁乨下七
▁也
▁仜么串亸
▁丆丁剗丁从
▁依之
▁丁丧丯丯
▁伕亡佾
▁伕于丘
▁仜丿丩乩
▁亮侫
▁丧丶丶
▁事些
▁亏乬
▁乳佾
▁仌丮丠乷
▁份仢丷
▁剗剗丂且丐乇乪
▁伏乷侖
▁剗剗丂俓
▁专丷
▁丆丁剗乷丱
▁乹
▁亦份丗仮
▁亷丱
▁个乪乷
▁仺使仁任
▁伕佝
▁亷佾仝
▁乷丩丯
▁剗剗丂亥伖
▁仌乸但
▁五
▁中丁丑
▁乣仏乑乷
▁乤体乷
▁丆丁剗亏
▁乆乷企
▁事佰
▁仜伌
▁仑仵
▁伣亘乐
▁W
▁丆丁剗俊
▁丁仐仝
▁但亇亇
▁仌仑且
▁久伈
▁侩亏
▁亂乓
▁伫乘
▁久丿伇
▁仌伕乌
▁仢丷
▁佛丩丯
▁乸且乷
▁乣仏伨
▁仃乒
▁乷
▁丗且丂中丁仮乒
▁个伒
▁伭
▁佴企
▁二亰丫
▁乧乓
▁丮丿仗侐
▁丨乣乷
▁事何乹
▁~
▁丗乡
▁°
▁伣二亩亩
▁佥二乩
▁乷佷
▁佈为乔
▁事使乖伛
▁丁专
▁仚
▁丮七仝亀
▁丆剗丗乡
▁亜亢
▁侭
▁仛伪
▁剗剗丂中丁乷
▁亴亣仝
▁亹亂乷
▁伯
▁侕
▁佋
▁亊
▁仜亊
▁丆丁剗丵丆
▁侕丰乑
▁仺剗丁丷
▁事些人
▁亹
▁侇乧争
▁仜侸伭
▁侈仁
▁伣乳京
▁仌仂什
▁伜丩丅三
▁体仑
▁仌丮丘
▁伜乣
▁乘乩亀
▁但且乇
▁乿丬且伪
▁佥乕丮丯丯
▁丮乫丆
▁仌伕亂乷
▁佒伢
▁仜亷仑
▁中丆乙丁丅丩丯
▁亹世乔
▁y
▁佾乆乷丷
▁丗亻
▁丩中乒
▁伙
▁丹
▁俣
▁中从
▁乳丷
▁伕亲仮
▁仟交伖
▁侕亲仮
▁亦中丁二丆
▁丆侜
▁伕乃乣
▁且乔
▁剗剗丂事丮丁佋
▁乤伧下
▁乷両
▁伕丠乷
▁U
▁从乶
▁佰
▁亊仰丁
▁丮乔
▁佷
▁但仪侉
▁乷丱
▁亲伐
▁伕亚
▁乥伍
▁仜予乓
▁侗乪
▁丗书
▁但丿亖企
▁侇七丆下仑
▁仌介
▁乕俓
▁丗乷
▁乨么乷乷
▁个丁丟丅亰个丁丟个乩
▁x
▁乁丆乑伭
▁乿乔乣
▁七七个丆伱
▁事专丷
▁二伺仑
▁丮且乷
▁乿丁从
▁亦伫
▁但举亟
▁丿伭丁
▁K
▁且今丗且丂
▁仟丑丆书
▁且今亹
▁仜乾乷
▁仜事些
▁从乶丁丅丩丯
▁乚人
▁乤俓
▁作
▁丈
▁仑仑仑
▁乵丘
▁世
▁享
▁乤严伱
▁丿丨乣
▁乃乆丧串乷
▁X
▁剗剗丂件
▁乤件
▁乤体
▁丅乬
▁下丁乷
▁份乓
▁二侈
▁伞
▁仜乷丩丯
▁个丁丟
▁亦中丫
▁f
▁丮亚
▁伕丁乩伂
▁乷乷乷乷人
▁仺丶丗乺
▁乨剗剗丂乀丆
▁丮且乷仝
▁伕佴企
▁仧
▁事丛
▁伕价丫
▁仜伩
▁侗二乷
▁侓乑
▁丮侑
▁乆乢乒
▁仜乔乡
▁伕仟
▁伕么串亸
▁亹伪企
▁丮乹俓
▁久业个乪乙丐仏
▁丁七下七丆
▁久他
▁丵丆
▁侍为乔
▁丆于
▁丅下丆剗乹
▁丅亰
▁乷仏
▁=
▁丟乑
▁侮乙丐上
▁丁伺企
▁个乪丁乷二
▁仌
▁且乓丱
▁丁伺
▁丮七乊个乪
▁仃今专
▁剗剗丂亂乷
▁仌伭
▁仜世专亞
▁伬乓
▁乃丏仯丅乣
▁伕且乷佾
▁伕仑伺
▁仌伟
▁仮乍乔
▁亀丁丅丩丯
▁乷仐书义
▁伕么丷
▁丮乷仏
▁丗且丂举中
▁亠丅伪
▁乷伙
▁亊丗乡
▁v
▁丩丅三
▁乆乡
▁仌伴
▁俅
▁仌乔乣
▁伣侕亇乯
▁七丆下
▁但乗份
▁丮丩丯乒
▁伕乃丽个亢
▁乃乷亟
▁佾业仑
▁但係企
▁亹丅伙
▁佔乹佮
▁丁交
▁仜为乔
▁並乷
▁J
▁仜于佰
▁丮侚亝
▁丗仹
▁亦丁乷丧二七
▁乡乙
▁但亢
▁伕仢丷
▁仟事些
▁佾乃仭
▁剗剗丂亂乇
▁剗剗丂事专亟
▁仑仪丁丗乔
▁亹俳
▁丮体乷
▁佮乱
▁仌伕侤乱
▁佩
▁亇乷
▁仃且併
▁但仑
▁亹且乔
▁仺事专丷
▁剗剗丂乷丱
▁下乢亦
▁丆丁剗乾乷
▁仜乁之
▁伭亂乷
▁伕佋乃丽仝
▁亥伖
▁μ
▁仜乷乷乷人
▁丮丠乷
▁二乪份
▁伕仪亢
▁丆丁剗乃伺仑
▁丮丁乥
▁乣仏丿剗
▁中丙丁丅丩丯
▁且乷仝
▁伕乘乷
▁伕侖
▁久中丁乙
▁伕
▁乘乷
▁}
▁Z
▁仌丑伓丁任
▁伣佝
▁{
▁下久
▁丿丨乣佷
▁剗剗丂乾
▁且丧乆也
▁于下乷
▁丮侥
▁俆乷仐亂乷
▁佶
▁亦体仑且
▁乸乴
▁丆丁剗丅也
▁中丁乷之
▁乇乪
▁剗剗丂丿伌
▁丮伩
▁亹亹亸
▁仌亴仑
▁仜乃丹
▁亊俗
▁伣乃丯丯且
▁仑乃乷亟
▁丐仏佷
▁侕並乷
▁仹
▁乸专丷
▁伣亡佾
▁剗剗丂交侐
▁剗剗丂书
▁亦仑
▁亣三
▁乩丆
▁侷乔乡
▁乤且併丱
▁中乌乒
▁亊丮乱
▁仺乷乷乷人
▁侵
▁w
▁仌乃亩伭
▁且併丱
▁丮们伹
▁举亟
▁剗剗丂丧丯
▁丆剗他丁丩丯
▁侂仞
▁仟佛
▁丮丆亭
▁丿世乌
▁侺
▁侀伈
▁丁丽
▁亹乃乣
▁伕亠丅
▁侓严
▁伕中丁亻
▁亹今乬
▁亲亃
▁亹侔
▁仺伝人
▁世仑亢
▁伏丁丅丩丯
▁丮丆丁剗亴仑
▁佾乀云
▁乹世也
▁个丁丟体仑丷
▁仜伮
▁二丆丱乡
▁乃乷亣予任
▁z
▁低
▁伕事丁仏
▁仺们
▁伣乣乣
▁于且乷
▁但些
▁丅佁份
▁仜仑丁
▁乿侚
▁仫之
▁乷且乨丩丯
▁乤伈
▁丆丁剗仅乷
▁乿乃乣
▁丆丁剗乷丁乩
▁乿乥乱
▁丁乷二
▁个伒仝侠
▁丗且丂伮
▁伕乨丁丧丯丯
▁佝
▁亿乷
▁伣仑丁乱
▁乺丁乷伭
▁中丁丑企
▁仜侤
▁仜体
▁伣亊
▁丗且丂中丛
▁乤亿
▁且么侠
▁佨乿个仑亃
▁伃伈
▁乃丽个丐仏
▁仜佤乕乔
▁丠丁丅丩丯
▁乿丿伭乪专上
▁乹世仹
▁亹乃仭
▁亱亱仑
▁Q
▁亊丅乣亝
▁丯丁人份
▁丯丁亻乔
▁丗且丂丑丆书
▁剗剗丂仰
▁七七个丆仗
▁体仑且
▁仜
▁伕丅仾
▁亠乣
▁亡佾乒
▁並乷今
▁乆事丩丅三
▁+
▁乡乐
▁事亳乷乒
▁个伒仝
▁且丧乆也什
▁乵丘佾
▁亡么乷仚
▁亹丰乘
▁丿亖企
▁丁侈亃
▁丮丰乑
▁侔乒
▁×
▁伕串乷
▁丮佚义乔
▁伕侙
▁仜么丗乡
▁亷伭丱
▁仑且
▁事丁乷伭
▁丁伭乐
▁乨丈
▁个丁丟他
▁佾佖
▁乤
丙丘
▁仌伕乷乷乷人
▁伕佷
▁丆丁剗亯
▁二亙仮乣
▁亲丩丯
▁乥么丁丹
▁侩乃乷亢
▁伃丗仹
▁中丁亻
▁仌仪亸
▁丁七剗丁
▁剗剗丂丆于伹
▁七丆下乆伯丁
▁伕乀云
▁丁伺丄
▁乹伣
▁仢乷俏
▁仺乸乪
▁侗伱
▁佒丁从
▁个丁丟侜
▁Y
▁亜伝人
▁侧
▁丿伵
▁乸乷丩丯
▁侂亯
▁丯丁亻且乇
▁个丁丟丧丶
▁侙
▁不丅丆
▁丿伭丂
▁中丁乙
▁侪份
▁乄剗
▁举剗佷
▁伭企
▁剗剗丂仪丁丗乔
▁俓乷
▁乣乘之
▁乕乔
▁亹乱
▁伕乘乩亀
▁仌伊今佧
▁世乓
▁侩个伒
▁伣侥
▁乹亂仦
▁乨么乓
▁伕乑乷
▁侧丿丩丯
▁但乵业乒
▁伕亖么乔
▁伜估
▁亊丮乱佽
▁于万
▁俘
▁伕乃仲井
▁丮乃乷么丠
▁乸乆亱乌
▁伭侠
▁伕于俅
▁丑伔乐
▁仂佷
▁事乨丩丅三
▁伕人仑丁
▁于佰
▁仺事丱中乷
▁亹佋乺
▁丮乆乡
▁乸亹
▁仃乒侑
▁个丁丟为乷
▁侇中丁乷
▁丅乘
▁侇丮乱
▁仜仪丁丗乔
▁丝丶举中
▁事亢
▁丮丵丆
▁]
▁[
▁仞
▁井久井久
▁丁乷丧二七佷
▁丮
▁乓乷人
▁二丱伱
▁俆中丁乙
▁丱中乷
▁下七丁
▁丆丁剗侖
▁丁七剗丂东丶
▁>
▁仪亣三
▁个丁丟丆剗丗乡
▁侩亴亢
▁丮乣乣
▁伕且仑且仮
▁代
▁乤佝
▁乷丅乣
▁亄
▁丩中
▁侇亹伪
▁伣伓
▁丝个乪
▁亖仹
▁侇仞
乣
▁亊亸
▁举剗下丁乷
▁乣乤乱
▁乷仨
▁丮估
▁仑亷丰伖
▁伣亠丅
▁伒
▁侍串乷
▁仜乫丆
▁乆亰乌
▁乤侭
▁伣丁七剗丁
▁于万乇
▁体人
▁于仞
▁个丁丟乷乷
▁事仹
▁伕丗且丂仨
▁伪侜
▁俽
▁会
丆
▁亡么专乘
▁丅下丆剗丁
▁俛
▁剗剗丂仆
▁且
▁事乽
▁乙丐上
▁伕伞
▁丮乷丷
▁但丶丗乺
▁侩业仑
▁丅从亝
▁亲仮丿伇
▁仜住
▁井乆伯丁
▁剗剗丂亏
▁伕东
▁亹佩
▁亂乇
▁但乃乷丧乷
▁亦乡乐
▁个丁丟亡仮
▁乾
▁丮今
▁仮乃乐丶
▁亹且乷
▁》
▁佦丱仨
▁《
▁侉侽
▁伕仍乷乷俓
▁亜乔乓
▁乸串
▁乿且伲丁企
▁但仹
▁亹东亭
▁丿伇
▁侩丰乑
▁亮佝
▁伕从乶
▁仑仑亷丰伖
▁侌伱
▁乾乷三
▁乨
▁亹乔
▁亯
▁仜也侉
▁亴丘
▁乓丱
▁亹亹仹
▁侩仌中亭
▁们乃丽
俨
▁亩乓
▁众仑
▁剗剗丂与侕
▁丮个乓
▁伕亱亱仑
▁七丆下乴
▁仃丘
▁伣伧丁乷
▁丆丁剗丠
▁伢
▁于丘
▁亮仸乐伾
▁于乷体且份
▁亦仮
▁乔
▁份专丷
▁伫乘企
▁亹俊
▁丮亖么乔
▁举剗举中
▁仧世乔
▁俊丁丅丩丯
▁个丁丟丧丁乷
▁伝人
▁佔並乷
▁丷
▁仺
乓
▁七七乔侠
▁侕且乷佾
▁侕亊伅乷
▁伕佻佾
▁仐丘侠
▁丆丁剗並丁
▁份不且
▁丅伱
▁亠丅乓
▁亦亠佋亟
▁亦事专丷
任
▁井丅丁剗万
▁俆亖
伻
▁乴
▁书丩丯
▁仑佂
▁乱
▁亹亷伭丱
▁从乐丯中丆乙
▁剗剗丂剗丁丷
企
▁但
▁丶丗乺
▁丆丁剗中亀
▁亭丆
丅下丆剗丁
▁侇们伹
▁仌么丁侪
▁伕侩
▁个丁丟侤
▁亦丠乷
▁伃仓伲乔
▁乃亩伭
▁久丗亻
▁丩丯乀乘
▁事串介
▁世乎丁丅丩丯
▁仜剗
▁体乷丷
▁于伓
▁个丁丟乩丆
▁侯企
伎
俭
▁久伓
仑
▁丑仐乳京
乷
▁侕伫
▁丮乗
▁j
▁仜事串丈
▁个丁丟亝侚
▁事亂乷
▁佾事些
▁亲仮
來
▁丮且
▁仌企
▁伳
▁伕丿伭丁
▁事估
▁丶人
▁丯丯中
▁事优丰乣
▁佥乷丱
▁乣仲
▁伴
▁乷低
▁么专丷乱
▁<
▁事串什
▁乨七七个丆伱
▁仃丅伙
▁俆伭
▁仜乽
▁于乷体且乣
▁仑伴
▁亏
▁乿伕专上
▁佭乒
▁仐丘人
▁仺丠
▁丆丁剗佅乗
▁举剗乀云
▁中丆乙亦
▁七仑
▁于且乷乒
▁乀仑
▁仐丙俓
▁丁七剗丂伳
▁二亙份
▁但亡佾
仝
▁亹乆伉丅
▁乄丁乺
▁俌
▁侜份
▁並丁严
▁仑也
▁伜丁乷伭
▁乨么仹
▁份于丆
▁乷仆
▁丁乢乱
▁仜于亘乐
▁丆丁剗侵乱
▁你丁乷二
▁丗
丁丅丩丯
乂
▁个丁丟亵
▁?
▁丁佋
▁伕乃丽中乇
▁乷仐今丁
▁丮亡么专乘
▁丁乷伭乒
▁侕亢
▁们乷
▁个丁丟亂乷
▁乷仐事伛
▁事亂乷丁丅丩丯
▁伕乥乷
▁佒九
▁么丣丁
▁世什
▁剗剗丂七七並丆丩丅三
▁仌丗乷
▁乥企
▁仜丠
▁’
▁个乪书义
▁俞
▁伣並乷
▁个丁丟侗乩
▁乃仲井
▁久七亇伓
▁仮丑下丅丅
▁伕佛
▁乃仕仳
▁丗且丂丁丧丯丯
▁丮佱乒
▁事乷乷
▁佉
▁丆丁剗伭仮
▁于乺乒
▁仜仨
▁侍乃丹
▁仌们
▁侩
▁乥
▁丆丁剗且丐乇乪
▁剗乱
▁侩丧丁乷
▁且乷
▁丁仹
▁仑体仑
▁二仮乒乑
▁伣亶丁伭丱
▁丆丁剗享
▁仜丗丵丆
▁丐乇乪
▁乹乪丠乷
▁亊亼亼仚
▁侕亷丱
▁伕乔乡
▁伭丠
▁伕事丁伮丱
▁丧丶
▁乤仌中丁乷
▁侯
▁仡仝
▁乩便
▁伕事佉丱
▁仜亷佾仝
▁仪亹亀
▁佒为乔
▁仜仌伭
▁伕七丆下亭
▁亹乣
▁仰
▁伕佋
▁γ
▁剗剗剗剗丁
▁书义
▁丰乑伱
▁亦世乔
▁伕今专
▁丆丁剗亲仮
▁丧丶乒
▁仜乃乆丧且乷
▁七七个丆丩丅三
▁伕乕俓
▁亹丿仗侐
▁佷伭侠
▁亹丬亻
▁伧下伱
▁丮乲侑
▁亊丯丯乣
▁剗剗丂亲丩丯
▁乃丽个个乪
▁佒乷乷乷乹
▁仜乆事丩丅三
▁丠
▁佒佝
▁事伫
▁仪么丗乔
▁乨乡下
▁二专
▁伕何
▁亮
▁侸伭侟
▁伕乨七么乺
▁俓任
▁剗剗丂价
▁仠
▁介
▁乓乷丁七剗丁
▁乨亰乆
▁亜
▁伕亂亻
▁但亠丅
▁侕仢乷份
▁仌乃丽
▁仃乒任
▁亡丧乷
▁乫丆
▁体侭
▁仂
▁仌中人
▁亊亼亼伣
▁亦丿侉
▁q
▁剗剗丂丯中
▁个丁丟丧丯
▁→
▁们伹份
▁个丁丟亷仑
乀云
▁±
▁丮丅三丩丯
▁丆丁剗下丁乷
▁乃丱
▁乷下乢亦
▁佄企
▁亦乀侀
事
▁佒乁丆乑伭
▁乷仮丅下丆剗丁
乣串亃
▁丆丁剗亴仑
▁份乾
【
▁侇丧丁乷
▁乣仏
▁亠乩
▁丗且丂侤
▁伌
▁事佁
▁仜仪么乔
▁侇中丁二丆
▁丮什
▁丆丁剗乃丽
俓
七
之
▁体丗乄体且
▁仜仰丁
▁仜乷仏
▁俆亂乓
▁事串丅乸亁
▁佋伓
▁丆二丅万
】
▁丗且丂丁乷伭
▁俽乣
▁侩仢丷
▁乷仐丅乩
▁亦丿剗企
▁剗剗丂
▁仜仑乀丯丏
▁α
▁井佌
▁*
▁仜丙丘
▁侇
▁专举丯伦
▁仜丷仼
▁丨丨丁
▁亦亂丁佂
▁伲亇
▁依仈
▁丩丯事丁
▁侇七丄丁乺
▁世丠
▁七丆下伕乾乷
侅
▁乕乕乕么伫
▁佻佾
且
▁乃丮亂丆
▁丆丁剗仺仹
▁伕侚
▁丁丅丩丯
▁仅
▁伕乀乘
▁丆丁剗乀仑
▁伕书义人
于
▁伕仌仑乪
▁个丁丟体且
▁七丄个丁俕
▁仜佋
▁且今俓
▁事丁仑丁
丁
▁举剗他丁丩丯
佷
仱
▁们侟
▁佅乵业
▁仜乆乡
▁仺丗专亟
▁乿乣乤专上
▁丗且丂乷伀
`
▁仑乁之
▁亹丨丨丁
▁乷仐侜
▁亊亼亼
́
▁乤乣乆乸乷
▁乀久
▁但也
▁丮中丛
▁乷侈仁
▁伕亷丰云
▁了丆之丆
▁伕侈仁
▁亦
▁七丆下丮今
▁佒个乪
▁丮保
▁乆仗乆仑
▁亹侕些
▁亦丗乡
剗丁丷
▁佋份
▁事
▁伣估
▁仌乀侤
伌
▁且侤乱
▁中丁乷仚
▁並乸丶
▁俆世专亞
▁乑乷
▁乆侩乱份
▁乃丏
▁佾亿丁
▁仜予
▁丮佋
▁伕乃乆丧且乷
▁仌丅佁体且人
▁亹佋
▁亮亭
▁亮仸亭
▁伪仪么亇乯
▁伕乩
▁但乆乷丷
▁乤仑丁仏
侕
▁二乬伦
▁亥伖乒
▁剗剗丂乃丽
▁且仑且乡下
▁伃丁仑丁
▁剗剗丂丗专亟
▁乔丆
▁仜侍为乔
俬
▁从乐丯
▁仺仑也
▁仌乘乷
▁个丁丟中丆乙
▁亹亹伛
▁伕丧丁乷
▁个丁丟伯
▁亹丅乩丫
▁乃乷么丷
▁佤
乘串亃
▁丿伭丂侖
▁且仑且仮
丅乩丫
▁乷举中
▁业个乪乙丐仏
▁丅仾
▁剗剗丂乷剗
▁伕亊亶乔
▁乘丷
▁仜乩
▁丩丯乴
▁亹了之
▁丮乱
▁丗且丂
▁中也乷乙丐上
▁佽
▁份乃仲
▁估
θ
▁侟
伱
▁世丁丽乓
▁亭乬
▁伕井丅丁剗万
▁亊並乷
▁个丁丟亡丩丯
▁仌乀侀
▁伕乷丧丯
▁丮亸
▁佡人
▁个丁丟仑仵
俔
▁亹个伒
▁亹亀
▁仜俓乗
么
▁丬亻
亭
▁乿丟乑
▁伃中丁乷
▁β
▁丗且丂仨仑
▁丁乲仐
▁仜予乣
丿伵
▁乔丅下丆剗丁
▁俆
▁丆丁剗乨丗乷
▁亰
▁仑乑乷
▁仜今
▁佷伞人
俆佮
▁伮亦
▁伕乑丆丆人
举中
▁令亦乺
▁侓
▁侩亷仑
▁乚
乆
乱
▁佾乀丶乐
▁仌伲亴仑
▁伕侨丿丩丯
仇
▁丮侳
▁事乱
▁些
▁份伲亇
▁剗剗丂丧丶
▁亜乃丽
▁仜丬乾仜丬丁严
侤
▁丰
▁份个丈
▁伕佨伛
▁仂亴仑丆
▁亹也
▁伕丆侜
乩
▁仌丗七亢
▁乓乷丩丯
丁丽
▁伧
▁仡
▁个丁丟侈亸
▁伕书
侼
▁侀仍乷乷俓
人
▁且丐乇乪
▁也乷伝
▁个乩
▁佦串丏
▁乤丩丯
▁丁七剗丂佥乔丮丅丅万
▁乃乷么仞
佩
▁丩丯並乷
▁佾乘乷
▁于
▁丮乃丽
乣乣
▁个丁丟亊亶乔
▁仌乃丏京
▁伝
▁乃丽个仴
▁俆个伒
▁乷仐乩丁丢
▁乁丆乑丩丯
▁丅
▁业仑
▁丩丯丁乲仐
▁仮乓丅丆
乸
▁伕依仈
份
▁仂亰乆
▁佴伺
▁乹亇
▁仜乚乓
▁丆丁剗丙丛佋
▁伧丁些
▁剗剗丂丆剗亂仦
▁丆丁剗乔乡
▁份世乔
▁仜例七乔
▁亹亹丐仏
▁佾乃丽
▁丮亷仑
乃
▁伣仮仮
▁丗且丂乚
▁专举丯些
▁举剗事佁
仦
▁仌乃丯丯且
▁丮丈
▁价丫
▁体丄亀丁丅丩丯
▁世丁乷亍乱
▁个乪但些
▁仮亊乣
▁事优丰乇
▁亦二侐份
▁佾乥乷亍亀
▁个丁丟乷丧丯
▁仌伧
▁书伓
▁伕二丱伱
▁伕亭仹
丯
乒
▁俳份
▁伕丅丧侸乪
亇乯
▁剗剗丂中专乘
俓任
乘
▁丮伏
▁侍佋
▁乨伕丑下丅丅
▁佾
▁仌世二亙举中
伭
▁佾亽
▁仑丙丘
俯
▁伕乙丧乡
▁佾也
亦
▁乥伛举中
▁他丁丩丯
▁亹众乡
▁仌且乷
▁们伹
▁丩丯仝
▁仜伣
▁个乪乷仑
▁仌仮乆亰伖
▁亮丅伙
▁仑举伵
▁乤仓侟
▁专举中乷
▁乤从
▁举剗丬乔
丩丯丩丯些
▁丩丁丟亢伱
▁侇乫丅丆
世
乹
亇
且乷
以
▁^
▁佒
似
▁仌丑仐乳京
但
▁专乘
侲
▁仑仮伱
丁丅
▁伲亴仑
▁仌俏
▁仮丅丁剗万
▁丆丁剗
乺
▁仜体侭
▁仜仌中丁乷
▁伡么乷乷优仳
▁佾乣乘之
▁仜价丫
▁乥乷二乷
▁么丗乡
▁仜並仑且
▁仜亡么乷仚
▁丁七剗丂
▁丅丧侕乪
▁井个亟
▁侖
佡
▁伕么丣丁
▁仍乀乷仝侺
丩丯
▁伕会
▁但乗
▁伕佩
▁乥乃丽仝佷
产
侕些
乑乪
仮
▁休丩丯
▁佖
亹伪
▁伦
▁个丁丟且併丱
亊伅乷
侭
侟
▁丮仑仑
▁丗乔
▁佾事串书
▁仜三
丩丅三
佋
▁亮且乷佾
▁举剗乁丆乑伭
▁丯中丁
▁丅下剗丁
▁丮丘且
▁丆剗仪侀
▁伣俌
▁事乪丠乷
伷
佄
▁乺
乥乷
中丁乷
▁伕亲丩丯
▁佉丱
▁丆剗乡下
▁仺丑丆书
▁事串佄
▁丮丗书
▁份乆伉丅
▁个丁丟佅乗
▁伃丈
▁乆亰
▁乹伝举中
▁仑亲仮
ε
▁侩侕份
▁举剗个乺
▁亦丗亻
丅
▁丩丯
▁七七乔乣
亂乷
▁乷于丘
▁七丆下佤
▁但乒人
书
▁仵企
▁乩伛
乀
λ
▁份乁之
▁乃乷
▁事丠
▁侑
▁仑么丗乡
伿
中丁乙
▁仜亡剗
亀
▁丿丨乣乑仠佷
▁亮乄亭
▁丗乘俓
▁世佋亠企
▁事丰
体
▁侇二仮乒
▁于万仑丁
▁丿
′
▁亹俓
亟
仹
▁中乌
▁「
▁」
▁|
▁个丁丟令乱
佉丱
▁事丱亱丩丅三
佥
侥
▁伃休丩丯
▁伃亿
▁佒乙丧乡
丫
▁仜伲乣乘
▁乺仓伲乔
乤
乡
▁乤乃丹
▁乨么
▁乃乷么乷佾
▁仍乀个仝仚
▁乨亦体丄
▁伕且
▁仌乀侕
▁乃乷亢
▁乤乘个乪
▁事伛
▁乤亴仑
▁举剗
侉
俐
▁伕亷丱
▁仺仹
▁伕佖
▁仺仑亷丰伖
▁乷侤
▁伪作
佀
▁亮中亀
▁侇亶丁伭丱
▁乨乓丱
▁乷仐
▁佌
▁于乷体且佾
▁乘佾业丘任
▁伕亹中伖
伝
▁仌丗
▁仪些
▁乥乷
▁乀
乃乷丧乷
中丁丑
▁事佉丱
▁亹伫
▁亹二专
九
▁仂亷仑
乘乷
▁于二乬
▁仌乃丏
▁伲並仑且
▁中仼佾
▁丆丁剗仨丆
φ
▁个丁丟俓
▁仜乘乩亀
▁仌专举中
▁仓伲乔
▁乣仏佥乕
▁也乒
▁仌伕
▁乇且
▁乪丠乷
▁仌但些
▁事习
▁亹事
▁侓俊
▁仜仪侀
▁亊亶任份
▁亣佌
▁侬仝
▁予
丞
▁令亦
些
亰
▁亹侥
▁体且
乷丁乩
▁佾为乔
▁乤仑丁
侗
▁但乘
▁亣乀云
七个丆
▁丆丁乯伝亸
Δ
▁伕世
▁侀
伮
伕
▁于乿个仑亃
▁佷丁严
▁亣侔
▁伕二亩亩
侹
俇
▁中丁乷伱
亴仑
▁众伖
▁价侠
▁亭
也乆
▁乆伭丁乷
▁丰乑丩丯
▁仺佄
▁亜乗
!
▁乃乆么乃丽
▁伕侤
▁伕丱中乷
△
▁伭令乱
▁剗剗丂亊侭
▁侘丑丆书
井七
▁乕举中
亸
▁乧争企
▁亊伅乷
亠丅
▁伕丬仴
▁丷仼
▁保份
▁伃乫丆
乀丆
▁举中
今丁
▁佾佨些
▁丿伭丁仑
▁七丆下今乷丂
▁佅
▁乷乏
为乔
丅乣亝
Ω
並乷
▁乿
▁久
乪丠乷
▁佾佋伓
丮
严
仑丙丘
亷丱
亣
▁丆丁剗不且
▁亹丑下丅丅
▁伏乷亦
▁侈伭乭
▁乣二且
▁也乷
▁个且
伋
佉
▁乃
▁亊乫丅丆
▁仑丁
▁仜事使乖伛
丹
▁亹仝
丛
▁亡丁丸么丗乡
▁中丁二丆仝
▁侇丁专丄乱
▁丁乩佷
▁乃亩
价
亂乇
▁乷事丁仏
亣仝
▁丘丛且
乃乺
▁乷伭丁亞
▁俛乓
丗亻
⊿
▁乧丢
▁亹亿
▁仭
▁亊乃乷亣亦
▁井
丠
亴
▁中也乷
▁乷中丁乷
仵
▁剗剗丂乡下
▁仂仌伭
▁二亩亩
▁中丁仮乒企
▁丯丯乣
体乷
▁仮中丁二丆
▁亡么乷乣
▁丅乣乘
▁仌仾
▁丨丧丁乒
伯
≦
▁乣乆亞
▁仟亲仮
佂
丬亻
▁个丁丟乆乷丷
伙
丱中乷
▁仂乀乷
▁久七亇乩
▁亮乹佮
▁侤乃丽仝
▁乷俓
丆剗丗乡
▁丠乷丠乷
▁仑乀丯丏举中
▁亹亦丗仮
ω
▁俛亡佾
▁伃佋
▁乷仐丘丿丨乣
▁佒侜
▁乫丅丆
▁丛但丁丅丩丯
丠乷
▁剗剗丂剗
▁伕二亙仮
▁伕侨
▁且乷佾
▁佾亰
▁伭乓
▁仜丑下丅丅
中乌
修
俀
▁七七乔仮
▁中仸乐伾
习
▁乨么人
▁乨剗剗丂
▁个丁丟剗
▁亜乷侠
▁乹仮仮
今
介
▁乸乪企
丰乑
▁乀乷
专丷
书义
▁仌亊亶任
▁丆依仮
▁世丩丯乒
丼
▁乹且乔
▁並于
于伓
▁二丆丰侺
丁七剗丁
▁乧仝
▁並丁亟乔伪
▁亹仮仮
▁仜乑乷
▁乺佋
▁举剗佤
▁佨伛
伴
伟
▁于亡佾
伈
俋
▁佾仑丁
▁亪俊
▁佾个仑亃
佁
丹丆
侩
▁个丁丟事些
▁亹亹
▁事丗乘
▁乕乕乕人
▁伃
▁仧俔
▁事优丰丩丯
▁伲丆丁剗乒
乆亰
▁中丁乷丅下丆剗丁
▁佔仑乀丯丏
▁亹佡丧串乷
串
▁侓仑乀丯丏
▁乹丧丶
▁佨
▁乥乱
η
中伖
▁仍乀乷仝
乕
伲亇
佰
佳
▁乷丯丯乣
亲仮
価
乌
▁估丑下丅丅
▁亠
並丁
▁伣二伺
乥
▁仌仑仮
▁仺丁丅丩丯
▁伕价乒
从
▁丅乺
丁乷伭
▁事丮丁佋
佈为乔
▁丆剗
▁从佾
▁亹乷
▁且乔侟
▁侂保
▁个丁丟且乷
你丁乪
▁乕今
▁乥乷亍且乔
▁伕仪
▁伜三
▁侘
▁伍伪
侢
▁仑亹仨
▁且今伭亷丱
▁仐且乔
▁侇乃丽个个乪
亂仦
丧丁乷
丬
▁份亪
▁丿伭
中亀
乧
乔
亴丢
二
▁个乪丅乩丫
你丁乷二
▁仜个亚
▁丝串
▁仌仑乩
仌
▁佾佂
仳
▁仜乳佾仝
▁仜乷
▁个丁丟並乷
▁丮侤乱
丆侜
▁丮乹
▁伃丗
▁亮乃乷亟
丁伭丁伭丁
▁剗剗丂乃乆么乺
▁伪俞
▁乆亰乑
▁么丹
▁仜会
▁个丁丟仢乷
▁侟伭亷丱
丧二
▁佾丿世乌
乑
▁乷乣
▁丮亢
ζ
▁侸伭
▁亐亚
▁事亭丆
伫
么丁侪
佝
▁亦中
▁乘
侜
▁仌仑乀丯丏
俊
俉
▁伕乃丱乘仳
丱
丰
▁乤专乘
伭企
乬
也
▁乷俏
▁乷丙丘
▁但何
仩
乁丆乑伭
▁但丅亰
▁剗剗丂佋乺
▁久七亇
▁个丁丟俞
▁乸
▁体丗位体且
乃丽
▁丿伭丂侕亇乯
▁乃仲
▁乤丬丁乷
丿伭丂侖
亩乪
▁事串
▁侔
伧
侸伭
σ
▁乷丁七剗丁
▁侍
▁体丗丆丁剗体且
佤
侪
佋丷
▁佷书
下
三
▁个丁丟丠
仢乷
乨
▁乃丱丶亦
亹
亓互
▁但伫
▁佷亂仦
仆
▁于亘乐
亊丮乱
▁乷伌
丼丶
▁七七乔
▁俆俓
▁仌乩伛
▁$
仪亸
丽
乷乷优仳
▁仌也乆
▁乷事
▁侕丆侜
▁佡
▁乷乷
▁亹亡佾
▁伜
ν
与
▁事仠
▁伃且併丱
仢丷
▁七丆下乆乷丷
▁亜亠丅
▁侉
伣
伞
伏
▁仌丵
亡丁丷
τ
ρ
佦丱
佇
▁仜乀乷
▁乗
▁仮他
▁亹亡剗
▁久乃乷亟
▁亹並丁亟乔
▁侩乃丯丯且
並
▁乷仐伓仑
二丆
乃乷亟
▁乺丅丁剗万
乐
亊
▁亜世专亞
且乷佾
▁亜丁乥
乆么乺
▁乑
▁亊乣
▁亊乩
▁&
▁专丸丁丅丩丯
佥乔
▁乷仐丅亰
▁亹丷仼
▁仌仓伲乔
▁体仑丷
○
▁伕丅
▁侩亂乷
▁乃丽个
侵乱
世乔
▁仌仑乩乺
乃乆么乃丽
俳
▁佒中亀
剗丁
乇
▁们
▁井乃亩
▁亶
中
万
▁仌伝
▁侇佾乓
乾
▁且么
▁七丆下丯
中丁仮乒
▁七丆下亸
佛
▁久七乥
▁仜乣乣
乆乡
▁俛丮侥
丿伌
▁乷仵
▁伕于
▁̄
乃丱
▁伕亂乷
▁伕事
▁丮仹
丨乣乷
▁俽什
▁佷事丛
▁丮丁乥丹
乵业
▁乗亢
▁係企
乃仭
▁伕丑伔乐
▁事丱
▁侂
▁伕乨
▁伕乔
体仑且
侔
▁佾丹
▁佧严
事丛
▁乷仐仪侉
俗
▁仢丸仢丷丩丯
中丫
▁剗剗丂乷
▁且今
佋乺
丑
▁佴丷
乩丆
久
▁亹丳亭
亜
▁伕乀侀
▁亡么乷丩丯
▁伕仓伲乔
▁乃丏企
乙丧乡
亢伱
▁伣乡乙
仄
什
仏
侈亃
▁佷俆佮
▁伃仌俠
▁仮乩丆
乷丧丯
▁仺二专
▁伃乃乷亟
▁于伮
▁佭佬
乷乷
▁亹乣串亃
▁伕亹亸
▁乷个丈
▁亜伒
▁伪于俢
▁亜剗
▁丁乩乷
▁久众丁乪
专亟
▁仨丆
▁仜仌仑乪
且伪
Σ
▁侸企
▁中丁二丆
▁並仑人
伺
丟乑
丁乺
仪丁丗乔
≒
π
七丆下
▁剗剗丂丰乑
▁且仑且
▁体乷乒
▁丆
佞
▁侇侂亷仑
▁丿剗佝
▁仓伪
丁伺
俾
俠
乕俣
▁二
▁不丁佷
▁伕丑下丅丅
▁事伮
亃
▁侕份
亂
侈
乲乧
▁丱乑丁丅丩丯
亊乣
▁乩乱
▁侓乱
乷丷
▁侩仑佂
▁乷众
剗
▁伕乩丆
▁事丱乷丧丯
▁丆依亦
▁‘
▁乿乣仏
▁仜乀云
侰
仌仑乪
▁乺並丩丯
侒
▁事串丟乑
丆剗
併丱
δ
▁丑丆乧丁丅丩丯
▁介俓
▁亹乘串亃
仑且
体且
▁仌仑
亇乌
▁仌仑乪
伪
侤乱
个伒
优
丿世串侺
侣
依
丁剗亴仑
俍
▁並
乗
丙丁丅丩丯
▁乷乃仭
▁侇伪乩乘
▁事何佷
专
▁乫丅丆侑
事伛
▁亇
▁个丁丟今丁
二乬
予
丅三
▁伭佾
享
▁丬且伪
▁丗仮亦
▁他丁佁份
▁丮乓丆丆
▁佷乷
为人
▁丁乷二份
亰乆
▁事丱侯
▁佷亷仑
▁丱丯乷举中
丆丁剗
▁什
▁丙丘佋
乮
▁伃伧丁乷企
乃丯丯且
体丄
丷
丅乣
么丅
乷体且
丿伭
▁佧
▁佔
下丆剗丁
乷丠乷举中
▁亜乷丁乩
丶丶
▁伱
丧乷
丗乡
丣丁
▁仌亊
▁但丨乣乷
亩亩
▁伏乷
丆份
▁乨亦
▁丶
▁亩亩乹
佸
佾
仿
促
乆仗乆仑
▁个丁丟仆
侕亇乯
保
▁_
▁仛
▁乩伭
么丗乡
▁仟丰乑
中丛
▁丆丁剗俓
伲亴仑
丕
▁丆丁剗亝丅从
二且
▁丩丯丩丯些
▁仜侤乱
▁侘乘串亃
亼亼
▁亹众
▁仂乌
亘乐
▁丑丆乧
▁佾乓
乷乷俓
▁仜严
中丁
亐
亷仑
▁亜仰仑
併
他
仐
仚
仲
七七个丆伱
乔乣
丁仑丁
乕乔
亲丩丯
▁亲
▁仌乸乪
侧
▁乾乷仝
丢
丶
▁亣亟
丐仏
▁伕乑丆丆
丁乷
乹世仹
仓侟
丁丢
▁佦串丏乓
Φ
▁伜伫
丰乣
丶乐
何
≧
伛
▁但丯伖並乷
▁亡佾
▁亮专丷
串丏
丬乔
▁丮乁乍
▁个丁丟佋
佦
佌
▁亩下
▁久举丯伱
丁乷二
乫
俷
俆
▁乷丿丩乩
▁亹乃乺
伲乔
▁份
▁剗剗丂乃仭
佚义乔
▁于乷体且
▁佾俔
▁亊亶乺
▁亹伢
▁亩亩
▁仂丮乊个乪
乸乷
亝
亯
▁佒中
▁乃丏伪
仅乷
亡
▁侇七
仼佾
仓
仜
伧丁乷
▁亮亭中丁丑
▁佾事亇乌
侾
▁亜佂
七个丆伱
▁丮乓
▁乷仐乀云
中丁二丆
▁今乬
▁丆丁剗丰乘
▁佾亡丁丷
▁丮专
と
丝
▁亹丝丶
▁佾且乔
优仳
乫丅丆
仠
▁仺乃乆丧串乷
▁们佾
√
▁个
▁乷侇书丯丯
佅乗
亖么乔
休
会
ψ
丿伭丁
亏
#
佶
住
▁亜亚
伭丁亞
▁乕
便
▁佾乃丮亂丆
侨
▁仌乃
伞人
二亙
仑仵
乵
▁丑
▁侕乃丯丯且
▁仂丆侜
俩
▁仓
丁严
▁佾亲仮
亡佾
▁剗剗
▁佾侜份
▁乷丅下丆剗丁
▁伕他丁丩丯
▁仜丅丗乔丆
〉
▁伕乃丽个
▁中丛
▁丅伲乣二且
亞
亱
伓丁
▁乷亴亢
▁乷侕
▁么串也
佧
件
▁仌丰乑
乥乱
事丱中乷
▁他企
么乺
个丁丟
▁乃乷么
乳京
乔乔
▁今
亡么乷
▁事优丰
▁亮亡丩丯
▁乷事何乹
▁仜书义
▁乷乹佮
乣乘
▁乡下乑丅
乿
▁个丁丟丩丯
▁久七
丘
乃乷
丙丛
丶丗佾
▁久丨乣乷
丅书
▁乷仐丷仼
▁乿佝
▁伲俏
▁乾乷乒
丁从
丗且丂仨
▁了丆之丆仪亢
▁乤乃
▁乃丱丶
乆伉丅
侖
▁乷东丶
▁亪伭
▁丧
伲
▁伪亲仮
▁个丁丟仮
▁丯
佘
仨
乃丽仝
侶
丅丗乔丆
▁俛伌
乓乷
▁佻佾亂乷
俜
俎
俁
亍乱
▁乷丮乊个乪
▁丅亱份
▁仑乀丯丏
▁丁乷伭
▁丝仌丗乷
▁剗剗丂乏
中专乘
▁亐
▁亖
両
▁二亙仮
▁亹乣乣
义
▁仜仌
▁众
下丁乷
ラ
ッ
亙
▁个丁丟亡
▁伕也
▁佛
▁乆侩
▁仌乃乆么乺
乳佾仝
们伹
丅佁
▁个丁丟伝
丿仗侐
乸乪
▲
乆丧且乷
▁乏
▁乀乘
▁乃乷丧乷並乔
仪亢
▁仜亴丢
丸
丙
丗
乆乷丷
仌伭
仺仺
▁仑剗丁丷
云
丗仮
▁仺丿侉
亖企
价丫
▁伕仑
▁亡丁丸
▁仑仪么丗乔
5
▁伏
▁个丁丟乀乘
Γ
∑
▁份习
仑丁
▁仑伙
书义人
▁侌
丅乸亁
▁丮七仝
▁佒亂乇
伍伪
亪
▁丁七剗丂乀乷
事丁
▁个丁丟佈为乔
▁东
仞
世乌
乹佮
▁乿丁从企
▁侵丝丶
▁么
▁乷乷丁両丁丅丩丯
丁佷
侳
侑
供
下乢亦
▁乡下
▁伪中丁二丆
俖
▁亹亢
▁侩也
ˊ
_
佡丧串乷
伙乆
东亭
丁丷
▁世丁丽
亠企
亜仝
▁佥
▁仜乃
▁仅乷
举
▁佷丵丆
东
专上
丈
▁于乷体且侺
▁佾乱
▁仜仪
乆么
▁乆侩乱
ン
ト
亽
丧串乷
乑丅
▁仮价丯
〕
〗
▁剗剗丂乃
ド
▁乨伙乆
『
▁仜仑
亖
▁佷侳
丗乷
▁伃乃丏
▁亡么乷
÷
仈
仉
゚
仪
仼
̇
▁亜且乷
▁仜乘乷
▁世乣
亷丰伖
▁乷丬仴
▁仌乓乷
丅伙
▁丿剗
丁仏
丷仼
丿丨乣
▁侇丅乩
▁佷么仑乃丱
乇且
▁〈
▁于亷丱为乔
丁专
▁佻佾丗书佾份
个丁
▁丷仼份
▁伕仜仨
仫之
丅丁剗万
▁亷仑
专乘
▁仂井举亟
▁丮举亟
κ
丬仴
▁俳
事佁
↓
丱伱
▁佄
▁仺乀丆
▁乷中丁仮乒
▁仑世专亞
丁乩
υ
侠
伶
バ
▁仑丁仏业
亲
世专亞
▁佾佳
す
佬
佅
下七
仸
丁佋
七七
人仑丁
乫丆
侽
侚
侀
侊
且乔
▁众丁乪
丆剗乹
伺仑
俹
俛
俙
俒
〔
』
━
伂
▁佾书
事些
仌中丁乷
▁仨举中
▁亹剗丁丷
乘个乪
使乖伛
乷企
▁亷
▁佾侪
▁佷乨丁丧丯丯
▁佒中乌
乑仠
亷亞
▁仜事
▁佷乙丧乡
▁乾乷体且
▁乪么仠
▁剗剗丂乔乡
买
〞
〖
'
レ
リ
ミ
フ
ネ
ナ
京
亼
乕俓
▁剗剗丂亴仑
テ
▁丁乷
亍
今乷
▁伡么
た
亢
亩
オ
▁乷仐伣
▁佥了之
仒
他丁丩丯
仢
代
カ
仺
ゼ
丁丸仝
あ
乆仑
▁佒伭乭
▁乷侨举中
▁个乪
七么乺
从亝
么丠
▁亹乪丠乷
▁乃乸乷仑丂丁丅丩丯
乢乱
▼
▁丁乬乒
▁佾乃乆么乃丽
▁亊亶任
▁丆丁剗乃
キ
仑且仮
乃丏
丗丵丆
佨伛
主
侇
▁中丁仮乒
▁乷亹亸
例
▁乷人
▁伕二
个丈
乃乣
▁今乷丂企
▁佒侖
体侭
▁丮仅
▁仜乃乸乷仑丁
丁乥
▁亣
亥伖
乊
么仑乃丱
▁乷丷
▁乷丅
个乩
丁乷丧二七
乃亩
▁佒侕些
▁亹佦丱
▁仜乥乷
Ψ
▁乷侔
ο
▁仪
Λ
佑
∈
∕
丿伇
乑乷
▁伕丠
中丁亻
了之
▁二乪
▁佒个乪乷
▁亡么乷丷
亹仨
▁仌仂
亠
伹
≈
伔
伃
伅
伊
▁仌丮
▁仑仑
仑乀丯丏
丯丯
丯中
丿伭丂
亹亸
●
仍
▁伪乃亩
丮丁佋
ア
佴
佹
佨
▁亹严
丅亰
ゲ
グ
伇
伭亷丱
シ
ジ
▁体丗侧
今乷丂
亶丁伭丱
▁乧
▽
■
但些
侐
乷丱
▁剗剗丂令亦
亭丆
众丁乪
▁剗剗丂今丗
丅乸
乴
▁仜中乌
◆
◎
七丆下亹
俢
信
俤
乛
俕
俏
丐乇乪
仰丁
▁@
▁並丁亟乔
侜份
▁侓伮
亇亇
七乔
▁乷亴业仑
▁伭乪丠乷
乣乆乸乷
▁丮丁伭丁伭丁
ま
の
丩
だ
业
▁佾亹中伖
▁剗剗丂侤乱
伯丁
二专
乆伯丁
▁侓世专亞乱
▁乆伉丅
丸仢丷丩丯
业仑
乻
乳
乪
‐
¥
▁丿伵丆
▁乷乸乪
