<unk>
<s>
</s>
▁の
▁,
▁に
▁る
▁を
▁た
_1
▁し
▁と
▁。
▁で
▁は
▁て
▁い
▁が
▁な
▁れ
▁ー
▁す
▁ン
▁こ
▁ら
▁よ
▁ス
▁0
▁ル
▁か
▁1
▁あ
▁り
▁2
▁)
▁さ
▁っ
▁住
▁丮丘
▁伓
▁ト
▁丰乑
▁イ
▁伃佂
▁(
▁お
_2
▁も
▁佂
▁め
▁仡仵
▁つ
▁亊亶乔
▁事丁仏
▁き
▁ク
▁シ
▁リ
▁佋乀丆
▁タ
▁ラ
▁C
▁ま
▁く
▁3
▁亮侭
▁伧下
▁伕乣乘
▁ア
▁你专丷
▁亮伲丁乷仳
▁そ
▁俆似
▁け
▁乤体仑丷
▁う
▁乤亚
▁ッ
▁中丁乷
▁−
▁5
▁ロ
▁乿丁丠
▁プ
▁ム
▁事丁亰
▁仸乱
▁乩
▁亘乐
▁び
▁仑丁侭
▁侃
▁・
▁俍仑
▁乃乷丧乷
▁俊
▁4
▁他
▁m
▁や
▁俍二乪
▁P
▁.
▁え
▁佨些
▁デ
▁信乓
▁テ
▁仨仨侲
▁S
▁乃丽
▁伟
▁並丁
▁ど
▁丮伟
▁フ
▁亲侠
▁a
▁但俠
▁O
▁エ
▁丁严
▁侕亜仝
▁亂丹
▁コ
▁丗仮
▁丿丨乣乑仠
▁伺侖丱
▁A
▁丁
▁オ
▁価乥乷
▁乘佾业丘
▁伕侲乒
▁レ
▁ネ
▁e
▁乤仑丁仵
▁9
▁亹亩亩今丯
▁侺丨乣乷
▁仟丶
▁i
▁丆丆丅么亢
▁乓
▁ジ
▁グ
▁亢
▁カ
▁モ
▁伛
▁ド
▁I
▁マ
▁亹中丁中乷
▁仑乥乱
▁6
▁侺为乔
▁サ
▁俍丁乬
▁わ
▁み
▁侺且
▁亮侰
▁侩乘串亃
▁俩中丁乷中
▁丧丯
▁乃仲亃
▁伕乳京
▁乃丱丶乓
▁久七什
▁乓乷
▁丳亭
▁M
▁体乷亦
▁バ
▁仑
▁仓佥乔
▁佦丰乣
▁メ
▁乿亩亃
▁仡乥乱
▁n
▁8
▁セ
▁乃亩仼且
▁伲且併
▁亇亇
▁件
▁亴丢
▁
▁伣丁乬
▁伕专剗
▁俜
▁侄乒
▁丮仰丁
▁7
▁伕仑伱
▁N
▁侺乲乧
▁丮佄
▁乃丽个亚
▁但乒
▁佦丱仮
▁乣二且乍乔
▁亹伫
▁D
▁チ
▁事串乚
▁俄
▁侕乇且
▁丳
▁r
▁亹优伶
▁t
▁伪
▁o
▁ウ
▁べ
▁丮佨
▁T
▁亊企
▁仑丁仏丁丅侲
▁乣
▁乸乷
▁丠乷
▁仜且乔
▁丮与且伪
▁乿亼丆专上
▁ガ
▁へ
▁丅丧乷
▁乤今乷丂
▁E
▁乸亭丆
▁せ
▁l
▁伩
▁书
▁亹仨
▁佥乔
▁ミ
▁丙丘
▁伕伧丁乷
▁乷乷乷
▁ギ
▁ニ
▁並乷任
▁亲仳
▁パ
▁キ
▁侈
▁丁乬亀
▁%
▁俠
▁s
▁丁乬乒乣
▁世乣
▁伕乾乷
▁「
▁丧丁乷
▁」
▁R
▁侇佬
▁侕仁丁丅侲
▁丝丶
▁亴仑
▁伕乚人
▁F
▁/
▁仑乃乷亟亀
▁ィ
▁侾
▁H
▁乘佾业丘企
▁丅侠
▁c
▁侇乥乱
▁丆依产亦体仑
▁仑仮
▁侇事佁
▁乃乆丧且乷份
▁侺乑丆企
▁侺也乆
▁丮乷人
▁也乆
▁L
▁乏乔
▁g
▁ダ
▁ブ
▁B
▁伣修
▁仜俏
▁俍乷
▁価伫
▁乃乆世佂
▁亹伪
▁仢乷份
▁乃乺
▁亹且併
▁ュ
▁侺乱
▁価佋伓
▁俓份
▁伕佶世专亞
▁乲乧
▁何
▁乸丆丆丵
▁侄乒侑
▁体人仨
▁佼乷份
▁仮
▁ナ
▁ビ
▁仚
▁乤乆伭仑
▁专举中
▁ベ
▁ず
▁但亲侲
▁亟
▁乙丧乡份
▁侨份
▁亹乴
▁p
▁乣串乤予任
▁亡丁丷
▁二侈份乱
▁じ
▁世佋亟
▁侘伪
▁侰
▁中丁丑乷
▁中专乘
▁久七乥侑
▁ズ
▁亂乷
▁亊你专丷
▁中
▁伕世佋亟
▁但乷丅乣
▁乳佾
▁ノ
▁亱侰
▁丮丅侠
▁G
▁ポ
▁丮体
▁丮佫
▁仜乥乱
▁丗七亢
▁乤乃丱优仳
▁u
▁伃亲仮
▁侣份
▁份仨
▁ん
▁体
▁V
▁丗丁乣
▁侇伪乬
▁们仨
▁ョ
▁乿仑丁乱
▁乃侕
▁乷件
▁事亳乷
▁丁伭乐
▁乷乷仁乷乷
▁亿
▁仜仑丁仏
▁d
▁伕个伒
▁価乀丆
▁価乔乣
▁亠丅
▁亂人
▁乹世仹
▁丮仠
▁ェ
▁丮仃乒
▁ケ
▁仜业仑
▁亇严
▁伭中丫
▁仜俓
▁俓人
▁丿仗侐
▁ば
▁亦中丁亻
▁二仮乒
▁亹佨伛
▁伕俓且
▁侺中丁伹
▁世乔
▁事些
▁亹侗伖
▁事丱中乷
▁亼丆份
▁伕事丱中乷
▁个丁俓侰
▁仌伞人
▁丆亭
▁ち
▁侩亏
▁井乘佷
▁于乆仗乆仑
▁事串书
▁だ
▁丁伶
▁中丫
▁侣乃仭
▁体仑企
▁亐仝
▁侕体
▁事串佰
▁仜体些
▁侺乆乷丷
▁俕
▁乃丽仝
▁专举中侲
▁仢乷
▁ほ
▁俐任
▁仸乐伾俓
▁丁从
▁丮乱
▁伜乣
▁二侈份
▁中丁丑
▁且併
▁伭亷丱
▁亡剗
▁亹亸
▁価乥么丷
▁亦使乖伛
▁k
▁ピ
▁俴
▁乸乪
▁侣专乘
▁乣乘
▁h
▁丮乸且乷
▁乤个乷伱
▁丮亷丱
▁专
▁伕佝
▁但亇亇
▁体仑
▁侗丅书
▁価乑乷
▁伕丿伇
▁丮乲
▁伕乃丮亂丆
▁亷佾仝
▁佶世专亞
▁使仁任
▁価伭
▁ツ
▁b
▁ソ
▁価乳丷
▁乷丽乒
▁亹依仈
▁亹丢乷乕丁
▁乿乹丁丸仝
▁专丷
▁事些人
▁ャ
▁佾仌仑乪
▁ろ
▁佾伌
▁仌丮丠乷
▁ヒ
▁乙丐上
▁丿侲
▁侇伉丅
▁ハ
▁仜丿丩丯乪
▁丮亷丅丨乡
▁亡么乷乺
▁亦乃丽
▁亴仑亦
▁于俢
▁丗乺
▁个乪乷
▁亷丱
▁亹乥乷亍乱
▁仜仪亸
▁伕乷丷
▁么侣份
▁仸丫专乒
▁伕亡佾
▁々
▁W
▁乷仐亂乷
▁づ
▁于亷亞
▁乆丆伯丁
▁侫
▁ワ
▁佛侲
▁丣丂
▁丨乣乷
▁侺亏
▁伪与亟
▁げ
▁乿侅之
▁与侕仨
▁伣
▁乣仏云
▁亸
▁侮乙丐上
▁丆侜
▁伕伮
▁俣
▁价
▁乃仭
▁丿丨乣佷
▁〜
▁仺使仁任
▁°
▁享
▁伜侰
▁事使乖伛
▁从
▁:
▁丮专乘
▁侺丁从
▁事亳乷乒
▁ボ
▁佾乆乷丷
▁亠丅伪
▁企
▁丮侺
▁乤乀专
▁亹侜
▁亜伝人
▁仪么乔
▁仌乸但
▁乿二仏
▁亦侜
▁伕仑丙丘
▁ぼ
▁亓互亷丱份
▁亮侫
▁侺俊
▁侨仝丁从
▁伏乷侖
▁価中丁乷
▁伣二亩亩
▁ホ
▁乣侖份
▁丰乘
▁亴亣仝
▁乸且乷
▁伕伈
▁侺乃乆今仑
▁事侪
▁亡佾乒
▁丼丁佷
▁侣
▁む
▁乹
▁佈为乔
▁仺且乨丁丷
▁ご
▁事佰
▁俏
▁丁仐仝
▁ゴ
▁亊乘
▁亦亂乯
▁侇乧争人
▁仃今专
▁丮丙丁丅侲
▁乧丁丅侲
▁侓佝
▁ペ
▁亹亂乷
▁侵乱
▁伧丁乷企
▁侚亝
▁乣仏乑乷
▁侓个仑亃
▁亜乘乷
▁丮亚
▁価亥伖
▁y
▁伣乳京
▁但且乇
▁丁乻乐
▁乤体乷
▁伕于丘
▁亹仌仑乪
▁仜亊乘
▁井七
▁且乔
▁伞
▁且仑且个丈
▁ザ
▁U
▁供仑
▁侓乑
▁仌伕亂乷
▁佴伭企企
▁ゼ
▁価丰乘企
▁ぞ
▁且今亹
▁仢丷
▁丟乑
▁侗俣
▁二乪份
▁丮侲乒
▁事何乹
▁乸亯
▁丮丿仗侐
▁乿乹亮仝
▁侺
▁ァ
▁侕亲仮
▁侥
▁侈仁
▁価俓
▁x
▁促
▁伕价丫专
▁但乷
▁仌介
▁亦丙丘佋
▁侕
▁乆乢乒
▁乷両
▁丿伌
▁乿个仑亃
▁伕亚
▁伭
▁丮俈企亃
▁侍为乔
▁仜侸伭
▁份丯
▁K
▁仜乁之
▁仑仵
▁作
▁X
▁俱俓
▁乁丆乑伭
▁侺侗侳
▁伕乃乣
▁価事丮丁佋
▁仜世专亞
▁亶七么乺
▁仑乑乷任
▁侗二乷
▁ヤ
▁侕丰乑
▁仌佋仼人
▁伕丠乷
▁乤俓
▁中从
▁仜伮
▁伕么串亸
▁乺丁乷伭
▁仃乒
▁伮
▁=
▁乵丘
▁丮乆乡
▁乆乡
▁ゲ
▁亹丅伙
▁侇侣乌
▁仜乃丹
▁但乃乷丧乷
▁亊仰丁
▁乿乔乣
▁乷
▁f
▁仑仪丁丗乔
▁亹世乔
▁ゾ
▁亲伐
▁伣佝
▁伕丁乩伂
▁佮乱
▁俅
▁亹伪企
▁个乪丁乷二
▁仌仑且
▁侓侤
▁他丁侲份
▁伕仑伺
▁且
▁価亂乇
▁俆佮
▁乚亹俓
▁侇俍仑
▁仌亴仑
▁佔乹佮
▁乃丏仯丅乣
▁仜为乔
▁乿丬且伪
▁ユ
▁但丁伮企
▁乷侲
▁侇依之
▁丯丁乙丁丅侲
▁仜仑丁
▁仑仑仑
▁丁专
▁乃乷亟
▁仌乔乣
▁佒伢
▁俖丅亰
▁伕且乷佾
▁侺仍俓乔
▁J
▁伙
▁亜亢
▁亗乷乯份
▁丮侚亝
▁丮丆亭
▁但乗份
▁且乓乓乓
▁俍
▁侶乹
▁佡仝乓
▁伣亠丅
▁仌丮丘
▁俩乔佷
▁μ
▁丮体乷
▁v
▁丆剗乑
▁仜仰丁
▁丿亖企
▁仜伌
▁仜于佰
▁乘乩亀
▁丮乷仏
▁仌乃亩伭
▁侗侳
▁久中丁乙
▁乆丆丁丰仚
▁伕仿
▁乿乥乱
▁仜乷侲
▁仑丅乬
▁伭企
▁併丱
▁亹俳
▁仜于万
▁仌丑伓丁任
▁中丁丑企
▁仌伭
▁丁乩
▁Z
▁伕
▁侲事丠
▁二伺仑
▁俆乷仐亂乷
▁伕伲乀佷
▁乷伙
▁依仈
▁享丁丅侲
▁亇乷
▁価丿伌
▁佋
▁亹亹亸
▁乤且伲侑
▁佾业仑
▁丿丨乣
▁丁乷丧二七佷
▁乘乷
▁且併丱
▁亦体仑且
▁丮七仝亀
▁伣亡佾
▁伕仢丷
▁事专丷
▁侍为乕伱
▁伕亖么乔
▁俖串乷
▁w
▁仺乷乷乷人
▁丗仹
▁侩亴亢
▁丅亰
▁举中
▁侟佋
▁二伺
▁乷仏
▁丯丁人份
▁丁丽
▁並乷
▁価亥侐
▁伕侖
▁俖亥伖
▁価乃乆今仑
▁亊俗
▁丿伭任
▁乳丷
▁乸乣乷仳
▁侺但乗
▁伭亂乷
▁”
▁乷低
▁井侾
▁于下乷
▁仃且併
▁伣亹亹丐仏
▁伕亷丧乹
佉
▁侈企
▁佒丁从
▁侣中丁仮乒
▁乾乷三
▁仌伧佧
▁ヘ
▁乹世也
▁乤侭
▁仜仪丁丗乔
▁丅佁份
▁亷伭丱
▁乣乘之
▁ォ
▁世仑亢
▁仑乃乷亟
_5
▁丮侑
▁佧个丁伱
▁剗
▁伕乘乷
▁仑七七亍丁丅侲
▁ヨ
▁z
▁伲丁乷仳份
▁丁交
▁且乷仝
▁侺仅乷
▁仜乃乆丧且乷
▁侣伮
▁仑且
▁于佰
▁专他七企
▁侇中丁乷
▁丮伩
▁亦仑丁仵
▁丮乥
▁+
▁但亢
▁佾乀云
▁丁伮乱
▁俖且
▁但仪七仑
▁仑仑亷丰伖
▁Q
▁佱亃
▁亱亱仑
▁ね
▁侙
▁乿为乔
▁亡么乷丅乷
▁×
▁仹
▁二亙份
▁丮七乊个乪
▁俖侜
▁佶
▁仫之
▁乆丆伯丁今
▁乸乱
▁亹今乬
▁侨丁丅侲
▁亊亶任份
▁久业个乪乙丐仏
▁但些
▁価仆
▁仌伕侤乱
▁且丧乆也
▁乃乷亣予任
▁乸亹
▁丯丁亻且乇
▁乩丆
▁侣乔乣
▁佷
▁乷仐书义
▁中丁乷之
▁但仑
▁亊丅乣亝
▁仜侤
▁亊亸
▁丯丁伆乷乒
▁乆丆么乓
▁仜乷乷乷人
▁ひ
▁伕串乷
▁专他七
▁丮信乓
▁仜俓乗
▁侺乷丌乪
▁个休
▁会
▁佩
▁乷乘串亃
▁乆丆么亸
▁丁侈亃
▁’
▁乣仲
▁伕乃仲井
▁亹乃仭
▁伕中丁人乣
▁且今侣
▁亦丁乷丧二七
▁Y
▁亹且乔
▁伣乚且
▁丮丁乥
▁亣三
▁且么侠
▁仜件
▁価仰
▁也
▁仺们
▁価与侕
▁丁于
▁亠丅乓
▁你丁乷二
▁価且今七七二
▁丮世乔
▁侲乒
▁侺侖
▁侂亯
▁亊丮乱
▁ふ
▁佨乿个仑亃
▁]
▁侧
▁伕佋乃丽仝
▁事乪丠乷
▁侺个且
▁亦丽串乣
▁于乷体且乣
▁俩东丶
▁且丧乆也什
▁伕乑乷
▁久七仪乱
▁伕仪亢
▁伕亲仮
▁份于侖
▁侺亴仑
▁乵丘佾
▁[
▁井久井久
▁仂佷
▁乆丆么侰
▁份世乔
▁>
▁丿世乌
▁俤下丁乷
▁伬乓
▁ぶ
▁侳
▁侲世乔
▁亹侔
▁侇乸且乷
▁仪亣三
丱
▁侍串乷
▁乄亖么乺
▁丮估
▁ぐ
▁仜么串亸
▁乹伣
▁乃乆丧串乷
▁事乽
▁価仪丁丗乔
▁仜丗乔
▁仌
▁仜仨
▁俍乴
▁亲仮丿伇
▁乥么丷
▁佝
▁乿侚
▁世亹亹从
▁丮丠乷
▁乾仌丁丱乒
▁俖丧二乹
▁併亠丅侠企
▁侺优伶
▁丶丗乺
▁亯
▁乿亗乷乯专上
▁丮今
▁亹亷伭丱
▁伜估
▁乣仏伨
▁価亲侲
▁侵
▁乾
▁且乷
▁事丁乷伭
▁仃丘
▁么专丷乱
▁伭丠
▁亹乱
▁乿丿伭乪专上
▁価丧二乃丏
▁佰
▁俖体仑丷
▁仌伕乷乷乷人
▁俖亊乘
▁佶丁乷二
▁;
▁侶任
▁侺乾乷
▁侕並乷
▁仺伭
▁伒
▁中丁亻
▁乀云
▁ざ
▁伕丿伭任
▁但仹
▁伕于俅
▁佧个乷乷乷
▁丅从亝
▁从乐侕中丆乙
▁亹乃乣
▁事串什
▁侔乒
▁乆亰亏
▁乧乓
▁ゆ
▁俧
▁乸侤
▁乤且併丱
俭
▁亜
▁丮侥
▁丮乃乷么丠
▁俤举中
▁中丁乙
▁ぎ
▁个伒仝侠
▁伕乀云
▁亂乇
▁丮亖么乔
▁伕且仑且仮
▁、
▁乥么
▁乿信专上
▁侲
▁么丣丁
▁侺中亀
▁众仑
▁仜么侣
▁伕侉乀任
▁从乶丆
▁于乷体且份
▁丝个乪
为乔
主
▁乃亩伭
▁于伓
▁俆亖
▁俛
▁乷仐乃仲
▁伣侥
▁亪仹
▁伴
▁丮二乬
▁久促
▁乸串
▁亹乚且
▁侷于万
▁但仍俓乔
▁仜仪么乔
▁丁乷亍丁丅侲
▁侯企
▁乷仐伓仑
▁俖丧丁乷
▁仺佩乣
▁亦事专丷
▁亹且乷
▁体乷丸体乷丷
▁佥乃乆今仑
▁亊丮乱佽
▁“
▁亦伫
▁俦
▁从乶丁丅侲
▁仜丆乆么侰
▁体人侰
▁乃丽个亢份
▁俖亡侲
▁丮个仑丁仵
▁仂仍俓乔
▁九
▁二丱伱
▁侤乃丽仝
▁亲侲
亄
▁j
▁体仑且
▁份不且
▁亹个丁俓
▁丮们伹
▁丅伱
▁乆事佷
▁侍乃丹
伳
▁乣仏
▁乀仑
▁乾乨丁中
▁仧
▁丿伇
▁丶乒
▁価乷乷乷人
▁仜仓佤乔
▁丐仏佷
▁仑体仑
▁丶亼丆为乔
▁仞
▁伕亊亶乔
▁乣乷仳份
▁们乃丽
▁仑伴
▁乣串乤予乓
▁亊伎丙丘乣
▁乃
▁乷举中
▁但举亟
▁侇侚
▁丮乃乆么乃丽
▁<
▁亦中丁丑专乘
▁丁乷伭乒
▁侣举中
▁伕事丁伮丱
▁事乱
▁事亂乷
▁俤乀云
▁佨乪乌份
▁伧下伱
▁仐丘侠
▁丐中丁乷中
▁丝丶举中
▁亊丠
▁仜侍为乔
▁仧世乔
仳
▁価亏
▁井乆丆伯丁
▁乃亩
▁且仑且中也
▁伕亱亱仑
▁亏
▁丮乹俓
▁伕亷丰云
▁事佁
▁佒乩乆仑亟
▁亊亼亼仚
▁乃丽个个乪
▁亹
仕
▁仜乾仑
▁仜于亘乐
▁価件
▁侸伭
▁丁乢乱
▁乸乆亱亏
▁侲乴
▁事乷丅乷
▁乆丆世俀仝
▁伕佻佾
▁侕伫
▁但事侪
▁佾仑丁仵
▁亦侕亇乯
▁亦世乔
▁乷仐今丁
▁事侸伭
▁世丁丽乓
▁仜佤仼
▁仜亖么乺
▁侺乥么丹
▁乿乣乤专上
▁于仞
▁于亷丱为乔
▁侺侵乱
▁価亗乷乯
▁佒佝
▁仜亂丹
▁γ
▁仜伯
▁→
▁亩乓
▁侕乑丆
▁七仑丷
▁佻佾
▁但亠丅
▁书侲
▁侺乽
▁仜业个乪乙丐仏
▁伕伧丁仹
▁侣为乔仚
▁仺丠
▁伕何
▁伜丁乷伭
▁佭乒
▁丨乣乷份
▁±
▁七仑
▁丆伓
▁乥
▁佒为乔
▁仜亷仑
▁丧二乹
▁仜乾乷
▁仃丅伙
▁亹仝
▁伃休侲
▁侭任
▁丮佱乒
▁俆伭
仾
▁丗书
▁亊丯丯乣
佖
▁乹乪丠乷
▁们乩
ょ
▁乃丮亂丆
▁事亢
▁佾乥乷亍亀
▁丙丁丅侲
▁q
▁丱中乷
▁仌丗乷
▁以乑乪
▁価们伹
▁価亂乷
▁佥且伲企
▁丗乷
́
▁亩亩今丯
▁但仑也
`
▁仃乒侑
▁丮
▁伕侨丁丅侲
【
】
ヌ
▁乷且乨侲
▁亊侣
▁亰
▁侣中丁伹
▁仜乷仏
▁仌乃丽
▁*
▁伕俍亭
▁伕佦串丏
▁α
▁亹丰乘
▁仑佂
▁仡仝
▁伕侚
▁仌乩丯丯
▁于乺乒
ヶ
▁価佋乺
▁伕他
▁佾丬仴
▁亹三
佸
▁伕仌仑乪
▁仌且乷
▁乥伍
▁佱乒
▁侭
▁例丩丁乷丁丱
ゅ
▁乤伧下
▁乹且乔
▁丮什
▁亲仮
▁但乆乷丷
▁亹丅乩乷丧乷
▁仌伴
▁伕仍乷乷俓
▁佧乔侠
▁于亘乐
▁丯乣乷侤
▁伕乨七么乺
▁価侧乆
▁侠
▁丿伵
▁亜乔乓
▁亦亠佋亟
▁但俓
▁乀乘
▁佡人
▁俖
▁侜份
▁乔
▁伕亲侲
▁仪些
▁丁佋
▁俞
▁仑乑乷
▁侲优伶
▁亊乙丐上
▁丠丁丅侲
▁乕乔
▁佽
▁亜乃丽
▁伕今专
▁仜仌中丁乷
▁俓任
▁专举丯些
▁侺于万
▁}
▁{
▁亦丿七仑
▁了丆之丆
▁事
▁俤佤
▁侕亊伅乷
▁価乿二仏
▁亲亃
▁価仙
▁乃丱
▁侺侔
▁且仑且亗乷乯
▁侕伭亷丱
▁仜丠
▁仂亰乆
▁亹亹伛
▁侇亹伪
▁仑丿伵
ぜ
θ
▁乓乷人
▁侟
▁佾亿丁
▁丑仐侧
▁仜仑乀业
▁仪么企亃
▁‘
▁从乐侕
▁乃丏
▁佒乷乷乷乹
▁仰
▁伕个丁俓
▁乿中丁亻
▁乤
▁佋伓
▁伕从亠丅
▁侩佄
▁俌
▁伕书义人
▁事丰
佌
▁亥伖乒
▁侺享
▁乧争企
▁乹仮仮
▁乓乷侲
▁仜例丶丶么侰
▁伃伈
▁且侤乱
▁俍佤
亦
▁久七仪乱乪
▁价丫丁丁
▁β
▁仜仪也乐
▁亴丘
Δ
▁亿乷
▁仜仑丁仵
▁丮乲侑
▁亊並乷
▁侇丧丁乷
▁于且乷
▁佧个丁侰
▁们俓丁丅侲
▁侗乪
▁于乿个仑亃
▁事串乘企
▁仌中人
▁丮亡么乷侲
▁侺亲仮
▁予
▁丅佁丁乺
▁伕于万
▁仃乘乷
▁乤俬
▁事亂乷丁丅侲
▁事优丰乇
▁侺乃丽
▁但乘
▁佾乀丶乐
▁佒个乪
▁侍佋
▁伕丹丆
▁仌仪亸
▁丮亸
▁仠
▁伲亴仑
▁佾也
丁
▁価乃乆么乺
▁仑亷丰伖
▁仮乆丆乐乔
▁?
▁乤仌中丁乷
▁伯
▁伕乃乆丧且乷
▁仌乃丏京
▁乿乳佾仝
▁二侈
▁佾亽
▁亭丆
來
▁些
▁丮体仑企
▁俆世专亞
▁^
▁乤仑丁仏
▁亀丁丅侲
▁侩
▁乚
侀
俯
▁依之
▁业个乪乙丐仏
▁亿丁从
▁伪仪么亇乯
▁伕为乔
▁俆佡仝乓
▁侂仞
▁体侭
▁仜
▁乘乬
▁书义
▁于万
伻
▁伕书
▁仮乨伧佧
▁俖伟
▁俐亇乯
▁侲仝
乹
▁伕亭仹
▁丁乷二
▁伕佼乷
▁乀
▁佾乃丽
▁丿伯似
令
▁伕丧丁乷
▁亊伎丙丘
▁伪侜
▁二仮乒乑
▁仑亲仮
▁估
▁俆丰乑
▁乱
▁伭侠
▁侺乥乷
▁井
丛
▁仅
▁俖亷仑
▁休侲
▁个伒仝
▁俤事佁
▁俩
▁伕优伶
▁亦乣串亃
▁仍乀乷仝侺
▁仌伧
乮
▁伪作
▁丿伵丆份
▁乿乃乣
ε
▁丅
▁乃侭仳
乣
▁仜乣乤严
▁丅丧侕乪
▁俖促
▁侟伭亷丱
▁二亙仮乣
▁他丁侲
▁仑丙丘
▁亊亼亼伣
乩
▁伕乙丧乡乓
▁侣乚
▁伭乣乣
▁侇丮乱
▁乷仐侟俓
λ
▁仑佄
▁伕于亷丱为乔
▁侓俊
▁丰
▁于
▁仮乍乔
仑
▁乃乆世亀丁丅侲
▁伕佴伭企
▁乩伛
▁俆
▁伃丁仑丁
▁伲侲
▁価乃仭
▁伕人仑丁
▁乣乤乱
▁亣
▁侟体
▁伣俓任
▁仐丙俓
▁中乣乷
▁丿伭任侖
▁価丧二乹
▁|
▁伕亷丱
▁丰乑侲
▁仺仹
▁佾俠
▁乥企
▁丁乲仐
▁伕仑丁仵
▁乿乣仏
▁『
▁』
▁亡丁丸么侣
▁仺仑亷丰伖
▁们仝乷
▁于万仑丁
▁伕丱中乷
▁伃体仑企
▁亹促
▁侣丹乔侠
▁伕丆侜
▁仜乀云
!
俆佮
▁侑
▁仪亱侶任
▁但中丁丑企
▁伃仓伲乔
▁仌专乘
ぬ
乱
习
亭
▁亹俓
丁乷亍乱
▁丮中丁伹
▁乃乷亟乫丆
▁仜乘
▁俆中丁乙
▁侸伭侟
▁乧仝
▁乆丆伭丁乷仁
▁仜二仮乒
▁伕且
乘串亃
▁伕侩
▁乷仑仑
▁亹丬丁丽
▁仺
▁乃乷么侪
▁亮乣乣
▁佒乙丧乡
▁份亪
▁侇佾乓
▁亮亭丙丘
▁从伧丁亟
▁丮乷
▁份乁之
▁伏乷亦
▁仌专举中
▁侺仺仹
▁乷乣
▁亮亭伌
▁业仑
▁今乷丁
侼
伷
▁侲丁乲仐
△
▁乥么丁但为乔
▁亮
▁乿佝
▁侺丠
份
▁乆丆俊
▁俆专乘
▁佾佨些
▁侈伭乭
▁乤于亘乐
▁伣丙丘
Ω
▁乥乷
▁世
φ
▁世佋亟丁丅侲
▁佾侪
▁亜乷
′
▁丮丗书
▁亹侥
▁価乃乷丧乷
▁亹众乡
▁于伮
▁侕且乷佾
▁仌乣串亃
▁仌仮乆亰伖
▁佾且乔
▁俍今乷丂
▁中丁伆乷
亹伪
▁伕乁丆乑伭
▁侇
企
▁乷丅乣
▁侬仝
▁亭
▁侪份
▁俤世乔
▁事企伱丠
▁佾乣乘之
▁产依亦
▁乤乪丠乷
▁乃丽中乇
▁丅伱丮丅丅丅万
▁俤二乬
▁丗乘俓
▁俖丁乢乱
▁伕二丱伱
▁俘
▁伪乩乆仑亟
▁乃丽个丐仏
佾
▁亹丢
▁伕二亩亩
▁仜事使乖伛
▁価乃丽
人
▁乤乃丹
▁侺仨丆
佋
▁俤个乺
▁但丅亰
▁仜仌伭
▁丙丘佋
▁仺伝人
▁仜乑乷
≦
▁仂伫
▁仌仑乩乓
▁仜丷仼
▁仜于且乷
▁佋份
乓
▁乷俓
▁亦仪亖企
〈
▁丮伏
▁伭么伫
仝
▁仜乀乷
▁丗乔
▁事丮丁佋
▁俖佧个丁伱
▁仜伣
▁乆侪份
▁乘佾业丘任
▁乁丆乑侲
▁丁伮企
▁価书
▁佨伛
▁亹个伒
▁価
伭
▁仮乆亰乓
▁伕侤
▁乺
▁佾佋伓
▁侲並乷
〉
▁亡么乷侲
▁佋仼人
▁丮丘侲
▁亮仸亭
▁乆侩乱份
▁中仼佾
▁俖侚亝
ω
▁伕乑丆丆人
▁乤仑丁
▁$
▁仜乔佷
▁伕佋丘仈
▁俛亡佾
▁伧丁些
▁亹乿专上
▁仌丁仌乡
▁伭乓
▁事丁仑丁
▁伕仑乀业
▁亹伢
乃
▁仡侗侳
▁侕份
▁伕丬仴
佀
▁亜丁乥
▁佧乔佾
▁乥乱
▁侺乥企
▁丱丯乷举中
▁伃併丱
▁乣仏佥乕
▁伕侟俓
▁仡佂
▁伝
η
▁丮乷丷
▁亹丗书佾
▁且仑且仮
▁么侣
▁仑仮伱
▁伕亠丅
▁亊伅乷
个
▁伕佨伛
▁佾事串书
▁亦丠乷
▁俬伙
▁丷仼
▁乩俓乱
▁事优丰乣
▁么丹
侶任
▁仜乆乡
▁今乷丂企
▁仜亰乆
▁佧乔乣
▁乷侈仁
仑丁
伿
▁仭
▁仂
亟
▁伲価俓
仦
▁仜乳佾仝
▁保份
▁乆亰乑
乓乓
▁伕事
举中
▁並仑且
▁佤
▁俳份
Φ
ζ
▁修侶任
▁仜丙丘
▁仍乀乷仝
▁个且
▁丅佁且
σ
▁亦份丗仮
▁侩亂乷
▁価亊侭串乣
▁&
▁仪亹亀
亴仑
▁仜中也乷
▁乾乷体且
乘
么
▁业但丁丅侲
▁侇伕
些
▁仜从乶
▁丁乩佷
ゥ
▁侕佋
▁个乩
▁侣事亳乷
▁仂事乱
▁个乪书义
▁乣二且
▁丮亢
▁亡么乷乣
▁佾个仑亃
体且
伲
伱
▁事串
▁仛伪
▁乪丠乷
▁份二亙仮
佧个丁伱
佋亩亩人
▁俊丁丅侲
伞人
▁亦亂丁佂
▁丠
俽
▁佴伭佾
▁仜亷佾仝
▁且今
乐
▁乷以乑乪
▁亊亼亼
乆丆
▁亜世专亞
▁乃乷么乷佾
价
仱
▁価亴仑
▁仂乆丆丼乡
▁丮乃丽仝
乀云
▁佷伭侠
▁丮亷仑
也乆
▁伕以乑侠
▁但
▁佾丿世乌
▁乫丆
▁伜
Σ
ν
伦
伔
τ
ρ
▁侕乚且
俎
▁侺俓
▁亊
东
▁乃丱丶亦
▁事伫
▁価丰乑
▁伃
亳
乙丧乡
▁丝串
▁乿且伲企
▁丮保
乃丱优仳
▁但何
▁乹亂
▁乃丽个仴
乷人
侒
▁仜事串书
▁仺侕亇乯
▁乷侶任
▁伜从
▁亡丧乷
▁倃侑
▁仑亴仑
▁亷仑
▁个丁俓乓
▁侖
▁乤丁仑丁
▁于亡佾
▁侺下丁乷
▁仑丁仏
▁们伹份
▁伕侣仨
▁乃丯丯且
侕
▁侣也
○
俷
俠
▁份
▁事久七亖么乔
▁仌企
▁仌仑仮
乃乷么
▁伕佋
▁丧二乹乒
▁伲侺乒
亢
▁亜亖么乺
ゃ
▁丮俦
▁侩乚且
▁们俓
▁乸乪企
▁丮乹
▁亮乄亭
佥乔
乀丆
▁仜亠丅
▁俖俞
▁侓仑乀丯丏
▁侇体
▁佴侪乒
丘
▁仺丁丅侲
▁乤丝仑些
▁仌么丁侪
▁佒侜
▁乣乷乷亞
▁侇丅佁丁乺
≒
▁久
侲
侹
▁乃乷亣亦
▁佷事
▁俖亇乷
俉
▁乤世乔
▁仌仑乩仑
▁伕伞
▁但乗
ぴ
专
丆
乸
乷
ヵ
二
亊
▁仌俊
仵
▁侩仢乷
▁体仑且亀
▁乣二且予
▁俩于万
丆侜
▁俖俓
乕乕
▁乕
仑丁乱
▁佧
▁仜佋
▁佦串丏乓
▁仮乆亰俩
▁事伛
▁仍伲么亇
π
▁久举丯伱
▁丰乑伱
▁亊亼亼俬
佝
▁伕事丁仏
▁伕仪亰
侤
▁俖乆乷丷
俓
▁亹亹
▁仑丁
▁伭乆乡
▁俍亂乷
▁亹佋
亞
▁侕仑丁侭
▁佴伺
乩丁丢
▁乷仐
▁丁乬乒
▁介亦
▁仌乣乘伱
于且乷
侅之
▁事串介
▁乺侾
▁伱
▁佾事亇乌
δ
仩
▁伃且併丱
仪丁丗乔
佡
▁佧乔
侜
中乷
▁下丁乷
侸伭
乒
▁_
事丱中乷
▁也乷
举
严
丞
下
三
▁伕佛
亡丁丷
乃乷亟
▁乃乆丧且乷仝
也
▁仌乘乷
▁事伮
亀
▁丮仑丁
▁们侟
▁乃丏企
从
仠
任
俈企亃
▁侣仨仑
▁伕乃乷亟
丁乷伭
▁乷仐乙丧乡
▁伕乩丆
伬乓
乩乆仑亟
今乬
▁俩乃乣
▁且乔侟
▁俖中丁乙
▁丷仼份
亀丗乔
▁佨
▁佔
▁亹亡佾
丅乣亝
▁佦串丏
▁亱亱侲
▁伏乷
▁亮丅伙
仝乬
▁亇
▁伕乀
乣乣
▁亜亠丅
伕
丠乷
▁乹份
▁乷丿丩丯乪
▁丮乁乍
便
倃
侗
亊伎丙丘
丁丅侲
▁佾乘乷
亩亩今丯
▁丮下丁乷
乆
丁丁
▁丝仌丗乷
中丫
▁俩享
▁体似
▁亦
並
丑
▁仌亊伎丣任
▁伲伃俓
▁亊亶乺
乢
▁众
井
亱
▁伭佾
▁仂亭
佷
且乷佾
▁丬且伪
乻丶丶丶丶
▁侺丅从亝
仒
仟
仹
▁仑俆专乘
乳丷
▁个乪
ψ
▁仜事串
▁伪俞
丙丘
▁佡
▁仜体
丮乱
▁也乒
丅乩
乷丠乷举中
▁们佾
▁亊伎丐企亃
▁亦丮乱
▁仌仑
▁仑伙
≧
▁侂
▁侓
▁侍
▁丮亲侲
▁俍乆乷丷
伭丁
佤
佄
▁仌但些
▁侇侂亷仑
丹丆
▁亣丅侠
但些
侏
▁丑
乃乷丧乷
》
专乘
丁丱
▁佒但乒
丕
▁侣丁乷伭
丁侲
▁仂乌
《
二乪
亩亩今
ヅ
估乔
亹
亂
乃乆么乺
▁专丸丁丅侲
中丁乷中
俱俓
佰
▁乷侤
▁亜仰仑
他
▁他企
▁亠乩
▁仜仨乷
▁他丁佁份
久七
▁丆依亦
▁亦保
▁伝人
乏
侰
▁但乒人
▁侺丰乘
▁乹乘串亃
▁仌乀侕
ぱ
▁仍乀乷仝俩
▁伕于
▁乷亡乣仁任
个丈
丗仮
乌
为乕
▁井乃亩
▁伲俏
√
▁丮侗侳
伝
▁但丶丗乺
丯丯
伭企
你
佚
▁乴
▁乆
侥
価
▁佾仑丁
仸乐伾
▁並
▁佾乓乓乓
使乖伛
▁仨
且
▁世亹亹
▁伕体
▁乆伉丅
▁俩乩丆
▁亹丳亭
乥
二乷
义乔
▁个乪丅乩乷丧乷
▁仌佤
你丁乷二
▁乃丏伪
▁乹亰乆
亠丅
▁伕佧个丁伱
▁価中专乘
们
仨
件
乥乱
▁価事丁仏
▁俆专伺
▁亊丆依亦
▁佾丧丁乷
▁佻佾份丗仮
依之
▁亲
乐侕
乃丽
串乷
▁亹乷
丨乣乷
▁亹仮仮
▁仜书义
▁亹丷仼
▁侕亊乣
▁伫
▁仌伕
▁伃丗乺
▁俖仆
▁亹丶丶亹
▁俬
▁俤
▁侺乃丱优仳
伣
伛
会
▁亦乀
▁乷亴业仑
▁伕侙
似
▁侺二伺仑
佯
体
▁亹丹
但
▁侵丝丶
亲仮
▁乗
侴
侔
▁仌仑乀丯丏
▁伕俱
促
丅乣
▁亹亀
俫
俬
俜
〔
〕
▁亜乕企
━
▁侓丱中乷
▁丁乷伭
▁仜乣丯丯
佦串丏
丹
丯
丧
丅
佦丱
▁丿伵乓
亣乓
乚
▁伡么丱优仳
▁乆侩乱
乸乷
▁事何
亝
享
亲
▁伃乆丆乐丶
亣仝
▁亣丅侠份
▁俏企
使仁任
中丁仮乒
▁丆剗仪
佩
▁仌仑乪
仿
▁久七乥
▁体且
▁仜乷
▁丮乲侲
▁也乷侈企
亴业仑
▁俖事丁仏
▁俖且併丱
▁亏企
乆仗乆仑
伅乷
▁俩乀乷
▁亹了之
▁仜伺二亱
▁俛丮侥
▲
▁乥乷二乷
▁価佱仝
▁从佾
▁仑仪么企亃
乙丁丅侲
▁丮专
侇
仇
乇且
▁乙丐上丁丅侲
▁乃乷亢
▁亹仑丁仵
▁仃乒任
▁事乨侰
▁丮他
乛
体侭
▁佒
▁佾乃丮亂丆
▁二乬
▁侇伕侤乱
▁但仪亖企
Γ
▁侲体乷
▁佛
且併
並乷
▁乃乷
▁事亭丆
▁伺二且佥乔
丼丁佷
伪
伯
众
▁伕他丁侲
丟乑
▁乾乵业
▁伪俀仝
#
▁伕伲乣二且
▁佦丱
▁体乷乒
▁亮亭
侵乱
佧
侖
佅
佇
▁仌丿伭任
▁伕从仼
▁仌仑乩乺
▁亹丝丶
伭仑
中丁丑
▁伕也
▁乷丌丁丱
亭丆
丁乷亍
▁伪丷仼
俗
▁亹亿
▁倃
▁仌丗乷企
▁伜伫
亜仝
佋乺
ぷ
丧丁乷
丠
▁仡
伉丅
▁佒中丁仮乒企
▁二亙仮
乨
乧
乡
ヴ
ヂ
事
产
▁乷之
▁乺仓伪
仅乷
▁亖乧乷乱
κ
乲乧
▁伃乃丏
゚
仚
仮
仲
▁侺仌丗乷
▁仜乣乤
▁仑侟俓
▁亹乣乤乣丁丷
倀
乣丁丷
乳京
▁佷伭
乔乣
佈为乔
▁仂乣乷仳
▁亹乪丠乷
÷
▁乀乷
↓
以乑
侧乆
▁中丁丑侲
▁亹乣乣
▁仐丘人
丗
▁二丆丰侺
伲依乱
▁侇俩
▁伕仜仨
仼丫
▁亦乆侪
▁佾
▁乿丁
▁伕仪
丅乷
▁並丁亟乔伪
乀
▁丯丁乷丯乒
仢丷
中伖
▁乧丢
▁于万乇
▁侉
伋
▁侯
υ
事侪
▁亡么乷仚
▁亹乃丷
▁価侤乱
▁亹仑也
▁伕世乣乣
佪
佗
乹佮
伭亷丱
乑
丧二乹
体仑且
侳
侻
倁
侉
▁佾丹
▁侕亊
▁亦促
佋丷
▁了丆之丆仪亢
俛
俐
丯丯且
俇
▁但乣串亃
乃乆丧且乷
▁们
▁乷丷
─
▁介
▁什
事佁
▁乷乷丁丢丁丅侲
▁佾书
仗乆仑
丁丽
▁乷乃仭
丮
丬
世
丈
七
个乪
▁乃乆世
▁乀亙乀亙俓
▁佷书
乺
乶
▁乩俓伭
▁乷仐丷仼
ヲ
▁価亂
▁侺伧下
亇
亜
亰
亴
亽
七亢
▁佷伞人
▁二仮乒任
亓互亷丱
▁亹以乑乪
▁伪中丁乷丯乷丯
乾乷
侕亇乯
云
丗乷
▁乷侔
乑乷
▁仌仑乩
仐
仰
仼
仺
▁丯丁乷
▁伭乥丐书丁乷乱
▁仐丘
乐丙亀
乷丷
▁乃乆么乺
▁乃乷么
▁事丁
▁丯丁
▁侇乧争
∈
侩乱
▁们伹
▁佥企
▁乸
▁佭佬
乷乷
▁佒中丁伆乷
▁亜丅乩乷丧乷
企伱丠
丿伵
▼
▁侇们伹
▁亜伙
▁価伲乣二且
▁侣众丁乪
丯乷丯
丶丶丶丶
乀乷
俀仝
乃丽仝
使乱伓
书义
佼乷
▁价丫
▁仜会
仌仑乪
▁丯丯乣
乣乤乣丁丷
▁乕乤丁丅侲
▁丮乆亰乌
串乣
例
▁伕仓伲乔
▁乹伝举中
▁乷乹佮
丵
仌伭
ぇ
丅侲
▁乥乷亍且乔
优仳
▁乃仲
▁乘乷企
亱侲
仑丁仵
▁伕从
乵业
▁侩侙
▁佒乁丆乑伭
▁井乘
仢乷
丁乷
▁佾亹中伖
▁仜乥乷
▁亜乃乺
ο
Λ
▁侺佄
▁亹俍侨乆
▁俳
▁俓
丰乑
亩亩
▁伕世
专丷
▁亦侣
▁仜佝
▁仺乀丆
▁亡么乷丷
亇乌
▁乀亙乀亙
▁乷丮乊个乪
▁丮乆仗乆仑
丽乒
两丄
乔
丁乥
伫
伮
伞
伊
伈
伌
▁事亇乌
▁仌丮
▁亦乆
□
▁丶
◆
俋
●
▁乃丽个
下丁乷
个伒
▁业
▁乔丆
併
▁丆
仑些
▁亮中亀
丝乷乷乷
亹么
今乷丂
▽
■
▁@
侶
侽
侣
侭
侩
侑
侐
侟
仪伇
▁併亠丅侠
且乔
▁佒伫
乪丠乷
▁众丁乪
▁仓伪
▁亴仑任
▁佷亂
▁乙丧乡
伓
◎
丁乷二
中丁乷
伺仑
俾
俳
俱
俶
俟
保
俏
俆
▁丿伭任侕亇乯
▁丑仐
体仑
▁乷丝乷乷乷
丱中乷
▁井乤丁伭丁伭丁
▁佾乓
▁佥乷乾丁
亇亇
▁俛丮
丧乹
▁你
▁仌俍侨乆
▁亩
▁二
▁了
不
▁佷侗侳
伯丁
▁仜事
▁于乷体且
▁俛乑万
▁俛乑丆
业仑
乣串亃
▁仜中丁丑企
伙
乬
乪
书
乊
乷丌
▁乑丆
▁侺価価井
▁亰乆丁丅侲
‐
