<unk>
<s>
</s>
▁倁个
▁_
▁倁丩倀倆丟下倆丟丩
ミ
▁丂個丂丂下下丂丂俿下下下下
丂下倁个
▁丟下丂下下丫倇丩丩
▁丂個下下丂個下下
▁剗剗丌丟丂丩下下下丂下
ζ
丟個下下下倕丫丩丩丩
▁俿下丠个
▁丟个下下丂丩丫丌丫倃丂俿下
倅個丠
下丂丟丩倀丂下丟个
▁丩丩丌丩丩倀下丂個丂下下丫丩
▁下下下丟个下下丟个
倁
▁下丂丟丩下丂
丟下下丂
▁丟丂個下丂下丟倏懺丩下下丂丟个
下下丂下丂俿丟丩
▁丩丩倀丫丩下下丠丩丂俿丟倏
▁丟下丂丟丩丂俿下丟下丂下
▁丩丩倀下倆
▁丠個下下丩下丠下丂下
▁丠个下倁丂個下下下丟丩
▁下丂丟丩丩丩倀
▁丟丂下丠倁个
▁下丂丂丂俿下下丟个個倏丩倓懻
懺丩丠丂倃
▁下丂丟丩丂個下下下
▁丂個下丂丌丩下
丟丂下丟丂個下下
▁俿下下下丂下丂個下下
▁下丂下丂下丟个下丂丂下下丌倁丩
▁下丂倁个
▁丂丁下倆丫丩倁个丂個下下下
俿下下倅丟丩
▁下丂丟丩丩下丟丩丟个
▁丂俿下下丂下丟倀倆下
▁m
倅丠個丂
▁剗剗丌懹倁下丟懷丟丟丟个
▁丩丫丩丫倀個丠
▁下倂倆丟丟丂丩下下下丂下
▁下丂個丠倃下下倔丠下丂
▁丂個下丂下下丂下
▁丫丂丩下下丂下丠個下下
▁懺懺丩丩丩下倂丂倏
▁下倆丌丂丁丂個下下下丂
▁丟下下下倅下丂
▁下丂俿下丂俿下
俿下下倆丟丩
▁丟下丂丟丩丂俿下丫丩
▁下下丂下丂俿丟丩
▁下倆丌丠倌丩個丠
下丟丂
▁下丂下丂丟個
▁下丠下丂丌丠个丟倏
倆丌懶丟丩
■
▁丟下下倌丩丟丠丩丩丟丠丩
Z
▁下丂丟丩下丂丟丩下丂丟个
▁丂丩丟丫倀丂俿下丟下下倆
▁丩丩丌下丂丟
懹丩下丠丂
▁丟丩下下倆丫丩下丂丩丩
▁倝丂下倆丂俿下
▁下下丠个
丩丫下
▁下下丂倂丂
▁丠個丩丌丩丩倀丫倃下丂下
▁丩丟丠丩剗下丠倏
▁懸丟丌丟下下丂下
▁丩下丂俿下倀亞丌丠倌丩丫丩丩丩
▁懹懹丟
▁丟下下下倅丟丂個下下
剗
▁コ
▁丟個倂丠丂丟個倂丠丂
▁丟懷丟丩
▁下丂下丫丠倆丩
▁下下下丠下倆丩
▁下丂丌丂俿丟丩
▁丟下丩丟下丩丩下丩丟下
▁丟下下下倅丟下下丠个
▁丂俿下丟丩丟下倆
丟下丟下丠个丟下下倆
▁丟丩丩個下下倅丫丩下丠倁个
▁丂丩丟丫倀丂俿下下丂下
▁c
▁丂個下下丟下丂下下
▁丠個丩丌丩丩倀丟倁丩個倏
丂個下下下丂
▁丂俿下下丂下丂
丟倁个
▁丩下丩丟下下丠丩丠
▁丂個下丂下下
▁丫倀下丠下下丂
▁下丂下丂個丠丂俿下
▁丂個下下下丂丟个下丟丂俿丟丩
▁丩丩丌丟倁丂個下丂下丫丩丩丩
▁丩丌丂丟丩丩丟下倆丩下丟个
▁丩下剗丂俿下下下丠个
▁丟下丂丂俿下丟下丠个
▁下倅倔丩
▁俿下丠丂個丂丂倆
▁丩丩丌丂個下下丂丂丩丟下
▁倝丂丠个丠丂
▁丟个個丠
▁下丂丟丩下丂丟丩
▁丟倁丂個丠倏丩
▁丂個丂丂下懺懺丩丩
▁倁丩倀倆下丟丂俿丟丩
▁丂個下下下丂丂下丟个倆倁丫丩
▁丩丫丩下丟个丟下下倆
倆倁丟个
▁は
&
▁下丫倀丩丌丫丩下丠下下倅丟个
▁丩丩丌丫倀
▁下丂丂下下丌丩下
▁”
_2
俿下下丫倀丫倇丩丩丟倁个
▁め
▁q
▁丩丩丌下丂個丠倃下
▁下丠倏丩
▁剗剗丌下丂
丠下丂
▁下丂個丂下下丫倇丩丩
▁下丂丟丩下丂丂
▁丂個下丂下個丠
▁丂個
丂個下丟丩
▁下丂丟丩下丂丂下丂個下丂下丫丩
▁下下丂丌下丂下下丂下
▁丠个下丩丫下丩丟下丠个
▁下丂丟丩下下丂
▁懸丟丌倀倆下
▁丟丠下丂丩
▁下丂俿下
▁丂個下下丟丩
▁俿下倅
懹懹丟
▁ピ
▁丠个下倅下丟丂俿丟丩
▁丂俿下丂下丂丌下倏
▁5
▁倁丩倀倆丟丟下丠个個丠
倁丩下丟丂個下下下丟丩
▁丩丩倀丂俿下丂俿下
丩倓懻下丠丠個下下
▁下丂丟丩丩丫俿下倕丂丟
▁丟個丟丟丫倇丩丩
ο
▁丩丩丌下丂下丂俿下
▁下丂個丠倃下下丂個下下
倂丂丂個丂丂丌丩
▁丩丟丠丩
丠倅丩下丩丟下丂俿下丠倏
フ
▁丂俿下丂下丂丌丟下下丠个
▁丟丩丩個下下倅丫丩丟下丂個丂
▁丩下下下丂個下丂個下下下丂丟个
▁下丂丟丩丟倓个
▁下丂丟丩丟丟丟
▁丂個下下下丂丟个
▁懺懺丩丩丩丠个下丂俿下
▁丟下丂丟丩丟丩丩丟丟丂個下下下
▁丠個丩丌俿下下倅丟个丩倓懻
▁丫倀
▁丩丌
▁丂俿下下丂下丂丟丂俿丟丩
▁丩倁丂丩倏
▁丩丩丌丟丂下丂下丫丩
▁下下下丂倕丫丩丩丩俿下丠个
▁丩下丫丠倆丩倁个
▁下下丂丌下下丂下丠个下倁
▁下丂丌下丟丂丩
下丂下丟丂個下下
▁丩下丠丩丌丟
▁丂個下丩丩丟个
俿下下倅丟丩下倂丠倏
▁丩丩丌下丠丟丂個下下倆丫丩
下丂俿下丂俿
▁下丂個丠倃下下丟个個丠
▁丩丩丌丟
丩丟丂個下下
▁下丂丂下丂俿下下下丂下個丠
▁下丂下丂丩倁懻
▁丟丂丟下個丠
▁下下下丟个
▁丩丫下丠個下下丂倆丫丩丩丩
丂個下下下丠个
▁丂俿丟丩丂丁丂俿下
▁下丂下懶丟丩下丠下丂丌
▁:
▁下倆丌倏
▁丂俿下下丂個丂丂下倁个
▁丩下剗下倅丟倏丟丂個下下
▁丩下下下丂個下丟下丂下下
丩丫下丩
▁丟下下
Γ
▁丂個丂丂下丫丂
倆倁丟个下
▁丂俿下丂丫個丂俿下丩倓懻
▁び
▁下懶丟丩
▁懺懺丩丩丩丩下丟個
▁下下丂下丠個下下丟倁俿下下倆
▁丂俿下丩下懺丟丟丩
▁下倆丌丟丂個下下下下丂倁个
▁丩丫下倂丠丂丠個下下下丂下
▁下丠下丂丌倔丠
丂丩
丫倀丩丌
▁丩丩倀丟倁个丂俿下
▁下丟丂個下丂丁丂俿下
下丂丂
▁下丂丌下倏
懶丟丩丂丂丩丫下
』
▁下丂丟丩丠个下丩丫下丩
▁倝丂丂個下下
▁「
▁丟下丩丟下丩下下下丂倕丫丩丩丩
▁丟丟丂下丂下下丂丌下下倆
▁丩丟下丂丟丩下下丂下丠個下下
▁下丂丟丩下丂下丂
▁下丂丟丩丠倔
▁丟下丩丟下丩俿下下下下丂
▁丠倌丩
▁丟下丩丟下丩丟丂下倆丩
▁丟丂丠个丟倏
▁丂丁丂個下丟丩
▁丩下丠丟丂下倆丩丂個丟丩丟丩
▁丟個
下下下
▁倝丂下丠下下丂
▁剗剗丌丂丂丂丁丩丂俿丟倏
▁丩丩丌俿下倕丟下剗个
▁丩丩丌丟丂個下下下丟個丫丩丩丩
▁下
▁丩丫下丂丂丩丟下
▁H
▁丩丩丌下倆丌丟丠下丂
下倂倆丟
丠個下下
▁丩丩丌丟下下
▁下丟丂個下丩丫下丂丂丩丟下
━
▁丩下丩丫下丠
倂丂丂倂丂
▁丩丩丌丟下個倂下丩丩
▁丩倓懻倌下丂
▁丟丂丟懸懹丩倆丫丩
▁下丂下丂丂個下下下丟个
丌
▁下丂丂下下下丟个下丂下
▁丂個下丩丫下下丠丩個倏
下丂丟个
▁下丂下丂下下丂下丂下下丂
下丂丂俿下丂
▁下丂下丂下下
▁剗剗丌丟倁个丩丩
▁丟下下丟个丂俿下
▁下丂下丂下丟个下倅懶丟丩
▁丂下丂下丂丫
▁下倆下丟丂俿丟丩
丂個下丂下懸懹丩倆丫丩
▁丟个個丠丂俿丂丂下
▁丟倅
▁し
▁丟下丩丟下丩下倂丂
▁丩丩丌下丠下丂丌丟丠下丂
▁剗剗丌個丠丂俿下
丫丩丫倇丩丩
▁丟丩
▁下倆丌丩下丠懹丩
▁下倂丂
▁丂俿下下丌個丠
▁下丂下丂俿丟丩
▁丩丩丌倁个下下丂
▁倝丂下丂下丫倃丟倁个
▁懹丩下丠丂
_
▁丩丟下下丂下丩丫下丂俿下
▁丩丟下下丂下丟下丂下
▁丟丂下懶丟丩
▁丩丩丌下下丂丌個丠懸懹丩倆丫丩
俿下倕丠丂
η
▁丩下下倂丂下丂丂下下下丂丟个
下丠下丂下丠個丩丌丩倓懻
▁下丂丟丩下下丂丟丩
▁メ
▁丩丩丌丫倀下倕下
▁下丠下下丂下
倀
▁丩丩丌下丂丂下丂個丂倂丂
丩丫下丫丩丂俿丂丂下
▁丠個丠個下
▁下丠丂個丂
▁丟丟丂丂倂丂下下丂丌丟下丠个
▁丂下丂下倂丂丟丩丠个丩倁丩
▁丂丩丟下丠倅
丌個丠
▁丟丠丂个
▁下倆丌丂丩丟剗
▁丩丟丠丩下丟丂個下下下丟丩
丫倃下丂下
▁丟個丂俿下丟倁丩丟倁丩
下丂個
▁下丟丂個下倂丂丂倂丂
丂個下下丟個丟丩倃
丟丩丩丟倀倆下
▁下丂丟個丂
▁ア
▁l
▁下丂下丂俿下
下丂俿下下丟丩丩
▁丠個丩丌懹丩丂俿下
▁下丂丟丩下丂個下丂丂下丂個下下
丟倓个
▁下丂丂丂俿下下下丂丟丩
▁丂個下丂下丫倇丩丩
▁丩下下下丂個下丟下倏
下丟倅丟个
▁丩丩丌丩丩倀丫丩丠个丂俿下
▁丟俿下丠
▁下下丂丟个
▁下丠下丟个丩
▁下丂丟丩下丠倁个
下丂下丂丂個下下下丟个
▁丟倁个丠倔
ぬ
▁ン
▁丫丂丩丂俿下下下下丫丩
丟倁丩下倂丂
▁下丟個
丩丟丠丩丩丟丠丩
▁丟倁丠個下丂下丂個下丂丌丩
下丂個下丂丌丩
▁丩丩倀下倆丩
▁丟丂下丠下丂下
▁丟丂個下下下丟
丩下丠倔
▁丠個丩丌丟下丂個下下丟倁个
▁懺懺丩丩丩丟丂丩下下下丂下
▁下下丠丩
▁丩下剗丟下丂丂俿下
▁丩下丠丩丌丟倁个丩丩
▁丂個丂丟丂個下下
▁下倕
俿下下丫倇丩丩
下丂丟个下
▁丩剗個丠
▁丟下倆丌懶丟丩
▁丂俿下懹丩丫倃丟倁个
▁丩丩丌丩丟下下下丂
丫倀倁个
▁下倆丌下丂下丂丂個下丂下
▁丂個下下下俿下丠
▁下丂下丫倀丠倏
▁下丂俿下丂丟个
▁丟下下丟个丂俿下丂個下下
▁丟倀剗個下丂俿下
▁丟下下丂
▁丩下丠丩丌倁丩丂個下下丂
▁丟下下丂下丂下丂下
▁俿下下
丂丩下下下丂下
▁下下
▁b
▁丠個丩丌丩下丟丂丟倁个丩
▁グ
▁下下丂丌丂個下下下丠倏
▁丂個丂下丂俿下丂個下丂下
▁下丟丂個下下懺丩丠丂倃
下懶丩下丂丌
▁下丂下丂
丩丫下丂丂個下丂丌丩
▁倀亞丌丩下懺丟丟丩
丂丩丟下
▁丩下剗下丂下丂下
▁下丂下丂丟倁
▁丂俿丟丩下倆丟
▁丩俿下丠
下丂俿下丂個下丂下
▁丟倓个
ま
▁丩丩丌丠倊倁个
▁下丂丟丩下丂丟个
▁下倆丌丟倅下懶下
▁懺懺丩丩丩丩
▁下丂個下下下丂丟丠下丂丂個下下
▁下丂丂下丂俿下下丂丟丂
▁下丂丌下懶丟丩丂俿下丌
▁丩下剗下下丂丩丫
下下倆
▁丟下下下倅丟個懹丩
▁下丂下丂下丠个丟丩丟丩
>
▁丟丟丂下倅個丠
▁下丟丂個下丂丫丩丟
▁下下丂丌
▁丟丂丩下丂俿下丫倀下倆
▁下倆丌丩下丠
▁の
▁丟倅丠丩個丂丩丟丩丩丟倀倆下
下倅下丟丂俿丟丩
懸丟丌
▁“
▁p
丠个個倏
▁丂俿下丠倏
▁丟丟丂丂倂丂下丠倅丟下丠个
▁丩丩丌俿下丠下丂個丩丌丫丩
▁丟俿下丠丩下丟個
▁丂俿下下下懹丩
▁丟丂下丂丂下丂個下下
▁下丂下丂丟丂個下下
▁下下丂下丟倁个
▁丠個丩丌
▁下丂下丂丩丟丂個丂丫丩丟下丠个
▁丠個丩丌俿丂下倏
▁丫倀丠倔
▁丂個下下丟个丫倇丩丩
丟下丂下下
▁下丟丂個下丂丩丟丠個丩丌
▁丟个下下丂丩丫丌下丂丟个下
▁プ
▁丂個下下下丂丟丩丟丠下丂
▁丩丩丌俿下下丂倂下個下下丂下
▁下倆丌丟倓个
▁丂俿下俿下丠下倏
俿下倕丂丟
▁丩下下下丂個下丟个懹丩
▁丩丩丌丟丠丟倅丟个
▁丩倓懻下丟个
▁下丟倁丩丂倆丩下丟倅丟个
▁ぼ
▁丫倀丟倅丟个
▁丂個下下下下
▁倀亞丌丟
▁丠個丩丌丂個下丂俿下
▁+
▁丟丩丩丟丫倀下丠倁个
▁丂俿下丂俿下丂俿下
倁个丂俿下
丟丟丂丟下丂個下下丟倁个
▁倝丂丟倁个下倂丂
▁丩丩丌丂個丂下下
▁丟丩丟下丂丟个倁个下下丂
▁下丂丌下丂丂俿下下下下丫丩
▁懸懺丩個
▁丩下丠丩丌丠个下俿下丠丂俿下
▁丩丩丌下丂下俿下下倆丟丩
▁丩丟丠丩丂個下丂下
▁丟丩丟下丂丟丩丂個下丂下
▁下倆丌丟丂個下下
▁丩丩丌丩
▁下倅下丟丂個下下下丟丩
▁丟下丂丟丩丂丫丩丟
▁倝丂丟倁个下丟下下丂下
▁下丂下丂丟
▁下丂俿下丂倂倁个下丂下
▁丟俿下丠丟丠下丂
▁下丂丌下丠懶丟丩個
▁丟倁俿下下丫倇丩丩
▁剗剗丌下丂下
▁倝丂丩丩倀下下丠倏
▁丩下丩丟下丂個下下下丂
▁倂丂丟下丠个
下懶丟丩下
▁丂俿丟丩丟個懹丩
▁下丂丟丩下倕
▁丟丂下丂下倓个
▁丟丂丩丫
下丂個下下丠个
▁丟丩丩丟下丂丟个
▁丩下剗丩下丟個
▁下丂個丠個丠個丠
丂俿下下下丂丟丩
▁9
▁下丂下丂丂個下下下丠个個丠
▁丩下剗丟個丂個下下
▁懸丟下
▁丂個下丂丌丩倁丩丂個下下丂
倂丂下丂丟丩
▁丟下下下倅下倆
下丠个丩
▁下倆丌下丂個下下丂丩
▁丟下丩丟下丩丩丩倀俿下俿下丂
下丟丂個下下下
▁丟丂丠个丠丂
▁下丂丟丩丟下下丂
▁丟下丂丟丩丂個下下
▁丂俿下個丠
丫丩
▁丩下下下丂個下丟下丂丂俿下
▁丩下下下丂個下俿下丠个
個倏
▁丂丂倁个
▁丩丩丌丟丂丩下下下丂下下丂
▁下倃丟丩
▁丟個懹丩
▁丟下丩丟下丩丟下下倏
▁丟丂下下丂下丂個下下下丟丩
▁下丂下丂丩下丩丫丫倀丂個丂
▁下丂個下丂丂下丂個下下丩倓懻
▁丩丩丌下倆丟丩丂個下下下
▁丩丩丌丂個下丂俿下
下倃丟丩
▁下丂丌下丟丂個下下下丟丩
▁丩丟丠丩丟
▁下丟丂個下丂個下下丂
▁丟个下下丂丩丫丌丟下下丠个
σ
丩下丟丩
▁丩丩丌下倆丂俿下
▁下丂丂下下下丫倃倃個丠
『
▁丟丟丂下懺丩丠個丩丌丟下丠个
▁下丟丂個下丩下丠
▁下丂俿下丂個
丂個下下丟個丟丟
▁下丟倁丩丂倆
▁下丂丟丩倔丠下丂
▁下懹倁下
▁丂俿下丠丩
▁下丂丌
▁丩丟下個下下丂丂丟个
▁下丂丟丩丟倅丠個丂
俿下下倆
下丂丟丩丠个倆倁丫丩
丂下下下
▁丩下剗下倆丩
丂個丂
▁下丟丂丩丂俿下
俿下下丂倂下個下丂俿下丂丟丩丩丫
▁下丂下丂下丟个俿下倏
▁丩下倃
▁O
▁丟下下下倅丂個下丂俿下
▁丩丫下丂個丠倃下下下倆丩丩倓懻
丟倁丩丩倀个下下丂丟丩
▁丩丩丌下丠下丂下下丂下
下懺丩丠丂倃
▁下丂丟丩下倂下下丂下
▁倝丂下丠倁个
丩丫丂個下丂丂俿下
▁下下丂下個倂下丠
丩下丠俿下下丂丂俿下
▁懺懺丩丩丩丟個丩
▁下丠下丂丌丟丠下丂丂個下下
▁丠倌下丂個下丂丌丩
▁下丂下丂倁倆倁丟个下丫丩丩丩
▁下丫倀丩丌丫丩丟丂丩下下下丂下
▁剗剗丌丩丩倀丟丂下丟丂個下下
丂個下丂丌丩
▁丩下丩丟丌
▁下丂丟丩丟丠
▁丩倁丂丟丩丂丩
▁下倆丌丟丂丩下下下丂下
▁丩丩丌丫倀丠倏
▁下丂下丂下丂下丫倃丟倁个
▁丂下丂丌下倏下倆丟丩
丩丫
▁丠個丩丌丩下
丩丩倓懻
▁下丂丂
▁丩下下下丂個下丩丫丂俿下丠倏
▁下丂個丠倃下下下下丂
丩丫丌
▁丂個下丂下
▁下下丂倁丩
下丂丌下倃
▁]
▁丩丩丌丂個下丂下丂俿丟丩
丌丂
丟下丟下下丟个
▁丟个
▁倝丂丩丫下丟懷丟丟丟个丩倓懻
下丂個下丂下
▁丂俿下丠个下丠個下下丂倆
▁下倆丌下丂下下丂丌丂丩
δ
▁丂俿下丂下丂丌丟個俿下倏
▁下丂丂俿下丟下丠个
丟下下丂倂丂
▁丂個下丂丌丩下丂丂下倂下倆丟丩
▁剗剗丌丟倁个丂俿下
下丂個下丂丂下丂個下下
▁下丫倀丩丌丫丩丠个下倁丩
▁下丠下丂丌下丂個丟丩丟丩
丩下丠
▁ム
丟
丟下下倏
下倃丟下下丟个倁丩倀丂下丟个
▁丟丂丂俿丟丩丂倆
▁下倃丂個下下
▁下丂丟丩倝丂下丠丠個下下
丟下丠倁个丩
▁懺懺丩丩丩丂個下丂下丂個下下倃
▁下下丂下丟
丠倔
丠丩丂個下下下丠倏
▁下丟丂個下丠個下下丠個下下
▁倀丩丩下丟个
丂個下下下丟個丟丟
▁下丂丟丩下丂下
▁丟下下丂丟丩下下丠丂
▁丩丩倀丟倏
下丂下丂丫
懸懹丩
丂個下下下丂下
▁丂個下丂俿下丂俿丟丩
▁丟下丂丟丩丩丟丠个
▁下丂丌丩下丩丟下丂個下下丠倏
▁丩丩倀丩丩下丟个
▁丩下丠丩丟下個下下丂丂丟个
▁丂俿下個丠丂倆
▁×
▁下丂下丫倃下丂丌丠倌丩個丠
下下懹丩
丟丂丩下下下丂下丂個下下下丠倏
▁丂個下下下丂個
倀丠下倃
▁倝丂丠个下倁下下懹丩
▁丩下丂個丂
▁丟个下下丂丩丫丌下丂
▁下丂丂下丂個下下
▁S
ね
▁丟下下下倅丂丩丟丠個下下
懶
丩下丟個丟下丠个
▁丟下下丂丟丩
κ
▁下丂下丂丫倇丩丩
▁丩丩丌下丂下
▁丩下丂個下下下丂下丟倅丟个
丩丌丫丩丠個丩丌
▁丩丩丌丂個下下懶丟
▁丂下倀丠下倃丂個下丂下
▁丟丂下丂丂下丂俿下下下丂下
下丂俿下丂俿下丂俿下
▁下丟丂個下丟
丂丟下丩丂俿丂丂下
倍
丟丂
▁下倆丌丩丩倀丫倃下丂下
下丂丂下丟丂丩下下下丂下倁个
▁下丟丂個丂丂
▁下下丟倀丟丩下倅倔丩
▁下丂個丠倃下下丩
▁下丂下懹丩
▁下下丂丩丫
▁丂俿下丟下丂下
▁丠個丩丌丩丫丂俿下丠倏
▁丂個下丂丌丩丟
▁俿下倕丩丫丂個下下丂下
下下
▁下丂丌俿下丠倂丂丂倂丂
▁丩下下下丂個下丟丂下丂下倓个
▁下丂丂下丟個
倂丂丟丩
丠倏
▁下下丂丌丂俿丟倏
▁丩丟下下丂下丟个丩個下下倅丫丩
▁丩倓懻丟下丂下丠倏
▁下倆丌丟丩丩丟下下丠倁个
▁ケ
▁a
▁丩丟丠丩下丂丂下下下倆丟丩
▁丟丂丩下下下丂下丂俿下
▁丟下下下倅下丂丂下丂個下下
▁下丂丂下丂俿下下丂丂
▁丩丩倀丂俿下下下
▁下丂丟丩丟个下下丂下
▁丩丩丌
懸丟
▁丩丩丌丩丫下丫丩丂俿丂丂下
▁俿下下下下丂倓个
▁下丂個下丂下倂丂
▁下丠下丂丟丩下丂丟丩丂下丂下
▁丟下丩丟下丩丟下下丂丟丩
丁丂俿下
▁下丂下丟倀亞丌丟下丠个
▁丟丩丩丟懸丟下
▁下丂俿下丂倂倁个
▁ツ
丂個下丂下
▁丟丂丂個下下丂
▁丟丩丩丟懷丟丟丟丂個下下丠倏
▁丂丁丂個下下下倆丟丩
▁丩丩丌丟倁个下倆丫丩
▁丩下丠倁丩丫丫个下下丠倏
▁丂個下丂丂下下丂俿下丩丫下
▁丟下下倏
▁丩倁丂丩丂個下下下丠倏
▁丟下丂丟丩
▁丂丂丩丟下丩丫下下丂
▁下倆丌懹丩
丟丟
^
▁丠个
下下倅
▁下倆丌丂丌丩丠丩
▁丟丩丩個下下倅丫丩丟倀丠个
▁下丂丟丩俿下下倅丟丩下倂丠倏
ヅ
▁丟个個丠丂俿丟丩
▁w
▁丩丩丌丩丫下懸懺丩懸懺丩
▁下丂丌倌丠丩丫倇丩丩
▁わ
丩丟丫倀
丫倀丩丌丫丩
▁下下丂下下丠丂
丟丂下丂下
▁下丂下丂下丂下丟丂個下下
▁丩丩倀丫丩丂俿下丂俿下丂
▁丟下丂丟丩丠个下倁丫倇丩丩
丂丂丩丟下
丠个下倁丩
▁丩丫下下丠个
▁丂個下下下丂下丟个
下丂個丠倃下
▁丠個丩丌丟丂個下下丠下丂
丩下丟倅丟个
丫倀丠倏
▁ブ
▁丩丩丌丩下丟个丠丂
丟倏
丩丟下丠倏
▁下下下丂倕丫丩丩丩
▁下丂丟丩倁丩下倆丩
▁下丂丂丩丟下丫倇丩丩
▁倀亞丌
俿下下丂下丟个
▁丂俿下丂丫倀丠個丩丌
▁下丂丩
丂丩個
▁下丂丟丩丂丩丟丠個丩丌
▁下下丂丂俿下
下倆
▁俿下下丂倂下個丂個下下
▁懺懺丩丩丩下丂個下下丂丩下倆丩
▁丟丩下丂下丂俿下下丂個下下丂丩
▁下丂下丂丠下下丌丂下下下
個丩丌個丩丌丟丂丩下下下丂下
▁丂丫丩丟
▁丩下丠丩丌丠个個倏
▁丂俿下丩丟下丂丟丩
▁下丂下下下懺丩丟丟丟下丠倁个
▁丩下丠下丠倏丟丩
▁丟下下丟个下丂下俿下
▁丠個丩丌丟丠丟倅丟个
▁丂個下下下丠个
▁俿下丠丂
▁丩丩丌倁个
▁丩下丟個丟下丟倅丟个
▁下倆丌下丂丂下下下丩丌丫丩
▁丂俿下丂下丂丌下懶丟丩下
▁っ
丂個下下丂
▁倝丂
▁下倆丌丫倀下丂個下下下丂
▁丂俿下丂個下丂丌丩
▁丂個下丂丌丩丂俿下丂個下下倏
▁丟丂丩下丩丫丫倀丩下丟個
▁丂丩丟丫倀丂俿下丂個丂
▁丟倅下懶
懸懹丩倆
▁下倂丂丂丫倀丂個丂
▁懸丟丌丟倅下懶丂個下下
▁倔
▁丩下剗丩下丂丂丩丟下丂個下下
丩下丟個
▁丂個下丂丫倇丩丩
下丂個下下丂丟个
▁丟下下丟个丟下丠个丠丂
5
▁俿丂下倏
▁ヘ
▁下丂下丂下丠丂倀倆下
▁下丟丂個下下丂個下下丠个
▁俿下丠丩丫丂俿丂下丩丫丂個下下
▁下丠倁个
▁丟下下下倅丂丁丂俿下
▁下下丠倅下丟丂個下下下丟丩
▁懺懺丩丩丩丟个懹丩丫倇丩丩
▁丫丂丩丩下丩丟下丂個下下
▁下倆
▁丫丂丩下丠丂個丂
丩丫下丂倂丂
▁下丂下丂丂個下下
▁俿下倕丂
▁下丂下丫倀下丠倔
▁丩丌丂下丂下丩下丟倅丟个
▁丠丂丂下丟丂個下下下丟丩
丩丩倀个下下丂丟丩
▁8
▁下下下丂倕丫丩丩丩丟個丂俿下
▁下丂個丠倃下下下倃丂個下下
▁丟丟丂丟倁丂個
▁丂丂倁个丠個下下
▁下倆丌丩下丩丫丂個下丂丂俿下
▁丟个丩
▁丂丁丂個下下下丂
▁丫倇丟丩丩
▁懺懺丩丩丩丂個丩丫下丩下倃
▁倝丂丂俿下下下
▁丩剗丟丩丩丟丟下下丂倂丂
▁丟下下下倅下丂下
▁丟丠下丂丂俿丟丩
▁丩下下下丂個下
▁下丂下丂丂個下下下丠个丂個下下
下丠下下丂
▁丂個丂丂下下丂下丟丂個下下
▁下丂下丂下丟个
▁下丂下俿丂下丠
▁下下丠个丂個下丂丌丩
◎
▁丟丂丂個下下丂個丂丌丩
▁下丟倁丩下丂丂俿下下下下
▁下丟倁丩懹丩丂俿下
▁丟丂個下下下倅丩丩倅丩丩懶
▁下倆丌丩丩丫丫倀丂個下下下丠倏
▁個丠丂俿下下丂剗下
▁剗剗丌下丂倀丩丩下丟个
▁丟丟丂倀丠丂倁个
下丂個下下
▼
▁下丂下丂下丠丂俿下丫倇丩丩
▁倁丩下丂丌下丟丂個下下下丟丩
▁下丂丌丟丠下丂俿下
▁丟俿下俿下丂
▁俿下丠下丂丂俿下丂倆
▁丩丩倀丟倁丩個倏
下丂俿下倆丫丩
▁下丂個丠倃下下下丂下丟倀倆下
▁懺懺丩丩丩下丂俿下丂丟个丩丫
▁N
▁丟下丂丟丩丩丫丂俿下丠倏
|
下下丂下丩
丩下丫丩
▁丩丫下下丟个丩倓懻
丟下丂丟丩丂個下丂下
▁丂俿下丂下丟个
」
▁丂俿丟丩丟下丠个
▁丩丩丌下下丂下丠個下下
▁丩倁丂丟丩個丠
▁下丟丂個下丫倀丠丂丩下下下丂下
▁個倂下丂丂個下下下丟丩
▁丩丩丌丂俿下丂個丟丩
▁丂個下下下
▁丂俿下丩下丟丩丟个
▁丟倁丂個下下下丟丩
丠丂俿下
▁下倆丌丟倁丂俿下丠个
▁倂丂丂倂丂
懸丟丌丟下丠个
丟下丠个
▁下丂丟丩下丂丟丩下下丂丟丩
▁下丠下丟個個丠
υ
▁丩丩倀丫倇丩丩丂俿丂丂下下倆
▁個丠丂俿下
▁丟下下下倅丩丫丂俿下丠倏
▁下下丂丌下下丂下下倅下倏
▁丂俿丟丩丂俿丟丩懸丟下
下丟倁个
▁下丂丟丩丩
▁丂個丂丂下丂丁丂個下下下丂
▁下丟倁丩下懶丟丩下下
▁剗剗丌倁个下下丂
▁下丂丌丩下丠倔
丟丂丩下下下丂下丫丩丩丩
個丠丩
▁下丂倀丩丩下丟个
▁丂個下丂下丂個下下下丟丩
▁丠个下
▁丂俿下下下丠个
丠个下下倆丫丩
▁丟下下下倅丂俿下丂俿下
丂個下丂
▁丫丂丩下丠
丌丟下丠个
懶丟丩
▁丟丟
▁丂個下下下倆丩
▁懹丩丠個丩丌下倃下倏丫丩丩丩
ε
▁丟下下下倅丠个丩倁丩
▁丩下丠俿丂丂下倀丫倇丩丩丟倁个
▁丂俿下丟丂丩下下下丂下
▁下下下丟个丂個下下
オ
▁下倆丌丠倌丩下丂下
▁さ
▁丟丂俿下下丫倀倁个
ぜ
▁ャ
▁丩下丟丩丟个
▁下丂個下下下丂倔丠
▁丟倁丠個下丂下個丠丟下下丂
▁下丂剗下
▁丟丂丟下
▁下俿下丂下懸丟下
▁丩倓懻丩下丟丩
▁俿下倕丂俿下丂個下丂丌丩
▁倝丂丟倁丟丂個下下下
ン
▁下丂下丂倁个下丂下
▁下丂下丂丂個下下丠個下下
▁丂個下下下丟丩下丠倁个
▁丟倀剗丟下丂個丂
▁丩下丠丩丌丟下下丟个
下丠倅丟下丠个
▁丂俿下丂下丂丌俿下下倅丟个
丩丫下丂俿下
▁懺懺丩丩丩丟倁个丂俿下
▁剗
▁懺懺丩丩丩倂丩丟下丂丟丩
▁丫丂丩丟下下丂下
▁丠个下丠個下下丂倆
▁下丂下丂懹丩丂俿下
▁下下丠丂丂倆下丂下
下下丂丟丩下丂丂下丂個下下
▁丫丂丩下丂丂俿下下下下丫丩
▁丂個下下下丂下丫丩丩丩
下懶丟丩丂俿下丌
▁丂個下下下俿下倅下懶
▁R
丠丂倃
▁下下丂丌下倆丩丌丟个
▁下丂丟丩下懶丟丩下丠丂
▁丟下丩丟下丩下丂下下倆丩
▁懺懺丩丩丩下丂下丟丂個下下
▁丟丂丟俿下丠丂個下丂丂
▁丂俿下下倃丂俿下丂俿下丂俿下
λ
▁下丠個
丟丠下丂
▁丩丩丌丠个下下倆丫丩
▁剗剗丌俿下下倆倁丫丩
下丂丩丫
▁下丂丟倔
▁下丂丌丂個下下下丂下丟个
▁下倆丌下丂下丂丠个下丂俿下
倁个
下下丟个
倌
倍倍
▁下丂俿下丂倂倁个丠個丩丌
▁倝丂俿下下倅丟个
丟下丠丂俿下
▁丟下個倂下丩丩丟下丠个
▁丩丩丌丫倇丟丩丩
丩丩丩倀俿下俿下丂
▁丟下下丂下丂下丂丌倝丂
▁丩丩丌下下丠丩下下丠丩丂個下下
▁丂個下丂下丠個丩丌
▁下倆丌丂個下下下丟個丟丟
下倆丩
▁丟丟丂丟下丂個下下丟倁个
▁下丟丂個下丂個下下下下倆丩
▁下丂丌丟丂個下丂下丟倏懺丩
丟倁俿丂下倏
▁丟下丩丟下丩丩下
▁丫丂丩丩丫丩倂丂丟丩
▁丩丩丌丂個下下丂
▁懺懺丩丩丩下懹丩下丂丌丟下丠个
▁丟丂丂丟下丠个
▁下下丂丌個丠下丟个
▁丩丟丠丩下丟丂俿丟丩
▁下倆丩
丂俿下丂俿丟丩
懸懺丩
▁丩下剗丂個下下下丂丟个
Ω
▁懺懺丩丩丩個丠丂俿下
▁丩丩倀丫倃倔丠
▁丂個下下丂丂
▁丂個下丂下俿下俿下丂丩倓懻
▁懸懺丩
▁丟丂倁个
▁丟倁丂個丠倏個丠
▁丟倁丩丂丩
▁丂個下丂下丫倀丂俿下下下
▁丟丩丩個下下倅丫丩丟個俿下倏
゚
▁下丂丂下下下丫丩丟丠下丂
丩下丩丟下丂個下下
倆倁
▁下倆丌丂個下下
▁丟丟丂丟丠下丂丂個下下下
▁俿下下丩丟丠个
丟丂丟丟个
▁丂個丟丩丟丩
▁倝丂下倅下倏丟丂個下下
▁丠個丩丌下丂個丂
▁丩下剗下丂俿下丂俿下
▁丟个下下丂丩丫丌丠个下倁丩
▁下丂丟丩
▁下倆丌丟倁丂俿丟丩下丟个
▁$
▁v
▁丟下下倌丟丩
丌丩
▁れ
▁下丂俿下丂丟丩丩倓懻
▁倝丂下丂個下下丂丟个
▁丂個下下丟倀丂個丠倏
▁丟丂丩下下
▁丩下丠丩丌俿下下倅丟个
丂丁
▁丩丌丂俿下丠倏
▁丂倂丂丩倓懻
▁丂丂丟下丩丂俿丟倏
▁下下丠丩下下丠丩丂個下下下丟丩
▁倝丂丟倁剗丫倇丩丩
▁俿下丠下丂丂下
丂俿丟倏
▁丩丫丩丂個下下下丂丟个
▁下丂丟丩倁個丟丟
▁丠個丩丌下俿下倕丠个
▁丩丩丌下丂丂下丟个俿下倏
▁下下丂丌下丟丂丩
丠倅丟下丂下丠倏丂俿丟丩
▁丟丟丂丟倁丂個下丂
°
▁丩丟下丂丟丩下丂丂俿下丠個丩丌
▁下懶丟丩丂俿下丌丫倇丩丩
▁丂俿下丟下倔
▁丩丫下丂個丠倃下下下倆丩
丟丂下倆丩
▁丩丟下丂丟丩丩下丠
▁俿下下倅丟丩下倂丠倏
下下丂丩丫下
▁ド
▁丩下剗丟个懹丩
▁)
▁丩丟丠个
バ
▁懺懺丩丩丩丩下
▁剗剗丌丂俿下
丟下下丂個
丩丟丟丂個下下下
丂下下丌丟下丠个
▁丩丫下下丟个
▁丩俿下下倅丟个
▁丂下丂下丠個丩丌
▁下丠懶丟丩個
▁丩倓懻丟下丂
丟丩丩丫丩丩丩
▁倁丩下丂丌下丟丂俿丟丩
▁丂下倀丠下倃丂丂丩丟下
▁丩丩丌丟倅丩個丠丂個下丂下
俿下丂個丂
▁丂個下下丟個丟丩倃
▁丩下
丁俿下
下下丠倏
丫倀
▁下丂丌個丠
▁丟丟丂丠个下下倆丫丩
丩丩倀俿下俿下丂
▁下丠個倅下丟丂俿丟丩
丟個丂倆
俿丂丂下下倕丫丩丩丩
▁下丂丌下丟丂俿丟丩
▁丩丩丌丟丂個下下下
▁下丟丂俿丟丩
▁丟下下下倅下丂個下下丂丩
▁丂下丂丌下倏懸懹丩倆丫丩
丟下丂丫丩
▁下丂丂下丂個丂丂下丫倀丟倁丩
丟丩丩丂俿下丂俿下
▁丟下丌丂
倀丠丂
▁丫丂丩丩
▁下倆丌懹丩下丠个丟丟丟
▁丠個丩丌丟個丟丩倂丂
▁丟丂倀倆下
▁下丂個下下下丂丩下丟丩丟个
▁丟丂個下下下丟下倆丩
▁下丂下丂下丟个丟倁剗
▁丩丩丌丂個下下丟個下倃
▁ば
▁丩丟下丂丟丩個丠丩
▁丟丠個下丩丩丠倊倁丩丂俿丂丂下
▁丩下丩丟下丂丟丩
▁?
▁下倆丌丩下丩丟下懸丟下
▁丩下丠下丠下下丂
丟丂個下下下丫倇丩丩
▁丠個丩丌下丂丟丩丠个倆倁丫丩
▁丂丩個丩丫丂個下下丂下
▁丩丩丌丟丂個下下
▁下下丂下丂個下下下丟丩
俿下丂
▁丂俿下丂下丂丌丩下
丟下丠个丂俿下丂個丂俿下
▁丂丫丩丟丂個下下下
▁丟丂丟倅個丂
▁下丂個丠倃下下丟下個倂下丩丩
▁丟丟丂下丂下下倆丩
▁丩丩丌個丠丩丩
▁丠個下下丩下倂丂丟丩
▁下倆丌下丂下下倆丩
丠懶丟丩
▁下丂丟丩丟丟丂下下倆
丟个丩個下下倅丫丩
▁丩下丠俿丂丂下下倅下倏
▁丩丩丌倁丩丂個下下丂個丠
▁丩下丟個丟下丟下下丟个
▁丟丠個下丩丩
▁丩下丩丟下丂個下下丠倏
下丂丟
丂個
▁下下丂下丟倅丟个
▁下丂個下下丂丟个
▁丟下丂丟丩下丂下丫倃丟倁个
▁丩丩丌丂
▁倝丂丠个下丩丫下丩
▁俿下倕
▁丟丂丠个下丂個下丂丂
▁下倆丌丂個丂下下
▁丩下下下丂個下下下丂丩丫
▁丟下下下倅丂丩丟丂俿丟丩
▁丩丩丌丩丫下倂丠丂丠個下下
▁剗剗丌丩剗丟倁个下下丂下
≧
▁丟下丩丟下丩丠个下丩丫下丩
▁う
▁丩丌倆倁丟个
▁M
▁丩倁丂丩下丂俿下丂個下丂下
▁下倆丌下倅下倏
▁懺懺丩丩丩丠个下下懹丩
▁下倆丌下下丂丟丂個下下下
▁丟俿下丠丂俿下
▁丩丌丠個下丂下丂俿下
▁下丂俿下丂倂丟
▁懺懺丩丩丩丟倁个丩丩
▁丟下丩丟下丩丂
▁俿下倕丠丂丂個下下下丟丩
▁丩丩倀丟丂下丂下丫丩
▁丂個下下丂下丂俿下丟倅丟个
下丂俿下丂個丩丫下丂
▁丟个下下丂丩丫丌下下下丠下倆丩
▁丩丟下下下丠
▁懸丟丌倝丠
▁丩下下下丂個下丩下
丩丩倀下下丂丟丩
丗
▁丂俿下丟丂個下下下下丟丩丩
▁下下丂丌下下丂下
丩丌
▁丩下下下丂個下俿下倏
▁丟倁丂個下丂下下
▁下丂丟丩下倕丂俿下倁丩下
下丂丟丩
▁丟丩下
▁丂個下丂丂下下丠下下倅丟个
▁下丂丟丩下倆丟
▁丟丂丟
▁下下丟倀丠个丂俿下
▁丠個下下倁個丟丟
▁丟下下丟个下丂俿下丩丫下
下丂俿下
丟丠
▁丂俿
▁、
丟倁丂俿丂下丟懷丟丟丟个
▁丟丂丩下丩丟下丂俿下
▁下丂丂下下下倆丟丩
▁下倆丌丟丩丩丟下丂丟个
▁丟個丩丌
個丠
▁丟丂俿丂丂下丟丂丟丟丟个
▁丟下丂丟丩丩下丂俿下丂個丂俿下
▁丟下下下倅下丂俿下丂個丩丟下丂
▁丫倀下下丠倏下倆丩
▁丩丩倀丫倃下丟个丩
▁丟丂丂個下下丂個下下
▁丟丂丩下下下丂下下倆丟丩
▁ご
▁倁丩下倆丩
▁丩丫下
丂個下丂下下丂丂下丫丩
▁丩丠剗
▁C
丩剗
▁下下下丂倕丫丩丩丩下倂丟丩
▁丩下丠丩丌丠个丟丟丟
`
下下丟个下下倆
▁丂丂倁个懸懹丩倆丫丩
▁丠個丩丌下下丂
俿下丠下丂丂下丫丩丠倊倁个
倂丂下丠下懶丟丩下丂俿下丂倂
▁下丂下丂俿下丟倅丟个丩倓懻
丟下丟丂俿丟丩
▁丂丫丩下丂下
▁モ
▁丟个下下丂丩丫丌下倂丂倏
倝
▁丩下下下丂個下丩下懺丟丟丩
▁下丠下丂丌丟倀丠个
▁下倆丌丂俿下丂下丟个
▁丩下懺懹丩丫倀丟下下丂
倁丩倁个
▁丂下丂下丂丫丟下丟丂俿丟丩
下下丂丩
▽
丂個下下下丟丩
▁丩下下下丂個下丩丟下下下丂
▁下倆丌下丂下丟下倕
▁下丂下丂下丂下懹丩丂俿丂丂下
個丠丂俿下
▁丂倂丂下丟个下倆丂俿下
倂
▁丂個丂丂下丠下下丌丂下下下
▁丂丠丟下下丟个下下丂丩丫下
丫丠倆丩
▁丩丩丌丟下丂下丠倏
▁懸丟丌丂俿下
下下倆丫丩
丩倀
▁丟丟丂丂個下下下下倆丩
▁丂俿下丂下丂丌倁丩丂個下下丂
▁下丂下丫倀丠下倅丠倊倁个
▁ァ
▁Q
▁丩丩丌倀丂倏
倀亞丌
▁下下下丂倕丫丩丩丩丩下下丂下
▁下倆丌下丂下丟丩丟丩
カ
丟丠下丂丩
▁剗剗丌丟丂個下下丂個丂
▁丂倂丂丂個丟丩
▁丂俿下丟下丩丟下丩
▁丩丟丠丩丩丩倀丫丩丠个丂俿下
▁下倆丌丟下丂丂俿下
俿下丟倅丟个丩倓懻
θ
▁丟懷丟下丂丂下丂個下下
▁丟丂下倏
▁丩下下下丂個下下倆丩
倏
▁丟下下倌懹倁下倆倁丫丩
丂下
丫
丫倀丂個丂
▁丟下下下倅丩丟下下丂下下丠个
丩丟下丂丟丩
丟下丂下倓个
▁剗剗丌下懶丟丩下
▁俿下丠丂俿下丩下丩丟下下丂
▁下倆丌丟下丂丂個下下
下下倅丟个
▁丟下下下倅下丠个丩
▁丂俿下
▁個丩丌個丩丌丩下丩丟下
▁下下丂丟丩
▁下丂丂下丂個下丂下丫丩
▁剗剗丌丟個丩
下下倕
丂倂丂下丟丂個丂丂
▁丟下丩丟下丩丂丩個丂個下下
▁丠個下丂下丂俿下丩倓懻
▁丟倁丂個下丂下丌丩丟下下下丂
▁丩下丩丫下丠丟丟丟
▁下丟丂個下倔丠下丂
個丠倃
▁丩丩丌丫倀丫倃下丂丟个
▁丂丩丟丫倀
下丂下丂
▁倁倆倁丟丩倂丂
▁丩丟下丂丟丩丟个個丠
丟個丩剗下
▁g
▁丟丂丂個下下下丟丩丂倆
▁タ
丂下下丌倁个
▁丟個丩剗丂倂丂
▁剗剗丌下下丂下丂俿丟丩
▁丩丩丌丟個俿下倏
懸懹丩倆丫丩丫倇丩丩
▁剗剗丌丟下下丠倝丂
▁丩下剗下丂倀丩丩下丟个
▁懹丩丠個丩丌下倃下倏丫倇丩丩
▁丩倁懻
▁個丩丌個丩丌丟丂個下下
▁テ
▁下倆丌剗
▁下丂丂下丂俿下下丂俿丂下倏
下丟个丩
ぱ
▁下丂俿下丂丟丩
懹丩
ゼ
倁个倁个
▁丟个下下丂丩丫丌丂個下丂俿下
▁懸丟丌俿下下丫倀丂個丂
▁丂個下下下俿下下倅丟个
▁丩下丩丟下下倆丟丩丟丠下丂
▁丠个丩倁丩倝丂
▁丟個下下下倕丂倂丂
▁丩下丫丠倆丩
下丂個下下下
下丂下俿下
▁下丫倀丩丌丫丩丟个個丠
▁丂個下下丂丂丩丟下
▁下丂丟丩倁个
▁丟丂丩下丩丟下丂個下下丫倇丩丩
▁丠個下下丩丫丩倂丂倁个
▁倝丂丩下丟個
▁倀亞丌丟丠倅丩个
?
▁下下丂丌丟下下丂丟个
▁丟丩丟丩丠个
▁下倆丌下丂下下丂下
▁
下下下丟个下下丟个
▁丩丩倀丫倃下倂倆丟
▁丂個下丂丌丩
倂丂俿下
丂俿丂丂下
▁丩俿下下倅丟丩倝丂
▁丩丟下丂丟丩倀倆下
懸丟下
▁倔丠下倆丟丩
丩丩丩
▁丂丫丩下丠个
▁丟丩丩丟
▁丂丁下
▁丟丟丂下丂下丂下丟个
丂俿下丠個丩丌
▁丟丂
▁丟个下下丂丩丫丌俿下下倅丟个
下丂下丟
▁丂俿下下倕
下丂俿下丂丟个
俿下下倅丟个
下丠倏
▁ろ
▁u
下下倆丟丩
▁下丂丟丩丟下下丟丂丩下下下丂下
▁丩丩丌丂丩丟丠個丩丌
▁丩丩倀丫倃下倅個丠
▁丟丂丟倀倆丫丩
丂個下下下丂丠個下下
±
▁下丟丂個下丂倂丂下丠丩丟丠个
▁丂俿下下
丂丩丟丠個丩丌
▁丂個下下丟丩丩丟下下丠倁个
丂
▁丟下下倌
▁下丂丟丩下下下丟个下下丂
▁ト
丂丂下
下丂剗下
▁丟丂個
▁下下丠个丂俿丟倏
▁丩丩丌下丂丂下下下丫倃倃
▁丂個下丂下下丟个下倆丂俿下
下倕
▁丩丫下下丠丂
▁懹丩丠個丩丌下倃下倏
▁下丠下丂丌
▁丠个下丠個下下丂倆丫倇丩丩
丟倅丟个
▁丂個下下丂倁個丟丟
▁懹丩
▁ち
▁丩下剗倌下丂
▁下倆丌丫倀丫倃下丂丟个
▁(
倁丩丫丫个
̇
倅丩丩倅丩丩
▁丟丂丩下剗下丂下丟丂個下下
▁下丠下丂丌丠个下丠個下下丂倆
倁个下丂下
▁下丂下下下丂丟丩丟倀丠个
懸懺丩懸懺
▁下丂個丂倂丂
下丂丂下下丠下下倅丟个
▁下丂下丂丟丂下倆丂俿下
▁下丂個丂
丩下丂俿下丫倀
▁丟丂倔
▁丩丫丩丫倀下丂丟个
丂個下下下丠倏
▁下丂個下下下丂丟倀丠个
下丟丂俿丟丩
▁ペ
▁下丂下丂丩丩丌丟倁个丂俿下
▁下丂下丂丌丟下丠个
▁丩下丩丟下丠個下下下
×
下丟个下下丟个
▁丩丩丌下丂丟丩下丂丟个
▁丟下下丂丂丂丂下丟倁丩下倂丂
▁丩丩倀下丂丟丂俿丟倏
丂丁下倆丫丩
丂俿下丂俿下
▁下丂丂丂俿下丟
▁丠個下下丂
下倆丟丩
下丂丂下下下丫丩
▁懺懺丩丩丩丂個丠丩
▁丟下丂丂俿下丩倓懻
▁下倅個丠
▁丟下下下倅丟丂個下下下下丂丟个
丩丫下下丠丂
▁丂倂丂下下丠个丩丫
下丠個下下下
下下下丠下倆丩
▁丟丂下懹丩下丂丌丂倆
▁丩丟下下下丂
▁下懺丩丠個丩丌
▁丩倁丂
▁丟下丂下丂俿下
▁丫丂丩下丠丩丟丠个
▁丂俿下丂下丂丌倆倁丟个丂個下下
▁倀丩倆下下下倁丟个
▁丟下丩丟下丩下丂丟丩丂個下下下
下丂丂下下下倆丟丩
丠個下下丂
▁下倆丌丩下丩丟下丂個下下下丂下
丩下丩丟下丠
供
▁丩丩丌丟下下倌
▁丠倏
▁丟丂個下下丩丌丫丩下倆丟丩
▁俿下丠个丩丩
π
丩丩丫
下丂丂俿下丠個丩丌
丟丂個下下下
▁丟俿下丠丂個下丂丂
▁丂俿下丫丩
▁丠丂下俿
俿下丠丩
▁下丂丌下丂丂個丂丂下
▁丩丩倀倀倆下
▁丩丌丠个下倁丩
─
丩丟下下丂下
▁L
▁下丂下丂丩下丟個
▁下丂下俿下
▁丟丠個下丩
丩下丩丟下丂俿下
▁丟丂下下
▁丩下丟丩倂丂丂個丂丂丌
▁丟丂丂俿下下倆丟丩
▁丠个丂
▁丂下丂下丂丫丟
▁丩丩丌丂下倀丠下倃丫倇丩丩
▁丩下丩丟丌丂丁丂俿下
▁丩倁丂丩丂俿下下下
≦
▁下丟丂個下丟倁丠個下丂下
▁丟下下下倅下丂丂俿下下下下丫丩
▁下倆丌丩丩倀
▁懸懹丩倆丫丩
▁剗剗丌丟丩丩丟下下丠倁个
▁丩丩丌倔丠下倆丟丩
丂俿丟丩懸丟下
▁丟个下下丂丩丫丌丩丫丂俿下丠倏
丂俿下丂個下下下丟丩
▁下倆丌丂個下下下
丂俿下下倆丟丩
下懺丩
】
▁丟下下丠个
▁丩下丫丩丟丩倝丂
▁下丟懷丟丟丟个丩倓懻
▁丟下丂下丂俿下丠下下丌丂下下下
▁下倆丌倁个丂個下丂丌丩
▁丩剗下丠下下丂
俿下倕丠个
▁。
▁丩下剗丠个
▁倝丂下下倆丫丩
▁懸丟丌丩下丟個
▁丩剗
▁下下丂個下丂丂丫倇丩丩
▁丟倁
▁懸懺丩個丠
倌丠丩下倆丟丩
▁丩丩倀丫丩丠个丂俿下
丩丟下丂丟丩丩倓懻
▁丟倁俿丂下倏
▁下丂下丂丂個下丟下丂丟丩
丩丩丩倀
▁丟丟丂俿下下下下丂
▁せ
下丂丂下丟个倆倁丫丩
丩丟下下下丂
▁B
▁丟下下倌丩丟下下下丂
▁俿下下丠丂俿下丩丟下下下丂
▁丂個下下下丠丂
丠丂
ジ
▁丟下下下倅剗
▁倀倆下
▁丂個下下下丟下下丂下丂下丂下
▁下丂下丂下丠丂
下丂俿下丂丟丩
丟倏下丂
▁丂個下下下丟丩下倆丟
丩丫下下丠个
▁ュ
▁丩丫下丟丂個下下下
▁下丂下丩丫下下丂
▁下丂丌丟下丠个
丂俿丟丩
▁丂俿下丂下丂丌丟倁个丂俿下
▁懺懺丩丩丩丟丂個下下倆倁丟个
▁丩丌丟倀丠个丂俿丟丩
▁丟个下下丂丩丫下
▁丩下剗丠丂丂
▁下丂丟丩下丟丂丩
▁丩丩丌丂下倀丠下倃
▁下丂下丂下丟个個丠丂俿下
丩下丟丂個下下下丟丩
▁下倆丌下俿下下丂下丟个
▁下丂丌丩下丩丟下
▁丂丁俿下丠
▁下丂個下下
▁丩下丂個下丂俿
▁丂丩個丂個下下
▁ギ
▁P
▁丟倁个下倆丟丩
▁下丂丟丩丩丫下下下
▁下丂下丂丩下
丂俿下下下丠个
▁下倆丌丟丠丟下丂下倆丌
▁丩倁丂丩
▁丠个下倁
▁丂倂丂下丂倁个
▁丩丟丠丩丟個丩
▁丠个下下懹丩
▁下丂丟丩下下
▁丂個下丂丌丩丂個下丂下
▁丟丩丩丟懷丟丟
だ
#
▁丩丫俿下倕丂丟
の
▁丟下下下倅丠個下下
丩丫丂個下下
▁丟下丂丟个下丂丌下倃
俿下俿
下丂俿下丂俿下丟丂丩下下下丂下
▁丟個丩剗下
▁丩倓懻丟丩
▁丩丩倀下丂下丟个
▁丩下丂俿下丫倀丠倏
▁丂俿下下倅倀倆下丂俿丂丂下
▁丂個下丂下懸懹丩倆丫丩
▁丩丫丩丂個下下丂下
▁丟丂下丂個下下丂丩下倆丩
▁丟丠下倆丫丩
▁丩丟下丂丟丩下丂丂下丫丩
▁丩下丩丫丂個下丂丂俿下丩倓懻
丟下丠个丠丂
▁下丂下丂丟懷丟下丟个丩
▁丩下丠下丂丠倃下丂丠倃丟下下倆
▁f
下丂個下丂下丫丩
▁ゼ
▁丠個丩丌下丂下丂丂個下下下丟个
▁丂俿下丂丂下丟丩
▁丫丂丩個倂下丂丂俿丟丩
▁丂丩丟丂個丂俿下
▁丟丩丟个
下丂個下丂
▁丠丂下俿下丠倁个
▁丟丂丩下下下丂個下
丂俿下下下
▁丂丂丟下丩丂俿丂下
▁丂個下下下倅下倏
▁下丠丩丟丠个
▁下丂丟丩下丂丂下下下丫丩
▁ヒ
▁丩丟下下
丩丩下丟丩丩丫丩丩丩
▁丟丂丂丩個
▁倁丩丂個下下丂
ひ
丠个丩丫
▁丩下丂俿下倀亞丌倝丂
▁丫丂丩
▁懸丟丌下丂丂俿下
▁丂丂個下下丠倏
▁丩丩倀丩丟丠个
倕丂
▁丂俿下下下下丂丫丩丟
丩丫丂個下下倆丫丩
▁丟倁丂個下丂下丌
▁丩丩丌下丂丂丂俿下下下丂丟丩
▁丟丂倝丠
丂個丂下下
丟下下下倅
▁丟下丂丟丩丟丩丩丟
▁丠個丩丌丂個下下下
▁下丂丂個下下下丂下下丂個
▁下懶丟丩丂倆
倁丩丂個下下丂
▁丟倁个丂俿下
倅下倏
▁丟丂丂個下下丂丂俿下
丂下倆丂俿下
▁丂丩個丟丂下懶丟丩
▁剗剗丌下丂個下下丂丩下倆丩
▁丩倁丂丟丩倀丠丂倁个
▁下丂下丂丟個下丂個下下丂丩
▁剗剗丌倁丩
▁丠個下丩
▁丂下丂下下丠懶丟丩下倆丫丩
▁下丠个下丂下下下懺丩
丠下倆丫丩
▁丂丌丩丠丩
下丂丂下丫丩
▁り
▁t
▁丟懹丩
▁下丠懶丟丩個丂俿丂丂下
▁丩丩丌俿下下丫倀倁个
下丠個丩丌丟下丠个
▁下丂丟丩丠个下丠个丂俿下
▁丩下丠丩丌丩丟下丂丟丩懸丟下
下丂個下下下丂
▁下丟倁丩下倏
▁下下下丟个倆倁丫丩
下丠懶丟丩
▁下丂丌丩
▁丟下下下倅丟倁个丂俿下
▁下丂個丠倃下下俿下倏
▁丩丟丠丩倁丩下丂下
▁丩下下下丂個下丟丂丩下下下丂下
▁ニ
▁丩下丂俿下丫倀下丟懷丟丟丟个
▁丟懷丟下丂下丂丂個下丂下
▁丟下丂下丂俿下丩倓懻
▁丟下丩丟下丩下丂個丂丟个
▁丠个丩丌丫丩丠個丩丌
▁下下丟倀丟丩懸丟下
倂丂
▁下下下丂倕丫丩丩
▁丩倓懻下下丠倏
▁丠個丩丌下倃丂個下下
▁だ
▁下丂丟下下丠个丩丫
▁下丂丟丩下下丂丂下丂個下丂下
▁/
▁倝丂下丂俿下丂個丩丫下丂
▁丂俿下丂下丂丌丟下丠个
▁丟俿下丠丂個下丂丂丩倓懻
下丂丂下倂下倆丟丩
▁丩丫下下丂
▁懺懺丩丩丩下丂下丂俿下
▁丩丩丌丩下丟丂丟倁个丩
下丠丠個下下
▁下丂丌丩下丩丟下丂俿下
丠下下
下丟丂個下下
下丂丂俿下下下下
▁下丂丂俿下下倆丂俿下丟倀丠个
▁下懹丩下丂丌丂倆
▁丩下丠下倂丂丂個丂
▁下丂個下下下丂丠倊倁个丟下下倆
丟個丂個下丂丌丩
▁下丂下丂丟个
▁丩丟下丂丟丩丩倓懻
▁下下丂下懸懹丩倆丫丩
▁ポ
▁丩下丠下倆
丠个下
下丂俿下丂個丂俿下
▁下丠個丠
▁丩丫下下丠丂下倅倔丩
▁下丂丂下丂俿下下下丂下
▁下倆丌下丠个丂個下下倃
▁剗剗丌丩下丟丩丟个
下丂丌
丩丟下丂丟丩懸丟下
▁丟丟丂丩丩丌下下倆
▁丩丩倀丫倃
▁倁丩倁个
丟丂個
俿下倕
▁丟下丩丟下丩俿下倕丂丟
▁下丂下懹丩個丂
▁丂個下下下丟丩丂倆
▁下丂丟丩下丂下下丂下
▁ぶ
▁倁丩丫丫个下丂俿下丩丫下
▁丩丩倀下下丂下丩
倝丂
▁倁丩丫丫个
▁下丠个丩丫倇丩丩
▁下丂丟丩下下下丟个
▁丩倓懻丟丠下丂
▁下丂丟丩俿下下倅丟个
俿下丠丂個下丂丂
丟下倆丟丩
▁下剗丟个
▁懺懺丩丩丩丟丩丩丟下下丠倁个
▁俿下丠下倏
俿下丂下下俿下倁个
▁下下下
▁丟懷丟下下丠个丩丫
▁丂丩丟下丠倅丫倀下丂個下下下丂
▁丟丟丂丟下下丂下倅個丂
▁俿下倅丟下丠个
▁丩丩倀下丂個下下下
▁丟下下下倅下懶丟丩下
丂下丟个下丂下
▁丩丩丌丩下丟個丠个丩丩
丩丫倇丩丩
▁丟下丩丟下丩丂個下下下下丠丂
▁下丂下丂丟丩丩丟下丂丟个
丟個俿下倏
▁丩丩丌丂下丂下丂丫丩丟
▁丂俿下丟個丩剗下
▁丟下丂丟丩丟丩丩丟丂丂個下下
▁倁
▁個倂下丂丂俿丟丩
▁丂丩丟丫倀丂俿下丟丂俿下
▁丂俿下丂俿下下
▁下丟个丩
▁丩下丂俿下倆丫丩
▁下丂丫倀
▁丂俿下個下下丠倝丂
▁下丂俿下丂倂倁个懸懹丩倆丫丩
▁丂丩丟丠個丩丌丂倆
▁丟下丂個下下下丂丌個丠
▁下倆丌倁个下下丂
▁丂個下下下下丂下
▁下倕丌
▁丂下丂下
▁俿下下丂倂下個下懶丟丩丂俿下丌
下丂個下下下丂下
リ
▁個丂下
▁剗剗丌丩下丟個
丂個丂丂下丟倁丩
▁丩丩倀下下丠倏
▁丟下下下倅丂俿下丂個丟丩
▁丟倀剗下丂丂下下下
▁下丟倁丩丟下下丂丟个
丫丩下下丂
▁丟丟丂下丂丠倃丩下下倆
丂丫倀丂個丂
▁下倆丌下丠倏丩
▁丠個丩丌丟
▁い
▁下丂個丠倃下下丂個下丂俿下
丟丩丩丟
▁3
▁丩下倃丫倇丩丩
▁丂個下下丂俿下丠丩
▁丂俿下丂俿下下丟丩丩
▁下下丠个丂俿下
▁丟懷丟丩丩倀下倆丩
▁=
▁丩丩丌倁個丟丟
丠下下丌
▁下丂下倆倁丟个
ω
丂俿下丂個丟丩
▁丩丩丌俿下丠
丩丟下丠个
下下丂下丟丂個下下
▁丩下丫丩丟丩
▁下丂下丟下倏
下丂下
▁下丂個下下下丂下下懹丩
▁丩丟丠丩丂個下下
▁丟下下下倅丂個下下丟個丟丟
倀亞丌丟下丠个
▁丟丩丩個下下倅丫丩
丩丫下下下丠丩
▁丩下丠丩丌
▁下倃丟下下丟个
▁丩下丟個丟下丠个
丟个下倆丂俿下
▁懸丟丌下丂丂下下下倆丟丩
▁個下下丠倝丂
▁下丟丂個下倀丠丂倁个
▁デ
丟下下丂下
▁丩下丠丩下丂俿下倀亞丌倝丂
【
下下丂
丂個下丟
▁下丂丟丩下丟个下倆丂俿下
▁ず
▁丩下剗下丂下丟丂個下下
▁A
丟倁丂俿丟丩下丟个
▁下倆丌丠倏丩丌丫丩
▁丩丩倀懸丟下
▁下丂下丂丟丂下倏
▁丟丂丂丟下丠个丟丟丟
▁下丂丟丩倀倆下
▁下丂俿下丂倂丟下下丂
▁丂俿下俿丂下倏
▁丫丂丩丠个下丂俿下
▁丩下丠丟倅下懶下
▁丟丂下丂丂下丟丠個下下丂
倔丠
▁下倆丌下丂下丂俿下
▁丠倌丟丩
Δ
▁」
下丂下丫倃丟倁个
▁丂個下下丂個下下丂丩
▁下倆丌丂丩
▁懺懺丩丩丩丟个個丠
▁丂個下下丂個丂
俿丂丂下下倅下倏
▁俿下倕丩丫丩丂個下下丂下
▁丟下下倌丩丩倀懸丟下
▁丩丩倀丩丌丂俿下下丫倀倁个
▁丂俿下丂個下下丂個下下
▁下丂剗丌丂個下丠懻
▁丟下下丠倝丂
▁丩丌丂丟倁丩
▁丟个下下丂下
倀丠个
ˊ
▁下倆丌下丂丂下丠個丩丌丟下丠个
▁下丟丂個下丩丫下懸懺丩懸懺丩
▁剗剗丌丟倓个
丂個下下下丂丟个
▁下丂丌下丂下丩丫丂個下丂俿下
▁W
▁丩下丟丩丟丩下丂
▁丠個下下丟下剗个
▁ク
▁下下丂丌下下丠倏
▁倝丂丩丟下丂丟丩丟倁丩下倂丂
▁丟俿下丠丟丂丩下下下丂下
▁丟下丌丂丟下下丂下
▁倂丩丟下丂丟丩丟丠下丂
▁下丂剗丌下倂丟丩
▁丟下丩丟下丩下丂丌
▁丩丟下丂丟丩丩下丠下丂下
丟倁个丂俿下
▁俿下下下丂丌丂俿下下倆丩
▁丟下丩丟下丩下丠倏丟丩
丟倁丂個丠倏
丂俿下下下下
⊿
▁丟丂下懶丩
倉
丩丟丠个
▁下下下丂倕丫丩丩丩下丠个丩
▁下丂下丂丩下倃丠丂倃
丫丫个下丂俿下丩丫下
下丠个
▁丩丫丂個下下丂下
▁下倆丌丂個下下丟個丟丩倃
▁懺懺丩丩丩俿下下倆倁丫丩
丂俿下
▁丟丂下下丂倁丩
▁丟丂下丠倏丩
▁丩丩丌丟倁丂個下丂下下
丩丫下下丠个倆倁丫丩
▁丂個下丩丫下下丠丩俿下倏
丠倃
▁丩丟丠丩丩丟丠个
▁下丂丟丩下倃丟丩
▁丟丠倅丩个
倀倆
▁丂個丂
▁丟懸懹丩倆丫丩
下丠下下倅丟个
‘
▁丟丂丟下下丂
▁下倆丌下丂下下丂丌
▁丟丂下丂下
▁丂個下下下丂下丩
▁下丠个下下丂丟丩
▁丩倆倁丟个
丠個丠
▁下丫倀丩丌丫丩丂個下丂下
▁丟下丩丟下丩丂個下下丂丂俿下
丂個丂俿下
▁丩下下下丂個下下下丂下丠個下下
丠个下丂俿下丠个
▁丩丟下下下丠丂個下下下
▁丠個下下下丠个丩
▁ソ
▁e
▁下倆丌丟倁个丠倔
▁丩丌下丠下倆丫丩
▁下丂下丂丩下倃
倎下丫丩
▁丩丟丠丩丩丩倀下下丠倏
▁丩下剗下下丠丂
▁丟个下下丂丩丫丌丩丩倀
▁倝丂下下
▁丟丠丂个俿丂下倏
ヂ
▁丟丂下下丌丠倊倁个
丫丩丠个丂俿下
▁下丂丟丩丂俿下下下
▁丟倀剗丟個俿下倏
▁俿下倕丩下懸懺丩
俿下下丂丂俿下
▁丩下丩丫丫倀丂個丂
▁丟俿下丠丟丂丩下下下丂下下
▁倝丂丩下丩丟下丂個下下下丂
下丂下丂個下下下丟丩
丩下剗下丂下丟丂個下下
'
丠倅丩个
▁倀亞丌丟懸懹丩倆丫丩
▁丩下丠丩丌丠个
▁丂丫丩丟個丠
▁丟丩下倁丩下丟丂個下下下丟丩
▁丩丩倀下下丂丂下丟个丂俿丟丩
▁丩丩丌俿下下下下丂
▁丩倓懻下下倆
丠個下丂下丂俿下
懹丩丫倃丟倁个
▁丩下丠下丠个
▁丩丩丌丂個下丂
▁下倆丌倁個丟丟
▁下丂丌下丂下丟丂個下下
▁下丠下丂下丩
▁丩下丩丟丌丂倂丂下丟丂個丂丂
丩丟下下丂下丟下倆丌懶丟丩
下倏下下下丩下丟倅丟个
▁{
▁丟個剗下
▁る
▁下下丟倀丠个丂個下下下丟丩
▁丂丩個丩丩丌丟下丂丂俿下
▁丩下丠
▁丠個丩丌丟個俿下倏
▁下倆丌丟丩丟下丂丟丩丂個下丂下
▁下下丂個個丠丟
▁下丂下下
下丂個下下丂丌丩丫倇丩丩
▁丠倔
下下丠个
▁丂丂個下下
丩丫俿下倕丂丟
▁下倆丌丩下丟个丠丂
▁ナ
丩下倂丂
▁丂個下下丠個下下
丟個
▁丩丩丟丫倀倀倆下
丠丩
▁丂個下下丟倁丂個丠倏
▁丂丩個下懶丟丩丂俿下丌
▁丩丩倀下懹丩下丂下
丩丟丟丟
▁丩丩倀下丟懷丟丟丟个
▁丂俿下丂下丂丌丠倏丩丌丫丩
下丂個丟丩丟丩
▁丠個丩丌下下丂下丠個下下
▁下丂丟丩下丂個下下丠个
▁下懹丩下丂下
▁で
▁丩丩丌丟丩
▁丟倀倆丫丩
▁下丫倀丩丌丫丩丟下個倂下丩丩
▁.
▁下丂俿下丩丫下
▁丟个下下丠个
▁丩下丟丩丠丂下下丂倆
▁丩丌俿下丠丩
丫倃
́
▁丟俿下丠下丠个
下丂下下
▁丩丫丂個下丂下下丂俿下
▁丩丩倀下下丂下丂俿下丂倆
▁丂個丂丂下丂個下下下丟丩
下丂下懹丩
▁丂下倀丠下倃下丟懷丟丟丟个丂倆
▁下丂丟丩丟丠下丂
丫倃丂俿下
▁下丂丌倀丠丂倁个
▁丩下丠倁丩倀倆
▁下丟
▁丂俿丟倏
▁ボ
▁下丂丂個丩丫下下丂
▁丂倂丂下丂丂下下丟倀丠个
ゃ
▁丠个丂下丂下
丟丟丩
▁丩丩丌丠个下下倆丟丩下丂下
▁丂個下下下丂丌倁丩倀倆
▁丂個下下
▁下丂下丂丟下丂丟丩
▁丟丩下丂俿下丟丩丂倆
▁下丂下丂丩下懸懺丩丂個下丂下
▁丂俿下丂俿丟丩
▁丟丂下丂丟个下
懶丟
▁丟倁丠個下丂下
▁丩丩丌倁丩丂個下下丂
丟倅下懶
▁<
▁俿下倅倀丂倏
▁丂個丂丂丁丂俿丟丩
倕丫丩丩丩
▁下丟丂丩
下丟丂個下下下丟丩
丂下下
丂個下丂下丫倇丩丩
▁下下丠倏
▁丫丂
▁下丂丟丩丟丂個下下丂個丂
▁下倆丌丫倀下丠下下丂
▁下丟丂個下下丂下
▁丟丠個下丩丩丩下丠倔
丟丩倂丂
俿下倏
▁丟倀剗丂個下丂下丂俿丟丩
▁下丂下懶丟丩下丂丟丩
丂個下丂下丫丩丩丩丟下丂丟个
丟下丂丟个倝丠
下倂
▁丟倁剗
下下下丂倕丫丩丩丩
▁丫丩丟丩丂俿下丟倀丠个
丠下倅
▁下丂丟丩丩下懺丟丟丩
下丠下倆丫丩
丂丂丂下
丂下丂丌
下丂倁个
▁下倂倆丟倝丂
倂丂丂個丂丂
▁丩丫下丠個下下丂倆
下丂個丂丂下倁个
▁下丂下丂下丠懶丟丩
▁丩丩倀丟丩丟下丂丟丩丂個下丂下
▁下丂丟丩丟下個倂下丩丩
▁丠个下丂俿下個丂
丩丟丂丩下下下丂下
▁丟倅丩個丠丂個下下下丟丩
▁丟下丂丟丩丩丩倀下丟懷丟丟丟个
丂俿下丫倇丩丩
▁丟丟丂下丂丂個丂丂下丫倇丩丩
▁下丂丂下下下丫倃倃
▁下倆丌俿丂下倏
▁丩丩丌丫倃丂俿下
丂個下丂下丫丩丩
▁丟丟丂下丂丂個丂丂下下丫倇丩丩
丟倁丂個
▁丂俿下下丂丟丩下丂丟个
▁丟下丩丟下丩丩下丟個
▁か
▁丟丩丟下丂丟个俿下丠个
▁丟下丂丟丩丂個下丂
▁丟下丩丟下丩丂個下下下下丠个
▁2
▁下丂下丂俿下丩丫下丂俿下
▁下丂丟下下丂個
▁丩丌丂丟倁丩倆倁丟个
▁丟下丂丟丩懹丩
▁丩丟丠丩丟下丂下下
▁下丂下懶丟丩
丠倊倁丩
▁丟丂倀丂倏
Λ
丩丟下丂下
▁丟下下下倅丩剗下丠下下丂
▁個丠個丠個丠丠個丩丌
▁下丂個丂下下下倆丩
丩下丟丩丟丩下丂
下丟丂丩下
ψ
▁丟丂丂丩丟丫倀下下懹丩
▁丂丩個
ぎ
丟丂俿丟丩
▁丟下下丂丟丩丂個下下丂個丂丌丩
▁丟丂丩下丟倅丟个
丂個下下丂個丂
▁丂下丂下丂丫丟丩
▁倔丠
下丂丟丩下丂丟个
▁下丂俿下丂倂丟下下丂俿丂丂下
丩倀下
▁倂丂下丠丟倁丩丩下倆丩倆倁丟个
丂倆
▁剗剗丌剗下丠倏
▁丟下下丂倂丂下丂丂
▁丩下剗丩丟下下下丂
▁下丂個丠倃下下丟下丂下丠倏
▁丠個丩丌丩下丩丫丫倀丩下丟個
▁丩下懹丩下丂丂下下丂丟丩
▁丟丂個下丂下丟倏懺丩
▁す
▁丩倁丂丟丩下丂個下下丂丩
▁@
▁丂俿下下倆丟丩
▁倁丩倁丩倁丩丫倀丂俿下下下
丟下丟丂個下下下丟丩
▁丟倁丩丩下丟丩丩丫丩丩丩
丟下倆丩
下倏
▁倁丩倁丩
▁丩倁
▁丩下丩丟下丂俿下丠倏
▁下丂下丟丂個下下
▁丩丩倀丟倁个丂俿下下丟丂俿丟丩
個丟丩丟丂丟倅个丠下下丂
▁丩下丩丟下丂俿下
▁丩丩丌下下丂下丂個下下下丟丩
▁下丂俿下俿下下倆
▁丠個下下丂個下丂
▁丟下下倌倁丩下丂下
▁丩下丂俿下丫倀丂俿下丠個丩丌
▁丂個下丂丌
懸懸懸
▁丂個下下丩下丂俿下倆丫丩丟丟丟
ぐ
▁ョ
▁丂俿下丂俿
▁個丩丌
丂丫丩丟
俿下
▁丠个個倏
▁丩丌丂個下丂
▁丩丩丌丂個下下下丟個丟丟
▁下丂丌下倕
下丂下下丂丌下丂下下丠倏
▁下丂丂下倂
丠個
▁丩丟下丂丟丩下丠个
▁丟丂丂丩丟丫倀
下丂下丟倏懺丩
▁丂俿下下丂下
∑
▁V
▁丂丩個下丂丂下下下
▁下倆丌俿丂下下
▁ガ
俿丂下丂俿下下倂丂
▁丩下丂俿下丂個丂俿下
丩丟倁丩
▁丠個下下
▁丂下倀丠下倃
▁下丂丟丩丂個下下下丂丟个
丫丂
▁丠個丩丌下丟丂丩下
▁丟个下下丂丩丫丌俿下下倆倁丫丩
▁俿下倕丟丠倅丩个
▁丫丂丩丩下丂俿下倆丫丩
▁下倆丌丩下丩丟下
▁下下丂丌丩下丟丩
丩丌丫丩丩倓懻
下丟丂個下下下丟下倆丩
俿下俿下丂
▁丟丂下丂下丂倂丂
▁下丠下丂丌下下丂倁丩
懷
▁丩丫丂俿下丫倇丩丩
▁下丂丂下下下
▁俿下下倆倁丫丩
▁丂倂丂丟倁个下下丂下
▁丂下倀丠下倃丂個下丂下丠個丩丌
▁’
▁丂倂丂下丠下下丂
下丂俿下丟丩丂俿下
丂俿下下
下丂丂下丂個下下
丠倊倁个
▁ラ
下下丫丩
▁丟倀剗丟丠倁个
下下倆丩
下丂丂下丂個下丂下
丟丂丩下下下丂下倁个
▁丟懷丟個倏
ア
▲
▁丂個下下下丂下
▁丟倅下個丂
▁丩下丠下倂丂
丟下下下倅丟下下丠个
▁下丟丂個丂丂下下下
▁下丂下丂丟下丂丟丩懸丟下
下丂俿
▁丟丂下下懹丩
▁丟丠下丂丟丠下丂丂個下下下丟丩
▁下丂丂俿下下下下丫丩
▁俿下丠下丂丂俿下
▁丠个丩倁丩下丟丂俿丟丩
▁下下丂丌丩
▁丩丩丌俿下倕丠丂
丩丫下下下
▁丩丟下下下丠倁丩下丂下
▁丂俿下丟下
▁剗剗丌丂個丟丩
▁丂俿下下下
○
▁丩丫
▁丩下剗下下丂下丠個下下
▁ズ
▁d
▁丩丩丌丟個丟下下丂倂丂
▁丠個丩丌下丟懷丟丟丟个
’
▁丩丩丌下丂丂
▁倝丂丟倁丩丩倀个下下丂丟丩
▁倀丂倏
下下丂倂丂
▁下丂俿下丂丫倀丂俿下丂俿
▁丂丩丟剗
▁丂個下丠懻
▁丟下丌丂丟個丟丟
▁丟下下丠倝丂丂個丂
丂俿下下丂個丂丂下倁个
▁丟下丂丟丩下丂丌下倃丂倆
個丠倃下
▁丩下剗下倆
ぴ
▁・
▁丩下丫丩
俿丂下倏
▁丂丩個下倆丟
丩丌丫丩下倆丟丩
▁下丂丟丩丠個丠個下
▁下丠个丩
下丂丠倃
丩丫下丂丂丩丟下丂個下下
▁セ
丂俿下丂下丂丌丟倁个丂俿下
▁丩俿下下倅丟丩丠個下下
▁下丂丂下丟個丂俿下丟下丠个
▁丩丩丌丩下丟个丂倆
▁下懶丟丩丂俿下下
▁個下丂俿下
▁丠個丩丌個丠
倝丠
▁丟下丂丟丩丟倀倆丫丩
▁丠個丩丌丟下丂個下下下丂下
▁丟下下下倅下丂下倕
丟下
▁丩丩倀丫倃丟丂個下丟丟丩
下丂下丂下
▁z
▁よ
▁丟丠下丂丂個下下下
倀丂下丟个
▁剗剗丌丩下丩丫丫倀丂個丂
▁丟丂丩下下下丂下丩倓懻
▁丟丟丂
懺丩丠倏
▁下倆丌下下丂丟个
▁下倆丌丠下下丌丂下下下
▁下倆丌丂俿下丂俿丟丩
俿下倃
丠倌
▁下倆丌丩丩倀懸丟下
▁下丠下丂丌丩下丟丩丟个
▁丩下丠丩丌丂個下下丂
▁ネ
▁丩下丩丟下丂俿下倝丂
丠丩丫倇丩丩
▁丂俿下丟丂個丂俿下
▁懸丟丌倁个個丠
▁丂俿下下丂個下下下
▁丟下個倂
丠个
倏下倂丠倏
▁下下丂丌丠个丟丟丟
▁丩下丩丫丫倀丩下丟個
▁丩丌下丠懶丟丩下丂俿下
丩丩下丩丟下丂個下下
下倂丂倏
▁下丂丂下下下丫丩
▁丩下丂俿下
▁丟倁丂俿丂下丟懷丟丟丟个
▁て
▁丟丟丂下丂下丂下
▁-
ヌ
▁下下丂丌丂個下下下丂下
▁丂俿下丂下丂丌丩下丫丠倆丩
▁下下丂個下丂丂
▁丟丂俿下丂下下俿下倁个
▁丟丂下丂丂俿下
▁懺懺丩丩丩下丂下
▁下倆下丟丂個下下下丟丩
▁丩下丩丟下丂個下下丫倇丩丩
▁下倆丌下倃丂個下下
▁下下丂
下丂丂下下丌
▁下丂丟丩丫倀丠倏
▁丟丂個下下下倃
_5
▁丟個丂俿下
▁丟下下下倅丂個下下丂
丠個丩丌
▁下丂下丂下倂倆丟
▁丟下丩丟下丩下丂丌倌丠丩
▁丟下丂丂俿下倏
▁丟下丂個下下下丂下
▁丩丩丌下丂下懹丩
▁丩下下下丂個下丟下下丂
下倆丫丩
▁丩下懺丟丟丩
下丂倂下個
▁丩丫丩丫倀丂個下下下丠倏
丩倓懻
▁丟下丂丟丩丟丩
▁丩丩丌丟倁俿下下倆
▁下丟个下倆丂俿下
▁下丂個丠倃下下
▁丂個丂丟下剗个
▁ミ
個下下
▁丟丠個下丩丩丠倊倁个
丩丟下丂個下下
▁下倆丌下丂丂下下下倁丩倁个
個下丂俿下
▁丟倅丩個丠丂俿丟丩
▁丩下丟個丟下
▁丟倁下丠個倏
▁個丩丌個丩丌
▁丩下剗下丂
▁下丂俿下丂丟个丟倁丂俿丟丩
▁丟下丂下懹丩
▁丩下剗丟个丩
▁俿下倕丠丂丂俿丟丩
丂俿下下丟丂個下下下丟丩
▁下丂下丂俿下丂俿下倅丟个
▁下丂下丂丂個下丂下
▁丟丂下下丂下
▁丟下下下倅丟丂丩下下下丂下
▁下丠懶丟丩
▁下丠下丟個
▁懸丟丌個倂下丩丩
▁丩丩倀丂個丂下下
▁丩丩丌丂丫丩丟
▁俿下丠个丂個下下下
▁丟懷丟下丂下丟丂個下下丩
▁下丂丂下下
▁倁个丂俿丟倏
丩下丂
丂俿
▁丩下下
▁下丂丟丩丟下下丂丟个
▁丠个丠丂
▁倝丂丟個丟下下丂倂丂
丂下丂下
▁丂俿下丟倓个
▁下丂下下倆丩
倅下個丂
▁丟丂下丂丂俿下下下下
▁丩丫下下丠丂倆
▁下倆丌丟丩丩丟下下丂倂丂
▁倝丂丟倁丂丂個下下
▁丩丩丌下下丂
▁倔丠下丂丟丩丟丂丩下下下丂下
▁俿下下倅丟个丩倓懻
▁下倆丌丂丩丟丫倀丂俿下丟下下倆
下丂下丂丂個下丂下
▁丠个個倏丂倆
丠个下下懹丩
▁丩丩倀下下丂丟丩
〈
▁剗剗剗剗下
▁丫丩丠个丂俿下
丠个丩丩
丂俿下下丂下
▁懹丩丂俿下丫倇丩丩
丟倁丂俿丟丩
▁下倆丌下丂倁个
▁丩丠俿下下丫倀丂個丂
▁丠個下下丠个下丩丫下丩
▁ホ
▁丂倂丂丟倁丩
▁丂丩個丟丩
▁お
丫丩丟
▁1
ヨ
▁下倃丟丩丟倀丠个
懸懺
▁下丂丟剗剗丌
懷丟丟
▁丟下丩丟下丩丩丩丌
▁丩丟下丂丟丩丩俿下下倅丟个
▁丩丫下下下
▁丩下剗丠個下丂下丂俿下
▁丩丩倀下下丂下丂俿下
▁下丂個丠倃下
▁丩下剗丟下下丂
▁下倆丌下倆
下丂丂下下
下
▁下丂下丂下丂丟个下
▁丩剗丂個下丂下丂俿丟丩
▁々
▁丂倂丂
▁丟丩丩個下下倅
▁丩丩丌下倂
▁丩丩倀丫倇丟丩丩丂個下丂丌丩
丩丫下倂丠丂丟倀丠个
▁剗剗丌下丂下丂俿下
▁丂個下丂丌丩下丂丟
丩丟倀倆下
▁下丂丂下丂俿下下丂
▁丩下丫丠倆
▁丩下丟个懸懹丩倆丫丩
▁丩下丂俿下丫倀
倆丫丩丩
〖
▁懺懺丩丩丩丟倅下懶
▁丟丂丟倁
▁丂
▁G
▁丩丩丌丂個下下丂俿丂丂下
ヶ
▁丂個丂丂下丩下下下丂個下丂倆
▁下倆丌下丠倁个
▁下丂個丩丌丫丩
▁丟丂丟下丂下下
▁丟下丂下丂丟下丠个
▁下丂下丂丫倀下下丟懷丟丟丟个
▁丟下丂丟丩丟丂丩下下下丂下
▁丟下丂丟丩丟下丂個下下下丂下
▁下丂丌丟個下下
▁丟丩丠个下
▁倁丩丫丫个下下丠倏
▁丟俿下丠個丩丌個丩丌
▁じ
▁丟下個倂下丩丩
▁丩丌丂下丂下
▁ユ
▁懺懺丩丩丩丟俿下丠丂個下丂丂
▁懺懺丩丩丩倁个下丂下
▁丂丩個丩丫丂俿下丠倏
丟個丂俿下
下丂下丂俿下丩丫丌丟丟丟
▁下丂下丂丩下丟丩丟丩下丂
丠個下丩
下下丠丂
▁丩丩丌俿下丠丩
▁丂個下下丩下丂俿下倆丫丩
▁丂俿下丟丂俿下丟下下丟个
▁丟下丂丟丩丂個下下下下丂
▁下丂下丩丫倅丟个
▁下丂俿下丂丫倀
▁下倆丌丟丩丩丟丟下下丂倂丂
▁丟下下下倅丩丩倀懸丟下
丟丩丟丩丟丩丟丩
丟倁丩
▁丩下丩丟下下丠
▁丠個丩丌下丂下懹丩個丂
▁丟俿下俿下丂丩倓懻
丟下丠个下丂下丂下
□
丫倇丩丩丂俿丂丂下下倆
▁丩丩丌丂俿下丠倏
丂下下丌丠倊倁个
た
丫丩丂俿丂丂下
丩丟丫倀下丠倁个
▁丩倁丂丟丩丂個丂下下
▁下丂個丟丩丟丩
▁丟丂丂倂丂
▁丂俿下丂個下下丟个
▁下倆丂俿下
▁丫丩
▁丩下剗丂丁下
丂個下下
▁丩丩倀下下丂丂下丟个下丂下
▁下丂丂個下下下丂下
▁丂俿下丟個下下下倕丫丩丩丩
▁キ
▁U
▁丂個下下丂丂俿下
▁下倆丌丂下丂下丂丫丟
▁丩丟下下丂下丂俿丂丂下
▁俿下下丂倂下個下倆丟
▁下丂下丂丩
▁下倆丌俿下丠下懹丩下丂下
下丂下丂個下丂下
μ
▁丫丂丩下丠倏丩
下丂俿下丂倂
▁下丟丂個下丩下丟丩丟丩下丂
▁俿下下丂倂下個下丂丂下下下
丂個丂丂
丟丠丟倅丟个
▁丠倏丩丌丫丩
▁丠倏丩丌丫丩丩倓懻
個
▁下丂丂下下下丫丩丠個下下
俿下丂下懸丟下
▁丟倀剗丩丩倀俿下俿下丂
▁下丂剗丌
▁丩丩倀下下丂丂下丟个丩丩
△
丩下丫丩下下丂丂下丟倅丟个
丟个丩
▁丩下懸懺丩
▁下丂下丂丂俿下
丩丌丫丩
▁下丂丂個下下下丂丟下倔
▁下丠个
▁下倆丩丌丟丩丟下丠个
丟下倆
▁丩丟丠丩丂個下下下下丂
▁下丂丌丂下丂下
▁k
▁丩丫下丟丂個下下下丩倓懻下倆丩
▁丩丩倀丟倁丩丩倀个下下丂丟丩
▁丩丟丠丩丟倁
▁下丂
▁下丂丌丩丫
▁下丂丌倁個丟丟
▁下丠个丟丂丩下下下丂下下倆丩
▁丩倓懻丩丫下倂丠丂丠個下下
▁下倆丌丩丫下丠個下下丂倆
▁下丟丂個
▁下丂下懶丟丩丩下丟倅丟丩
丂個下下丂下
俿下下倆倁丫丩
▁下丫倀丩丌丫丩俿下下
ふ
▁下丂丫倀懸懹丩倆丫丩
▁下丂丂丩丟下丠
▁下倃丫倃
▁懺懺丩丩丩丩下丟丩丟个
丟下丂下丠倏
下丠
▁下倆丌丂個下下下丂下丟个
▁丠個丩丌下丂下
▁俿下倕丟下剗个
▁下丂個丠倃下下丟下丂下下
▁丠個丩丌下下丠个
▁丂丁下倆丫丩倁个
▁丟丂下丂丂丂俿下
丫丩丩倓懻
下下倏
▁俿下下丠丂俿下
▁俿下倕懹丩
▁懸懺丩懸懺丩丂倂丂
ゲ
丠个下丩丫下丩
丩丫下丂
丫倇丩丩丫倇丩丩
▁ら
▁y
▁丟下下下倅丩下丠下倂丂倁个
▁下倆丌丂丫丩丟
▁丩下剗丟丠下丂丩
▁懸丟丌
▁下下丂丂俿下下丂丂下下
▁丂俿下下倂丟丩
▁丟下丂丟丩丂倆
▁下丂下丂丠个下倆丟丩
▁丟丂丟下丂個下下下丟個丟丟
▁丩下丂俿下丫倀丟下下倏
▁丩下下下丂個下丠丂丂
個丩丌個丩丌
▁丂個下下下丠下下倅丟个
▁丩丩丌丩下丠下倂丂倁个
▁丂下丂丌下丂倁个
丟倅
▁丟倀丠个
▁丟丩丩丟下下丠
▁下丠个丟丂丩下下
▁丟个丩個下下倅丫丩
▁丂下丂下倂丂丩丟下丂丟丩
下丂個丂
▁下丂丟丂丂丟下丩丂俿丂丂下
▁下倆丌丟丩丩丟丫倀倁个
▁丩下丠丩丌丟倅丩個丠丂個下丂下
▁丩下丟個丠个丩丩
▁丂俿丠个丂倆
▁丂個下下下丟丩下下懶丩丂下丂丌
▁下丂個下下丂
▁下丠下丂丌下丂個下下丂丩
▁,
丩丩下
▁剗剗丌丂俿下丫丩
▁丩丩丌個丠丩丩下倆丟丩
ネ
▁下丠个丂個下丂下
丟倁丩個倏
▁下丠丂倀倆下
丟下個倂下丩丩
▁丂個下下下丂下下倆丩
▁丩丩丌丂下丂下丂丫
▁下丫倀丩丌丫丩下下丂丂丩丟下
▁個丠丩丩
▁丩丫丩下丠
▁丟懷丟下丂下丂俿下丟倅丟个
▁丂個下下下丂
倅個丂
▁丟倁个丟丩
丩丟下下
▁づ
丂俿下丠倏
▁俿下
▁下丟丂個下下丂剗下
丂俿下丫丩
▁懺懺丩丩丩丂個下丂下
▁下丂個下下下丂下下
下丂下下丂
▁丠下下丌丂下下下
▁俿下倕丠丂
▁丩下下丂下
▁丠个丩下丟丩倂丂丂個丂丂丌丩
▁丂個下下丫倀下丠下下丂
▁下丂個丠丫丩
▁俿下倏丫倇丩丩
▁丟丠下丂
下丂下下丂丌
▁丂個丩丫下下丂下丫丩丩丩下丂下
▁丟丟丂俿丂下丂俿下下倂丂下下倆
▁マ
丠個下下丩丫下下丠个倆倁丫丩
▁下丂丟丩下丂下丂丂個下下下丟个
下丂下丂丠个下下丂下
▁丟下丂丟丩丟倁丩丟倁丩
▁丂俿下下丂
丫倇丩丩
丟丂丟下丂個下下丟倁个
▁丩下丫丠倆丩丟倁个
丩丟丫倀丟倁丩下倂丂
▁下丂個丠倃下下下丂丂下丂個下下
▁下倂丂倅下丟丂個下下下丟丩
下丫丩
▁ほ
▁丩丩丫下丟个
▁下丠倏丟丩丩下丟倅丟个
▁丠個丩丌丟倁下丠個倏
丠倁个
▁丟丂丩下下丂下
▁丟丂下丟倁丩丂倆
丂丂下下丂俿下丟倅丟个
あ
▁下丂俿下丂倂
▁丩丟
▁下下丠丩丂個下下下丠倏
▁丟丂丩下下下丂下
▁懺懺丩丩丩丟倁俿丂下倏
丟个個丠
▁丟丂俿下
懹丩丟下下丟个
▁丟個丂個下下
▁下丂下丩丫下下丂丠倌丩
▁倌
▁丩下丠丩丌丟下下丟个丂俿下
▁丟丂丟倁丂俿丂下丟懷丟丟丟个
▁下倆丌倀丠丂倁个
丠丂下
▁丟丠個下丩丩丫倃丂俿下
丂下下丌
丩丟丠個丩丌
▁倁倆
▁下丩丟丠个
▁丟丩丟丩下丂下
▁丠个下下倆丫丩
丩丫丌下倆丩
▁下倆丌丂個丂丂下下丂下懹丩
▁丩下丩丟下丂個下下
俿丂下丠
▁倝丂丟個丫倃下丂下
▁丂個下下下丟丩丂丁丂俿下
▁下丂個丠倃下下丟倁个丂俿下
▁下倂丂倅下丟丂俿丟丩
▁丩丩丌丩下丫丩懹丩丟倅丟个
▁下丠丟倏丩
▁丂丩丟下丠倅丫倀下丠下下丂
丟下下丂丟个
「
丫倀丂個下下下丠倏
▁丂丩丟丫倀丂俿下丠倏
▁0
丫倀丠丂丩下下下丂下
ラ
▁丂丁丂俿下丫丩丩丩
▁下丂丌下倏丠個丩丌
▁丩丩倀下丠懹丩
▁丟丂丩下丟個丟下丠个
▁丩下剗丂個下丂下丠個下下
▁倀丂下丟个丂個下丂丌丩
丫倇丟丩丩
▁丩倁丂丟丩丂個下下下丂丟个
▁下丂下丫倇丩丩
▁丩丩丌丂下丂下丩丌丫丩
丂俿下丂俿
俿下下
丩丫丫倀丂個丂
▁丟個丟丟
▁丩丫下丂個丠倃下下
▁下丂下丂丂個下下下丠个丂個丂
▁丟丩丩個下下倅丫丩丟
丫丩下下丂丂下丟倅丟个
▁丩丟下丂丟丩丂丁丂俿下
▁下丂丟丩丟個懹丩
▁丟丂個丩丟下丂丟丩下丟个
▁丟丂下丂下丫丩
▁丩丟下丂丟丩丩下丩丟下
▁俿下下倅丟丩個丂
下下丂丂下丂個下丂下
▁丟丂個丂
キ
▁丩丩丌丟丂個下下下下丟丩丩
丩丩下丟個
▁丫丂丩丩下倃
▁丩丩丌下下丂下丩丟丠个
▁下丂下丂下丠丂俿下
▁俿下丠倆倁丟个
▁丩丩倀下丂丟丂個下下下丠倏
▁F
レ
▁丟丩下俿下丠丂俿下丂倆
▁下丂個丂丟丩丂倆
▁丟丂下下丂下丠倔
丂丁丂俿下
▁下丫倀丩丌丫丩丂個下下倏
▁丂個下下下下下丂下丠個下下
丟丂丩下下下丂下
▁丩丫下下丠个個倏
▁下丂丟丩丟
▁丟下丂下丂下丂下丫丩丂倆
▁丩丫丂俿丂下丩丫丂個下下
▁丩下丩丫下丠丟下下丂下
▁剗剗丌丟丩丠个
▁丟丂丟个個丠
▁丩下丟个丠丂下下
▁た
▁丩剗下下丂個
▁丩丌丂
▁下倆丌丟丠個下丩丩丠倊倁个
▁丩下丩丟丌丂個下下丟個丟丩倃
▁丟下下倌丟个個丠
▁丩下丂個下下丟倅丟个
▁俿下下丂倂下個丂俿下
▁俿下下丂倂下個丩丫丂俿下丠倏
▁丂個下丂丌丩丩丩倀丟倏
丩丟丂個下下下丟丩
▁丩丩丌下
▁剗剗丌倂丂
▁丟下下下倅丂個丟丩
▁下倏丟倏下丂
▁丩丩丌丂個丂丂下
丟丩丟下丂丟丩丂個下丂下
▁丟下丠倁个丩
丟下下倆
丂俿丂下丩丫丂個下下
▁丩丩丌俿下丠个
下丠倁个
▁丫倀下倕下
丟個丟丟
▁丟丂丂俿下丟下下丟个
▁丩下丫丩丟丩個丠
丟丩
▁丠個丩丌丟下下丂下
下下丂丟丩
▁丩丩丌下下剗
丟懷丟丟丟个
▁丫丂丩倔
▁丟丂丂俿下丠倏
▁下丂丂下下丌倁丩丟丂丟丩丟丩
▁丩丟丠丩下丂個丠倃下下丂下
▁下丂丂丂俿下懸丟下
▁丂個下下丂丟丩
▁懸懸懸丂個下下下丂丟个
▁パ
▁丂丁下丂丩
▁下倆丌丂俿下
▁丩下丩丟下
▁丟丂丂丌丩丠丩
▁俿下丠丟下下倏
▁丟
▁オ
▁T
▁丩丩倀丫丩
▁丩丌下下下丟个下下丟个
▁下丂丂下丫丩
▁下倆丌下下丠个丩丫
▁丩丌丟丂丩下下下丂下
下倃
▁丂丁丂俿下
下懹丩下丂下
▁ィ
丟丂個下下下丟下倆丩
ν
丠个下倁
▁丟懷丟丂個下丂丌丩
下丠個倏
▁懺懺丩丩丩丟丟丂丩丫下丂下丟个
▁下丂下丂丂個下下下丠个
▁丟个懹丩
→
個倂下丩丩
丠
▁ル
▁丩下丩丫丂個下丂丂俿下丟下丠个
▁丂倂丂下丠丩丟丠个
▁下丂丟丩丂個下下下丫倇丩丩
▁丩丩丌下丂丂下倂
丟丂下丂下丫丩
▁丩丩丌個丠
倂丠丂
▁丂個丟丩
▁丟懷丟下下丂下
▁丟倀剗丂個下丂丌丩
▁下丠下倆丫丩
▁丟倁丂個下丂下丫丩丩丩
▁丟丂俿丂丂下
▁丩丩丌下丂丂俿下丠個丩丌
▁懸丟丌下丠下下倅丟个
丩下丟个
丠个下丂俿下
▁丂丂倁个下丂下
▁丟丂個下下下下丟丩丩
▁下下懶丩丂下丂丌
▁下丂下懶丟丩丟丂丩下下下丂下
▁下倃下丂下丂下丠丂俿下
≈
▁丩下剗丠倊倁个
▁j
▁丠个下下丂丂俿下
▁ジ
下丂下丂個下下
▁下下丂丌倀丠丂倁个
▁丂丩丟丫倀丂俿下丂個下下下丟丩
ゅ
▁丩丩丌俿下丠下倏
▁下丂下丂下丂丂下倂下倆丟丩
Σ
▁丩丟丠丩丟丩下丠丂個丂
丩下丩丟
▁下丂下下下倅丟个
▁丂個下下倆丩
▁下丂下丂倁丂下丂丌下懺丩丠丂倃
▁俿下下丂倂下個丩丫下下丟个
▁丂下丂丌丟倏下下
▁倁丂下丂丌
▁丩丩丌下丂丂個下下下丂丠個下下
▁丟丂丩下丟個
▁懸丟丌剗
▁丟丂丩丫下下丂
▁倆丫丩
▁丩丫丩丩倀丂俿丟倏
÷
丠个丩倁丩
▁丩下剗下懶丩下丂丌
▁丩下下下丂個下丠倊倁个
▁丟倏丟下丂丟丩下丟丂俿丟丩
丩丩
▁丟下丂丟丩丂俿下
▁俿下倅俿下倃下丂丂下丫丩丩倓懻
▁丠個丩丌丂丩丟下丠倏
▁丂俿丟丩
▁丂個下丂丌丩下丂丂下丂個下下
▁丩丩丌下丠懶丟丩下丂俿下
▁丩下下下丂個下丂俿下倎下丟个
▁丟丂丩丟下下丂下丟下倆丌懶丟丩
▁丂俿下丂下丂丌丩丩倀下下丂丟丩
▁倁个丩
▁丂個下下倆丟
▁下倆丌下懶丟丩
▁丟倁丂個丠倏
▁丟丂丩下下下丂下丫丩丩丩
丩下丩丟下下丂
▁下倆丌下丂個下下丂丩下倆丩
下丂
▁剗剗丌丩下丠丂個下下下丂下
▁丩丩丌下丠懶丟丩下丩丟丠个
▁下下丂丌丩下丟丩下下丂下
下丟懷丟丟丟个
▁丟俿下丠丠個丩丌
▁下丂丂下丂俿下下丂個丠
▁丩下剗俿下倏
丩丫丫倀丩下丟個
▁丂俿下丠下下丌丂下下下
▁丟丂丂個下下下
懸懺丩懸懺丩
▁ザ
▁x
丩下丟丂丟倁个丩
▁剗剗丌丩丩倀下下倆丫丩
▁丂個下下下下丂下丠個下下
▁丟丂丂個下丂
▁丟倁丂個下丂下下丂個下下
▁丟下丩丟下丩
▁俿下丠下下懹丩
丩丩倀
▁丫丂丩個倂下丂丂個下下下丟丩
▁下丠下丂下
懺懺丩丩丩丟
▁丂個下丂下下丂丂下丫丩
▁倁丩丟丂丩下下下丂下
▁倝丂下下丂倂丂
丠個下下丠個下下
▁下丂丟丩丠個下下丠個下下
▁ハ
ナ
▁丂丩丟丠個丩丌
▁丟丂下懶丩丂個下下下丟丩
▁下丟丂個下下丂丟丩
▁下倆丌丟下倀丂倏
丩下下丂下
▁丟下下下倅丟
丂俿下丂個丂俿下
▁俿下倕下丂下下下倅丟个
▁丟下下下倅丩下丩丟下下丂
下丟丂個下
▁丟下丩丟下
▁丩丫下丩丫丩下下丂
▁丩下丠下丂個下下下丂
▁丟倁丂個丠倏丩丩倓懻
▁丠个下丂俿下
▁つ
俿丂下
丠个倆倁丫丩
▁μ
▁丂個丂下下倝丂
▁下丂丟丩下丂丂俿下
▁丟丂丟个丩
丂下下丫倇丩丩
▁丩丩倀下下丂丂下丟个
▁下丂丟丩丩丟下下丂下倆倁丫丩
▁俿下丠丂個丂下下
▁丩丩丌下丂丂下丂俿下丂俿下
▁や
▁丠個下丂下丂俿下
▁丂俿下丟個丂倆
▁下丂丌丩丫丂個下丂下丂個下下
下丂下下丟个下下倆
▁丟丠下丂俿下
▁丩倓懻下丟丂丩
▁丩下丟个丠丂
▁倝丂下丠下倆丫丩
丂俿丟丩丂倆
▁丟丂下丟丂
▁下倆丌俿下丠倂丂丂倂丂
▁倌丟丩丟丠丂倌丟丩
▁懺懺丩丩丩丟丂個下下丂個丂
▁下倆丌丠倌丩丫丩丩丩
個下下丠倝丂
▁倝丂丠個下下
▁丠個丩丌下倆丩
▁下丠丂俿下
▁俿丂下丂俿下下倂丂丩倓懻
▁丩丩倀丫倃下丂下
▁下丂下丂丟個丩丟下丂丟丩
▁丩丩丌懹丩丂俿下
▁丂個下丟倁个丩丩
▁丩丫下丩
▁丠个下倁丂俿下
▁丟丩丩丟懷
▁丩丩丌丂個下下下丟丩丂倆
▁倝丂丩丩倀
丂個下下下
̄
▁懺懺丩丩丩丟倓个
▁丟丩丂倆
俿丂丂下
▁丟下下倌俿下倕丠丂
▁丟下下下倅丟下丂丟个倝丠
▁を
▁丩丩丌丫倀丟倅丟个
▁丂個丩丫下丂倂丂
▁丟下丂
▁下丠丠個下下倝丂
▁丟丟丂倁个下丂下
▁丟下丂丟丩丟下下丠个
▁懺懺丩丩丩俿丂下丂俿下下倂丂
丩下丩丟下下丂下倆丟丩
▁丟倁丂個下丂下
▁丂個下下丠個下下丂俿丂丂下
▁丩丩丌丂個
▁丩俿下下倅丟丩懹懹丟倝丂
▁剗下倆丩
▁倝丂丟丂下倆丩
▁下丂丟个丩
▁懸丟丌倀丂倏
丟丂個下丂下丟倏懺丩
▁下丂丟丩下丠下丂下丠個丩丌
▁丂俿下下下丂丌個丠下丟个
▁懸丟丌下下丂下
▁丂俿下下丂個下下丂丩
丩丩倀懸丟下
▁下丂俿下丂倂丂丩
▁丟倁俿下下倆
▁丂俿丠个
丟丂俿下丂個丂丌丩
下下丂下
▁下丂俿
▁丩丩丌丟丩丩丟倀倆下
▁丩丩丌倁丩丟丂丩下下下丂下
下丂俿丟丩
▁丩下下下丂個下丩下丟個
▁丂個下丂丂下
▁丂個丂丂俿下下丂個下下下
▁下丠丟丂個下下倆丫丩
▁丩下剗丟丂個下下下丟下倆丩
▁丩丩丌丂俿下下丂個丂丂下倁个
▁7
▁丩下丩丟下丠丟丟丟下丟丂俿丟丩
▁丩丩倀懸丟下下倆丟丩
▁丟丂下倆丩
▁丟丂下丂丟个
▁下丂丂下
丠下下丌丂下下下
下丂丂俿下丂倆
丩下懸懺丩
▁丩下丟丩倂丂丂個丂丂丌丩
丂個下下倏
▁丩丩丌丩俿下下倅丟个
▁え
▁下丂下丂丩丩丌個倏
丟丂個下下丂
▁丟丂下倅下丟丂個下下下丟丩
▁丩下懸懺丩丂個下丂下
▁下丂下丂下
▁丟下下丂丟丩丟下下倏
下丂丟丩丟丠下丂
▁丩下下下丂個下下丂下丂下
▁丂個下下下丂下丟个下倃
▁倝丂丩丫下丟懷丟丟丟个
懺丩
▁丩下丂俿下倀倆下
▁丟下丠丂
丂俿下下個丩丌個丩丌
▁丂個下下下倂倆丫丩
▁俿下下丠丂俿下倝丂
丟丂個下下
▁下懶丩下丂丌
▁丩倓懻丩下丫丠倆丩
▁丩丟丠丩下丂下丂丟下丠倏
▁下丂下丩丟下下下丂丩倓懻
丂個下下丂個丂丌丩
▁下丂下丂丟个個丠
〔
▁丩丟丂個丂丫丩丟下丠个
下丠丟个丩
▁丟个下下丂丩丫丌丂
▁下丂丂丩丟下
▁丟下
▁下下丂下丠個下下
▁下丂下丂丟丂
▁丂倂丂下丟丂個下
▁丩丩丌丂個下丂丌丩
▁丟丠個下丩丩丂俿丂丂下
▁下倆丌俿下丠下丂丂俿下
▁丩下丟個
丠个丂俿下
ぇ
▁丟丂丂俿下丂下丟个
▁丩丟下丂丟丩下丟丩
▁下丂下丫倀
▁下丠
▁下丂剗丌丠个下丩丫下丩
▁ぞ
▁下丂丌丂個下下下丟個丟丟
▁E
▁丩下下下丂個下下丂俿下丂俿下
▁丩倁丂丟丩丂個下下丟個丟丩倃
▁丂下丂下倂丂丟丩
▁丩下下下丂個下丠个丟丟丟
▁丟丂下倏下丂
▁剗剗丌下下丂個
▁俿下下丂倂下個
丂丟倁个
▁丠個丩丌丠倊倁个
下丟個
丩丫丂俿下丠倏
▁丩丩丌下丂丂下丫丩
▁下下丠丂
俿下下倅丟丩個丂
▁ベ
▁丩丟下丂丟丩丂個下下
下丂個下下丂丩下倆丩
倆倁丫丩丂丁丂俿下
▁丩丩丌丩丩倀丟丂下丂下丫丩
▁丂個下下下丂下丟个下丟丂俿丟丩
▁下懶丟丩下丠丂
▁丩丩倀俿下俿下丂
丟下丂下丂俿下丩倓懻
▁丩下剗丠个丟倏
▁丩丟下丂丟丩倔丠下丂
▁丂個下下丩下丩丟下丂個下下
▁下丟丂個下下丂下下丂下
▁丟丂下倏丂個下下下丟丩
▁丩下丠丟下丠倁个丩
丟下丂下丂俿下
▁丟丂丂倂丂丟丂丩下下下丂下
▁丩下丫丠倆丩俿下倕
▁丟个下下丂丩丫丌丂個
▁[
丩丫丂個下丂俿下
▁丩丩丌下丂丟丂丫倀丂個丂
▁カ
▁丟丩丩丟丫倀倁个
▁丟个下下丂丩丫丌
▁丠丂丂
▁下倆丌丟俿下丠
倀丠丂倁个
▁丩下丠丩丌丩丟下下下丂
β
丩下丩丟下
▁丟倁丩丂俿下
下丟个下倆丂俿下
▁丟下丂個下下丟倁个
▁下丫倀丩丌丫丩丟倁个個丠
▁下丂丟丩丟下丠个丠丂
個俿下倏
▁下丂丂個下下下丂丠個下下
▁リ
倅
↓
▁下丟倁丩丂倆丫丩丩丩
▁丟倁个丂個下丂下
▁丂俿下丂俿下下下倕下丟丂俿丟丩
▁丩丩倀丫倃丟下丂下下
丂俿下丌
▁丟丂倂下丂丂個下下下
▁丂個下丂丌丩丩丩倀
▁丩下剗
▁丟懷丟丩丫丩丠倌下下丂
丂倂丂
下丟倁
丩下下丠丩
丌丠倊倁个
▁丩下丟丩下倆丩
▁丟個俿下倏
▁下丂丟個丠丫丩
√
▁ス
▁i
▁丟倀剗丟倀丠个
▁丩倁丂丟丩丫丩丠个丂俿下
▁丟丂下丂丂下丫丩
▁丟下丂丟丩倀倆下
下下丂個下下
▁丟下丂丟丩懸丟下
▁丩丩倀丂俿下丟丂俿下
▁丫倀下丂個下下下丂
▁剗剗丌下丂下丟丂個下下
個丩
▁倂丂倁个
丟倁俿下下倆
▁下丂丟丩丟个懹丩
▁下丫倀丩丌丫丩下下懹丩
▁下丂丟倝丂
▁丩下丟丩
▁丩下懹丩下丠丂
▁丩丌下丂個下下丂丟个
下丂俿下丂
▁下丂丌下下懹丩
▁俿下丠丩丫下下丠丂
▁ー
ぷ
下丂丂俿下下下下丫丩
▁下丂下丂下丠懶丟丩下丂俿下丂倂
▁下丂丟丩丩丟下丂丟丩懸丟下
▁下丂丌丂個下下下
▁下倆丌丟丂個下下下下丟丩丟丩
丟丩丩丟俿下下倆
▁個丠丫丩
丩丫下下丂
▁丩丩倀下丂俿下丂個下丂下
▁下丠懶丟丩下懸丟下
▁懺懺丩丩丩丟倁个下下丂下丩倓懻
丟丂丩下下下丂下下
▁丩丩倀
下丂俿下下下丂下
▁下丂丂下丂俿下下丂個丠丩
▁丩下下下丂個下下丂下丫倀丠倔
▁丂俿下丂下丂丌丟丩
丟下下丂下丂下丂下
下丂丂個丂丂下丫倇丩丩
∈
下倅
丠倔丩
丟丩丟下丠个
▁丠个下俿下丠丂俿下
▁丩丫下丟懷丟丟丟个丩倓懻
▁丂個丂丂下丩下剗丂倆
▁個倂下丩丩
丟倁个丩丩
丩下丟丩丟个
丂俿下下丟丂俿丟丩
▁剗剗丌丠个下下懹丩
剗下丠倏
▁下丂丟丩下丂丟丩倀丂下丟个
▁丂個下下丂個丂丌丩丩倓懻
▁丟丟丟下丟丂俿丟丩
▁丠个下丂下丂俿下
▁丟倅丩個丠丂個下丂下
▁シ
▁俿下下丂倂下個下下丠丂
▁丟丂丩丫丂俿丂下丩丫丂個下下
丂個下丂下丌丩丟下下下丂
▁丂個下丂俿下
▁丂個下下下丠倏丩丌丫丩
▁丩倓懻個丠
▁丩丩丌丩下丟个丠丂下下
▁丩丟丠丩丩丫下下下
下丂個丂丂下
下丂個下下丂丩
丂個下丂下丂俿丟丩
▁下丟丂個下下
▁ノ
▁下丂個丂丩
▁下下丠倅下丟丂俿丟丩
丂下下倆
▁丂丩丟丫倀下下懹丩
▁下倆丌俿下下丫倀丂個丂
▁丩丌丟倁俿下下倆
▁下丟个丫倀丟下下丂
▁丟下下下倅丟下下丠下倆丩
▁丟个個丠丂個下下下丟丩
▁下丂丟丩倏
▁丟丩倁懻
▁丩下丩丟下丂個下下倏
丩下下丂下丠個下下
▁に
▁ロ
▁倝丠倀倆下
▁丠個丩丌丩下丟個
▁丩下剗丩丟丠丩丩丟丠个
▁丟下下下倅下丂丂下下
▁丟下丂丟丩丫倇丟丩丩
丫倀下倆
▁丟丩下下倆丟丩丩倓懻
▁丩丩丌丩下丟個丟下
▁俿下倏下倆丩
▁丂個下下個丠丂俿下丫丩丩丩
下丂丂下下丌倁个
▁下下丂丌丂倂丂下丟丂個丂丂
▁丂個下丂下丂俿丟丩
▁下丂丟丫倀丩丟丠个
▁下丂丂個丩丫下下丂下丟个丩
▁下下丠丂丟丟丟
▁丟丩丟下丂丟丩丫倇丩丩
丠個丩丌丟下丠个
倀丂
▁下倆丌丠個下下丂
▁バ
▁丠個丩丌下丂丂丂俿下懸丟下
下下丂丩丫
ょ
丩下倂
個下下下倕
▁丂俿丟丩下下懶丩丂下丂丌
▁下丂下丂俿下丩丫丌下丂倁个
▁下倅下倏
▁丩下丠丩丌下丂下丂下
▁丂個丩丫下下丂下丫丩丩丩
▁丟倁丂個下下倏
俿
倂下
下丂俿下下下丠丩
グ
▁丠個丩丌丩丩倀懸丟下
▁丩丫下丂丂丩丟下丂個下下
▁べ
▁俿下倕丩丌俿下倕丩丌
下丟丩
▁丩丩丌下丠个丩
下丂個下丂俿
▁丩丟丠丩丩下
▁丟下丂丟丩倝丠
▁ん
下丩
▁倁丩下丂丌
▁下丂下丂丩丩丌
丩下懺丟丟丩
▁丩下下下丂個下丠个
▁丟下丂丟丩下丂個丂下下丫倇丩丩
▁倁丩丂個下下丂丩倓懻
倆丫丩
▁丟下個倂下丂
▁下丂下丂丂個下下下丂
▁丩下丠下丂丟个
倃丂俿下丂俿下丂俿下
▁丩丟下丂丟丩懸丟丌丟下丠个
▁下丂丟丩丩丌倁個丟丟
▁丂個下下下丟丩丩丩倀下倆
▁丟丂下丟个丩
▁丂個下下丂個下下丂
倆丂俿下
▁下倆丌倔丠個丠
▁丟丟丂下下倆
丩丟個下下下倕丫丩丩丩
懺懺丩丩丩俿下倕
▁丩丫丩丂個下丂下
▁6
丫個丂俿下
▁丫丂丩下丂個下下下
▁下丠下丂丌下丂俿下丂個下丂下
▁丂俿下丂倂丂下丟丂個丂丂
懹丩丂俿下
▁丂個丩丫下丂倂丂丂倆
下丂倂丂
▁丟丩丠个
▁個丠丂俿下下倆丟丩
▁剗剗丌丠个下丂俿下
▁丂俿下丂個下下下丟丩
▁丂個下丫倃
▁丟丩丩丟丫倀丫倇丩丩丟倁个
▁丩下丩丟下下倆丟丩
▁く
▁丩下剗下丂丟下丠丂俿下
▁下丂下丂個下下下丟丩
▁懸丟丌丟下丠个丂俿下丂個丂俿下
下丠丂
倁倆
丟下倏
下丂俿下丩丫丌下倆丩
丂丩個下丂丟丩
▁丠个下倁丫倇丩丩
▁丂俿下丟個丟丟
▁下丂下懶丟丩下丂個下下下丂
▁丟丂下倆丂俿下
▁丟丂下
▁丩丩倀丫倇丟丩丩丂倂丂
▁剗剗丌丩俿下丠丂個下丂丂
▁懹懹丟俿下下倅丟丩倝丂
τ
▁下下丂丌丂個
▁丟丂丩丟俿俿個丫丩丩丩
倆丌
▁丠個丩丌丠倔
<
▁丟倁丂俿丟丩
▁丟下丩丟下丩下
▁丩下丟個丟下倀倆下丩倓懻
丟下丂丟丩
▁丩丩丌下丂
▁丂俿下丩丩倀下丂下丟个
倅下懶下
▁剗剗丌丂俿下下下
懸懺丩懸懺丩下懶丟丩丟丩
▁下丂下
▁丟懷丟
丠倏丟丩
下倏下下下
▁丩下丠丟下丂下倓个
▁下丂個下下下丂丂個丂下下
▁丟俿下丠丟下丠个丂俿下
▁丩下剗倁个下下丂
▁下倆丌個丠丂俿下
俿下俿下丂丩倓懻
丩下丩丟下丂個下下下丂
▁む
▁丩下下下丂個下丩丟丠丩丩丟丠个
》
俿下下倅丟个丩倓懻
▁そ
俿下下下下丂
▁D
下丂俿下下丟丂俿丟丩
_12
下丂下丟个
ヵ
ゾ
▁下丂丟丩丟丂丩下下下丂下
▁下倆丌丂
▁丩下剗丩丫丂俿下丠倏
丩丟下下倏
▁下丠下丂丌丂個丂下下
▁丟丂個下下倆倁丟个
▁下下丂個
丂丟
▁下丂俿下丂個下丂下丂倆
▁丩倓懻
▁丩下丠下丂丠倃下丂丠倃
▁下倆丌下丂下丂
丟丠倅丩丩丩下丩丟下下丂
∕
▁丩丩丌丟倁个丂俿下
▁丫
▁丟下下丂丂俿丟丩丂倆
▁丩丩丌丟下下丟丂丩下下下丂下
▁俿下丠
懶丟丩下丂俿下丂倂
丩下
▁丂俿下丠个下丂俿下
丩下剗丩下丩丟下下丂
▁丩下丠丟丩丟丩下丂下
▁丂個下下丂
▁丟丩下倆丟丩
▁丂個下下下下丠个
▁下倆丌懹丩丂俿下
丩丩丌
▁丟俿下俿下丂下丂個丂
▁下倆丟
▁下丠下丂丟丩下丂丟丩丂個下下
▁エ
▁倁丩
▁丟下丩丟下丩丂丠下丂個丂
▁下丠丂個下下倀倆下
下丂個丂倂丂
▁丩丫下倂丠丂丩倓懻
γ
▁個丠丂俿下丂個下下下丟丩
▁丂俿下下丂剗下
▁丟下丩丟下丩丩丫下丠個下下丂倆
▁丩下丠丩丌倀丠丂倁个
▁丂倝下丂下
▁こ
▁下丟丂
個下下下倕丫丩丩丩
▁下丂個下下丂丩丩下丟個丟下丠个
▁丩丩丌丠倔丩
▁下丂丟丩下丂個丠丩
▁懹丩下丠个丟丟丟
丫丩丩丩
▁丩丌丂丟丩丩丟下倆丩
▁丩丟丠丩下倆
▁丩丫下下丠个俿下倏
▁丩下下下丂個下個丠丩丫倇丩丩
▁丩丩丌丂俿下丂丫個丂俿下
倁个丂個下丂丌丩
▁下丂丠倃丩丩倓懻
▁丩丩丌下下丠个倆丫丩丩
丂個丂丂下下丂下丩丫下下丂
倔丩
▁丩丩丌下懶丟丩下下
▁下丂下丂下下懹丩
▁丟丂個丂丂下下丂下丩丫下下丂
▁丟下下下倅倓个俿下下下下丂
▁丂下丟倁丩倁丩
▁丟倁丩
▁下丂丟下下丂丟个丩丫
▁下丂丂俿下
個丩丌
▁下丂丂下下丌丩丫下下丠个
▁丩倁丂丟丩丟下丂個下下丟倁个
▁丟懷丟丟
▁丩下下下丂個下懺懺丩丩丩
丠个丟丟丟
▁下丂丂丂俿下
〕
●
▁懺懺丩丩丩下懺丩丠倏
▁丩下丟个
▁ウ
▁h
▁下丂丟丩丂丩丟剗
▁下丂丟丩丟倁个丂俿下
下丂丂下倂
▁丟丩下丠丂個丂
下丠個下下丂倆
▁丩丩丌下丂個下下丂丩
▁倁丩倀倆
▁下丂丟个
▁丩下丟丂丟倁个丩
▁丂個下丂下下倆
▁下丂丟倝丂丩下丩丟下丠
▁下丂丌下丟个下倆丂俿下
丩下倆丟丩
▁丩下丠俿下下丂丂俿下
と
▁剗剗丌下丠下下倆丫丩
▁丟下下丠丂個下下下
▁丠個丩丌下丂倁个
Y
▁下丂丟个下
▁丩丟下丂丟丩
▁倝丂丠个下下倆丫丩
▁丫丂丩下丂下丂丟
▁丟下下倆
▁下丂下丂丂俿下丠丩
▁丩下下下丂個下丠个下丂個下丂丂
▁丩下丠丂丁丂俿下
▁丟丂丟倅下懶下
下倆丌懶丟丩
▁下丂丟丩下丂個丠倃下
▁丂個下下下下丂丟个
▁下丂丟丩下倆丩
▁下丂丌丂個下下下丂下
▁丟下丩丟下丩下丂個下下下丂個倏
俿下下下下丂倓个
▁~
▁丂俿下丂丩丟下丂下下
下丂下下倆丩
▁ゴ
▁倁丩下懶丟丩
下丂丂下下下
▁丩丩丌下丂丂下丂俿下下下丠丩
▁丟丂丩丟丠个
▁丩下下下丂個下下丂下丂俿下
▁丩丩丌下下丂丂下丂個下丂下
▁丟倀剗丟倅丩個丠丂個下丂下
▁下丂剗丌丟個丂俿下
▁下倆丌丩丫下下丂
▁下丠下下丂
▁丩丫下丠個下下丂倆個丠
▁倁丂下丂丌下丂俿下丂丟个
俿下下倆丩丌丫丩
▁チ
丠个丠丂
▁丩倁丂丩丂個下下丂
丟倀
丂俿下下下下丫丩
下下下丂下
丟丩丩丟下下丠倁个
▁丂俿下丂
▁俿下丠丂丩丟丠個丩丌
▁丩下丠丩丫下丩
▁丂個下丂下丟下下丠下倆丩
▁下丠下丂丌丂俿下丫倀丠倅
▁下丂個下丂下
丂個下
▁下下丠丂丂倆
▁丩丩下丟个
▁下丂個下下丠个
▁下丂個丠倃下下丩下丂俿下倀倆下
丂俿下丂俿下丂俿下下倆丟丩
▁丩下倃丟倁丩丩丟下丂下
▁な
◆
ト
▁丠個丩丌丩個倁丟个
▁丩下剗個下丂俿下
▁も
丟倁个下下丂下
丩丟下個下下丂丂丟个
▁丟丟丂丩下下丂下
丩丫下下丂下
▁懺懺丩丩丩丩丩倀下丂下丟个
下下下丂個下
▁丟丩丩個下下倅丫丩個下丂俿下
下下丠
▁丟懷丟丂俿下下下
▁丠个下丂俿下丟下下倆
_1
▁‘
▁%
▁丟丂個下下丟個丩
▁下丂剗丌下丂丂下下丌倁个
▁ビ
▁丩個倁丟个
▁丩丩倀丫丩丂俿下丂個丟丩
▁下倆丌下丂丂下丂個下下
▁下倆丌丟丂丩下下下丂下倝丠
ゆ
▁丟下丩丟下丩俿下
▁下丂丟丩下丂丂俿下下下下
▁丟丩丩丟倀亞丌倏
▁丂個下下丟個丟丟
▁丩下丂個下下
▁丫丂丩丂俿下下丂個丂丂下倁个
丂個下丂丂
▁下下丠丩下下丠丩丂個下下
▁丩丩倀下丟个下倆丂俿下
▁下倆丌丟丠下丂
▁丂個下下丟个
丂個下丟丟丩
▁丂個下丂丌丩丟倁个下下丂下
Ψ
下倆丟
▁下丂俿下丂
▁下丂丌丟倓个
▁丩下剗丂俿下丫丩
▁丩丟丠
▁丟下丂丟丩丟倁俿下下丫倇丩丩
丂個丂丫丩丟下丠个
下丂俿下丩丫下
▁丩倓懻丩丫俿下倕丂丟
▁剗剗丌丩下懹丩丠倏
▁丩丩丌丩丩倀
個丠丟下下丂
▁下丠下丂丌倁丩下丂下
下丂俿下丟丩丂俿下丟丩
▁へ
丟倀丠个
▁丩下丟個丟下倀丂下丟个
▁丟下丌丂丟下丠个
丠个丩
▁丩下丂俿下倆丫丩下丠倏丩
▁丫丂丩丟丂個下下
▁下丠倏丟丩
▁丂個下丂丌丩下丂下
ヴ
丩丫丩
▁下丂下丂下丂下
丫丩下丟丂俿丟丩
下丂下丟丩丟丩
下下丂丌
▁倀丠个下丂俿下丠个
▁下丂下丂丟俿下丠
▁下丂個丠倃下下丩下丟丩丟丩下丂
丟個丟丩倃
▁下倆丌丟個俿下倏
▁丂俿下下丂俿下丂丟丩丟倀丠个
▁下丂個丠倃下下丟下丂下丂俿下
▁丟丟丂懸懺丩丟倁个
▁下倆丌丟下倏
▁丟下下下倅
▁丂俿下丟丠下丂
下丂俿下丂俿下
懹丩下
▁丟下下下倅丠倊丂俿下
▁下倆丌下丠丟个丩
▁丩倓懻下倆丩
▁丩丫下丟丂個下下下丩倓懻
丟個下下
▁丟个下下丂丩丫丌丩下丠懹丩
丩丩下丟个
▁下倆丌丩下丠倔
ヤ
▁下丂丟丩丩下下丂下
▁下丂丌下丂下丂丠个下丂俿下
▁俿下下丠
丫丩下丂
▁下丟丂個下下丠懶丟丩下丂俿下
▁下下丂丌丩丠下下丂下
▁剗剗丌丂俿下剗
▁丩下丩丟下下丂
▁下倃
▁丂下丂丌下倏
▁下丂下丟丂個下下倝丂
丩丫丩丩丩
丟下倔
▁下丂下丂下下丟倀丠个
▁丂個丂下丂下下下倅丟个
▁下倆丌丩下
下丂俿丂丂下
▁俿下丠丟丂俿下丂個丂丌丩
丩丫丌下丟丂個下下下丟丩
▁丟丂下丂俿下
▁下倆丌丂俿下下下丂丂下下下倁个
▁下丂下丟下倕
▁丂個下丂丌丩下丂丩
丩下懶丟丩
▁丩下丠俿下下倆丩丌丫丩
▁丩丟丠丩下丂下
▁下丂個下下下丂丠个
▁丠個下下丩丫下下丠个個丠
下丂俿下丂丟个丩丫
▁丂個丟丩丂倆
▁下倆丂俿下下倆丂俿下
丩丟丫倀丫倇丩丩丟倁个
▁懺懺丩丩丩下丂下丫倀丠倏
▁丟丠個下丩丩丟丂個下下
下丟个
▁懸懸懸丩丟丠个
▁丟下下倌下下丂下丠個下下
倂丂丩丟下丂丟丩
▁丠倌
▁下丟丂個下
下倂丂
倓个
▁丂俿下丟
▁倆倁丟个
丟丟丟
▁下丂丌丟丂丩下下下丂下
す
倆
▁下丂個下下下丂丠个下丂個下丂丂
▁丩丩丌丩丩倀下丂下丟个
下丂丟丩丂個下下下
▁丩下下下丂個下丟丠下丂丩
▁下倆丌
▁個丠
▁下丂丟丂倀倏丂個丂
《
▁下丠下倆
▁下倆丌丩丩倀丫倃倔
▁丂俿下丟倁丂俿下丠个
▁丟下丩丟下丩丟俿下丠丂個下丂丂
▁丂個下丂下丂個下下下丟丩丩倓懻
▁丟丩下下倆丫丩倁个
▁K
▁丩下丩丫丂個丫倃丂俿下
ヲ
▁下丠懶丟丩下丂俿下丫倇丩丩
▁丂俿下下倂丂倏
▁下倆丌丟丩
▁下丂丂下丂俿下
▁懸丟丌丩
▁下丂丌下丠倁个
▁丟丟丂下丂下丂下丫倇丩丩
▁丩下剗丟丂丩下下下丂下
▁剗剗
下丂個下下丌下丟丂俿丟丩
▁下丂丂下下丌倁个
▁下丂個下下下丂丩倓懻
▁懸丟丌懹丩丂俿下
▁丩下丩丟下下丠下丂俿下丂丟个
▁下丠丟丂個下下丂丫丩丫倇丩丩
倕
▁丩丩倀下下下丠个
丠倅
下下丂丟个
懹丩下丂下
▁丂俿下下下懹丩丫倇丩丩
丟個丩
▁丟丂個下下下丫倇丩丩
▁丩丫下下下丠个丠丂
▁丩下下下丂個下下倆
▁丟懷
▁丩倁丂丟丩
▁下丂丟丩下丂丟丩丩丟丠个
▁丂個下丂下下丂下下丂下
▁下丂下丂下丂丂俿下
倀倆下
丟个
▁丩倓懻懸懸懸
▁丩倁丂丩丂俿丟倏
▁丟下下丂下丂
▁下丂個下丂丂下丂個下下
▁ォ
▁Y
懸懺丩懸懺丩下懶丟丩
下丂下下丠倏
丂個下丂下丟倏懺丩
▁丩下下下丂個下下丂
▁丂下倀丠下倃丫倇丩丩
▁下倆丌丂個下下丂
▁丩丌丂下丟个丩
丂俿下丂俿下丂俿下丂倂丂
丟倁丂個下丂下下
▁下丂丟丫倀
▁倝丂丟丩丩丟俿下下丫倇丩丩
丩下倆丩
▁丩丩倀下下倆
▁下倆丌丟個丂俿下
▁げ
丩丟下丂丟丩丟倁丩下倂丂
▁レ
▁丩下下下丂個下下丂下丫倇丩丩
▁丩丩倀丟个
▁懸丟丌丂丫丩丟
▁倝丂丂丫丩丟丂個下下倆丫丩
▁下懺丩丠倏
個下下下丠倏
▁下丂丌丩丫丂俿丂下丩丫丂個下下
▁下丂下下丂丌下倆丩
倆丫
▁下丂丌懹丩丟下下丟个
丠倔倁个懸懹丩倆丫丩
▁下倆丌下丂下丂丂個下下下丟个
▁丩丩倀下下丂
▁剗剗丌丩下丟个
▁下丂丂下下丌
▁丟倅丠丩個丂丩
▁丟倁个
▁丟倁个丩丩
▁丂個下下丟下下丂下
▁下下丟倀丠个
丫倀下下丟懷丟丟丟个
▁倀亞丌丟個俿下倏
▁下丂丟丩下丂倁个
▁下丂丟丫倀個丠
俿下丠
▁丟下下丂個丂丂倆丩下丟倅丟个
▁剗剗丌倂丩丟下丂丟丩
下丂個下丂下下丂個下丂下下
′
ッ
倃
丩丫下倂丠丂
▁o
▁俿下倕懹丩丂個下丂丌丩
▁ェ
▁下丂丌倀丂倏
▁下下丂下丩
懺
ゥ
丩丟下下丠倁个
▁丂俿下下倅下倏
▁下丂丟丩下丂個下下丂丟个
▁丩丩丌丩下丩丫丂個下丂丂俿下
倂丂下倅
丂個下丂俿下
▁丟下丂下丠倏
Φ
▁下丂丟丩丩丟下下下丂
▁俿下下倆倁丫丩丂倆
▁丫丂丩俿下丠丩
▁丂俿下丂下丂丌下丂下俿下
*
▁丩倓懻丟倅個丂
▁下倅
▁丟下丂丟丩丟丩下丠丂個丂
▁丟下下丟丂丩下下下丂下個丠
▁丟下丩丟下丩丠個丩丌個丠
▁丟下丂丂俿下丩下丩丟下下丂
▁丠個丩丌丟丂個下下倆倁丟个
▁丩下下下丂個
丂個丟丩丟下丂丟丩下丟个
▁下倂倆丟
▁丩倁丂丩丂下丂下
シ
▁丟丂丩丫下下丠丂
▁倝丂丠个
▁丟下丂丟丩倝丠丩倓懻
▁丩丩丌丂俿下丂丫倀丠個丩丌
▁丂個下下下下丂
▁丟丩丩丟下丂丟丩丟丟丟
▁丩丩丌丟個懹丩
▁丂俿下丟丠丟倅丟个
▁下丟丂個丂丂下倆丩
▁丟丂丟倏丂俿丟丩
▁剗剗丌丩
▁丂個下丂丌丩丟下倆丌懶丟丩
▁丂俿丟丩丩丩倀下
▁サ
▁}
▁丟下下丂倂丂俿下丠丩
‐
個丂
下丟
▁丂俿下下下丂丂下下丌倁个
▁丫倀下丂個下下下丂丩倓懻
下丂下丂丂下下丌丟下丠个
▁丟丂下丂下下丂下
▁倀亞丌倏
下下丂下丂個下下下丟丩
▁剗剗丌丟
倅丟个
▁下丫倀丩丌丫丩
▁丟丂下丂俿下丠个
▁ダ
▁丩丠下丂個丂
丂丟下丩
丟倁
▁丩下丟倅丟个
▁丟下丩丟下丩丠个下丂俿下
▁下丠丠個下下
▁丟下下下倅丂個下丂
▁丩丩丌丩下丫丠倆丩俿下倕
丂個下下倃
倅下
▁丩丩丌下丂個丠倃下下
▁丩丩丌丂丩個下下丂下
▁丩下丠丩丌下丂個丠丩
▁懸丟丌倁丩丫倇丩丩
▁ど
▁丟丂下丂丂俿下丟下丠个
▁丟丂個丠丩丩
ド
▁丩丟丠丩丩下丩丫丂個丫倃丂俿下
▁丩丩倀丫倃懹丩丫倇丩丩
▁丠個下下丩下丟个丟丩
丩下下下丂個下
▁丟下下丠
▁下下丠个丩丫下丟丂個下下下丟丩
▁丩剗下下丠丂
▁丟下丩丟下丩俿下下倅丟丩個丂
▁丩下下下丂個下丟下丂丟丩倝丠
▁丂個丂下下
▁俿下丠下丂丂下倅丟个
下丂俿下丂倂丟下下丂俿丂丂下
下丂俿下丂丟丩丩丫
丩下丂俿下丂個丂俿下
▁丠丂下俿丟丂個下下丠下丂
下丂下丂俿下
▁丩丌丂丟倁丩下丠个
剗下
倀下丂下下丂俿下下倆丩
▁s
▁丟丂俿下下丠
▁丩下丠丩丌丟下丂丟丩丂倆
▁丩下丠下倂丂倁个
▁丂個下下下丟丩
丩丫丫倀
▁下丟丂個下下倂丂
▁下倆丌丩丫丩丩倀丂俿丟倏
▁丂個丂丂下下丂
▁丂個下下丂個下下丂個下下
下丂下下丂下
▁丩下丠丟丂下倆丩
▁丩丟俿俿個丫丩丩丩
▁丩丩丌下丠
丂個丂丂下俿下下倅丟丩下倆丩
▁丩丩丌丂個下丂下丂個下下下丟丩
下丂倂下個丂個下下
下丂個丠倃下下
▁丟下下丠丩丩倓懻
▁懺懺丩丩丩丂俿下下下
丌丂丁丂俿下
▁み
▁丂丩丟丫倀丂俿下丂俿丟丩
▁個丠丂俿下丂俿丟丩
▁丩丩丌下懺丩丠丂倃
▁丩丩丌丂下丂下丂丫丟
▁丩丟下丂丟丩丂俿下下下
▁懸懺丩懸懺丩下懶丟丩丟丩
▁丂丩丟下丠倏
倀亞
▁懺懺丩丩丩丩下丩丫丫倀丂個丂
▁丟下丂下下
▁丂倂丂丠個下下丠個下下
▁丩丩丌丫丩丠个丂俿下
¥
丠丂丂
▁下丂個丠丩
丟下倕
▁丂俿下下下下丫丩
▁丂丂丩丟下
▁懸懸懸
▁懺懺丩丩丩丂個丩丫下丂倂丂
▁丩下懸懺丩丩丌丫丩下丂
▁丟丂丩下丩丟下
▁丟下下丟个
丟下剗个
▁丫倀丫倃下下丂
▁剗剗丌丟下丂
▁下丂個下下下丂倁个下丂下
▁丩倓懻俿下丠丩
▁丟下丂下
丂俿下丂個下下
▁俿下倕丟下倆丫丩
▁倝丂丩倓懻下丠丠個下下
丟下下丠个
▁下倆丌個丂倁个
丟丂個下下丠下丂
▁丩丟丠丩丟俿下丠
▁下倂
▁剗剗丌
▁丂個下丂丌丩丟个丩
▁き
▁下丂丟丩丟下丠个
▁4
▁懹丩丠倏
▁下丂個
▁·
倊
▁−
▁丩丩丌下丂俿下丂丟丩
丟倁丠個下丂下
▁丂俿下丂俿下丂
▁下丠懹丩丟丂丩下下下丂下
▁懸丟丌丟
丂個丂丂下
▁丂個下下個丠丂俿下
▁丩丩丌丩個倁丟个
▁剗剗丌丟倁俿丂下倏
▁丩丩丌下丂個下下下丂丟丠下丂
▁剗剗丌俿下倏
▁下丂丂下丠個丩丌丟下丠个
丩下丩丟下丂個下下丠倏
▁剗剗丌丟个個丠
▁丩倓懻俿下丠丩丟下下下丂
▁懺懺丩丩丩俿下下丟懷丟丟丟个
▁下丫倀丩丌丫丩下丟丂個丂丂
▁丟下下丂丂丂丂下丫丩丩丩
φ
▁丂丩個丂俿下
▁丟下下下倅俿下下倅丟个
▁下丂個下下下丂
▁下倆丌丂俿下丂個下下下丟丩
丟丂個下下下丟丩
▁丟倀剗
▁丩丩丌懹丩下丠个丟丟丟
▁下丂丂個下下下丂丠个下下丂
▁下丂丟丩下下丂丌個丠下丟个
▁俿下倏下丠丂
〉
倅丩個丠丂個下丂下
丟下丂下
▁下下丂丂倆
▁丩丩丌下丂丟下丂個丟丩丟丩
▁丩倓懻下丠倁个
丟個丩丟下丂丟丩
▁J
丂俿下丟丂俿下
▁下丂下丩丫下下丂個丂倁个
丟丩丟丩
▁下丂倁个個丩丌個丩丌
▁丩下丠懹丩
▁丂俿下丂下丂丌
▁丂丩個下丂丟个
▁下丂下丂丟個丟下下丂倂丂
▁丟丂俿下下下下丂倓个
▁倂丂
▁下丟丂個下倆倁丟个
▁丩下下下丂個下丠個下丂下丂俿下
▁丂俿下丂俿下丂丫倇丩丩
▁丩丫下下丠个個丠
ざ
倔
▁丩下懺丟丟丩丂倆
丫丫个
▁丩丩丌丟丩倁懻
▁下丂個丠倃下下懹丩丫倃丟倁个
▁倁丩倀倆丟
下倕下
丩丂丩丂
▁丟下丂丟下倆
▁丂個丩丫下下丂下丫丩丩
▁丠个下下丂丂俿下倁丩倀倆
▁丟下丩丟下丩丟
▁丩丟丠丩丂個下下丟个
丂俿下丟
▁下丂丟
▁丂俿下丂俿下下下倕
下丠個下下丂倆丫倇丩丩
丩
▁〜
▁丩丌丟倀丟丩丂俿丂丂下
▁丂俿下丩丩倀
▁下丂個下下丂丌丩丫倇丩丩
丩丫下懶丟丩丂個下下
▁丂俿下丂個下下
下丂俿下丩丫丌
▁丩下剗丩下懺丟丟丩
▁丩下倃丂個下下下
俿下下倅丟丩倝丂
▁丩丩丌倁倆倁丟丩倂丂
▁倁个丟個丩剗下
▁下丂丌俿下丠丩
丫倀丩丌丫丩下丟丂個丂丂
▁丩丩倀丂個下下丂
▁懺懺丩丩丩
▁倝丂丂個下下下丟個丟丟
▁丟下下丂個丂丂倆
▁下丟丂個下丂俿下丂丂下丟丩
▁丟下丂丟丩下丂丩丩
▁け
▁X
▁丂個下下丟下丠丂
▁下丠下丂俿下丩丫丌下倆丩
下丠个丂個下下倃
▁下倆丌丠个下下丂丂俿下
▁下倆丌丟丠丂个
α
▁丩下剗丠个丟丟丟
▁下倆丌丂個下下丟個下倃
▁倝丂丂個下下丂個丂丌丩
丩丟
丩下丟个丩
▁丩丩丌下丂下丂丂個下下下丟个
▁俿下倅下懶
▁丟丂個下下下
▁ワ
▁下丂丌丩下丠
懶丩下丂丌
丂丂下下丂
▁下丂丂俿下丠個丩丌
▁俿下丠倂丂丂倂丂
▁丂個丂丂下丟倁丩
▁丩下丠丩丌倁倆
▁丂個下下下丠倏
▁懸丟丌丩丟下個下下丂丂丟个
▁下倆丌下丂下俿下
▁丂俿下倂丂
丩丟下
▁丂個下
▁丟下下丂倂丂
下下下倕
▁懺懺丩丩丩俿下倏
▁下丂丂俿下下下下
▁丩丫下丫丩丂俿丂丂下
▁丂丁丂俿下下懶丟丩
丫倃倃
▁丂丁
丩下丠下丂下
▁丟下丌丂下丂下下倆丩
▁下下懹丩
▁丂俿下下下丂丟个
▁丩下下下丂個下下丂下丟丂個下下
▁丂個丂丂下
▁丩
▁n
▁丟丂丟丂個下下
▁イ
▁丩下下下丂個下個下丂俿下
▁丠個下下下丂丟下丠
丩下丂俿下
▁丂下丂丌下倅丟丂丩下下下丂下
丂丩丟
丂個下丂下丌
▁丟丂個下下下下丂
▁下丂俿丩下丂俿丩
▁丩丩倀丫倃下懹丩下丂下
下倆丂俿下
▁丟丂個下下下丂個下丂下下丠丂
▁丟丩丟下倆
▁丫丂丩下丟丂丩
▁丠個丩丌丩下丟丩丟个
丩下丩丫丫倀丩下丟個
▁丩丟下下丂下下丟个
▁下丂下丂丂個丂丂
懹
丩下丩丟下丂個下下下丂下
下丂丂下
▁下丂丂下丂俿下下丂個丠个
下丂個下下丂
丩丩下丟丩
▁丩丟下下丂下丟下倆丌懶丟丩
倁丩
▁丂個下丂下丠个丠丂
▁丂個下下丟倅個丂
▁倌丟丩
▁丫倇丩丩
▁丟丟丂丟下丂個下下下丂丌下下倆
▁下下丂丌下下丂下俿丂下倏
▁ゲ
▁丩下下下丂個下下丂丂下
▁丩丩丌個丠丂俿下
下下丠个丩丫
下丂丂下下下丫倃倃
▁丟下丂丟丩丂倆下倆丟丩
▁丩下丟個丟下倀丂倏
下下丂下丠個下下
下丠倔
▁下丂丟丩下丂丂丂俿下下下丂丟丩
▁下丂丟剗剗丌丟個丩
▁丂個下下丟個丟丩倃丟倀丠个
下下下丂丂下丟倅丟个
▁下倆丌下
▁丂丂丩丟下丩丟下下下丂丫丩
下丠下丂丌
▁ッ
▁丟倁个個丠
倁丩倀倆丟丟下丠个個丠
▁丂俿下丟倀丠个
▁下丂丟丫倀丂俿下丂俿下
丂個丂丫
▁丩倓懻丟下倔
下下丠丩
俿下丠下丂丂俿下
丩丫丂俿丂下丩丫丂個下下
▁丩丫丩丂個下下丂下下懶丟丩
下丂俿下丂俿下下下丂丂下丟倅丟个
▁丟丂下懶丩丩下丟倅丟个
▁下倆丌下懺丩丠個丩丌丟下丠个
倁丩倀倆丟
個丠個丠個丠
下丂俿下下下丠丩丟丂丩下下下丂下
下丂下丟下倃丂個下下
下丂丂丩丟丠個丩丌
▁丟丂下丂個下下丠个
▁懺懺丩丩丩丩丩倀
テ
▁下丂丌丂丩丂俿丂丂下
▁丩丩丌丩下丟個丟下倀倆下
▁俿下丠丟丟丂丟下丂個下下丟倁个
▁剗剗丌丂個下丂下
▁丩下丠丫倇丩丩
▁丩丩丌丂個下下下倅下倏
▁丟下丂丟个
▁丠个丩
▁丩下丟个丠丂丂倆
丫丩丩
▁丟丂個下下下丟下倃丟丩
▁倀丠丂倁个
▁と
〗
▁倝丠
▁丩丩倀丟丂下丟丂個下下
▁丂俿下丂個下丂下下倅丟个
_3
▁丂個下丂
丂丂
丩丫下懸懺丩懸懺丩
▁r
▁丂個下下下丟丩丟下丠个
▁下倆丌丠倊倁个
▁下丂丂下下丌丟倅丠個丂
▁丟丂個下下丩倓懻
▁丠個下下個丠丟丩
丩丌丫丩下丂
下倃丂個下下
▁下丟丂個下下下丟倁个
▁丂俿下丂下丂丌下丠个下下倕
下丠个丂俿下
俿下丂俿下下丫丩
▁下丂下丂個下下丂丩下倆丩
丟下丂個下下下丂下
下倅下倏
▁丟懷丟俿下倕丟倀倆丫丩
下丂丂俿下
▁フ
▁下俿下丠
▁丠下下丌丂下下下丫倇丩丩
≒
▁丟丟丂丩丫下丂下丟个
▁俿下下倅丟个
▁下倆丩丌丟个
下丂下丂俿下丩丫丌下倆丩
丂丟丩
▁丩丩丌下下倕
丠倏丩
▁下丂丟丩丟丂個下下
▁俿下下丠下丟丂俿丟丩
▁ま
下丂丂丩丟下丂個下下
▁丟丂個丂俿下
▁丩下丠丩丌丂個下丂下下丠丂
▁丟丠個下
▁丩丩下丂
▁下倆丌丟倅個丂
▁倁丩丟倀丠个
▁丟丩下丂丠倃丩丠倊倁个
▁丩丩倀丟倁个
▁丩丩丌丩下下丂下
▁剗剗丌下倂丂倏
▁下丂丂個下下下丂
▁丟丂下丂
▁懹丩丂俿下
倂倆丟
丟丟丂丟
丠個丩丌個丩丌
▁丟丩丩個下下倅丫
丠个丟倏
!
倂丂下丠丩丟丠个
▁俿下丠個丂俿下
▁下丂丌丟下丂俿下丂俿丂丂下
▁下丂下丂丩下丠
▁下倆丌下丟丂個下
▁丩倓懻丂個丂丂下丟倁丩
下懶丟丩
下丠倏丟丩
下丠個
▁丠個下下個丂倁个
懸懹丩倆丫丩
▁俿下倏
▁丩下丫丩丟丩丟下丠个
▁丠個丩丌丂個下下下丟個丟丟
▁丩丩丌丟下丂丂俿下
▁下丂下丂丠個下下
▁丟丂丟下丂個下下下丂丌個丠
▁下丂丟丩丂個下下下下丂
▁が
▁下丂丟丩下丂下丫倃丟倁个
▁丩丩倀丟下倏
▁下倆丌俿下丠个
▁下倆丌丟
▁;
▁丩丩丌下倆
▁下丫倀丩丌
▁下倆丌丠个下倁丫倇丩丩
▁下丂下丂丟丩
▁丟下丂丟丩丂丩丟丠個丩丌
丩丟下丂丟个
▁丩下丩丟下丂俿下丂倆
▁丟下丂丟丩下下丂
▁俿下丠下丂丂下丫丩丠倊倁个
▁丩丫丩丩倀丂個下丂丌丩
▁丩下丠下倂丂丫丩丩丩丩倓懻
▁丩丩丌倀丠丂倁个
▁下下倆
▁丂俿下下丂下丂丟丂個下下下丟丩
▁丠个下丂俿下丂俿丂丂下
▁下下丂下
▁下丟丂個下下丂
▁丠個丂個下丂倆
▁丩倓懻下下懹丩
丁
▁丟下丩丟下丩丂個下丂俿下
丠倏丩丌丫丩
▁下丂下丂丩下丠下倂丂丫丩丩丩
▁下懹丩下丂丌丟倁个
▁丠個下下丩丫下下丠个
▁丂俿下丟丩丟丩下丂下
ρ
下丟下丂丟丩
▁丟丟丂俿下下倅丟个
▁俿下丠下懹丩下丂下
倆丩
▁丩下下下丂個下下懶丩下丂丌
▁下丂丂下下丌丂俿下丫丩
▁丩下丠丩丌丠倊倁个
▁丠个下倁丩
▁下丂丟丩丂丁下倆丫丩倁个
▁下丟丂丩下丂下丂下
▁I
丠个下丠個下下丂倆
▁剗剗丌丟倅下懶
▁下倆丌丠倌丩
▁下下懹丩個丠
▁丟倁丩丟倁丩
▁下丂個丂丟丩下丂個丂丟个
▁丩下剗丟下丂丟个倝丠
▁丂個下下下丂個下下下丂下
丠倊下倆丟丩
▁丟個下下下倕丫丩丩丩
▁あ
▁丟懷丟丟丂俿下丟下下丟个
▁下倃丟下下丟个倁丩倀丂下丟个
▁丟倁丂個下下丂丂個下下倏
▁丟下下丂下
▁丩下丩丟下丂個下下下丂下
▁丂俿下下丂下丟下倃丂個下下
▁丂個下丂下丟倁个丂俿下
丟下丂丟丩懸丟下
▁丩丫下倂丠丂丠個下下
倁丩倀倆
▁下丂丟丩丠倏丩丌丫丩
倀倆下丂俿丂丂下
▁下丂下丫倃下丂丌丠倌丩丫丩丩丩
▁丩下下下丂個下下
▁丩下丂俿下丂個丂俿下丂丁倁个
▁丟丩丩個下下倅丫丩下丂丂下下下
▁下丟丂個下下下丠丂
▁丩丩倀丫倇丟丩丩
〞
▁下倆丌下丠下下倅丟个
下丂俿下丫倇丩丩
▁倀丠丂倁丩下丟丂俿丟丩
▁下丂丌丟
▁下倅下倏丟丂個下下
▁丂丂丟下丩丂俿丂丂下
▁丟丂個下下
▁丩下丠俿丂丂下下倅下倏下丂下
下丠个丩丫丂個下下倆丫丩
▁丩倁丂丩下丂下
▁丟丟丂丠倊倁个
▁丩丟丠丩下丠下下倆丫丩
▁倁丂下丂丌下懺丩丠丂倃
