<unk>
<s>
</s>
今
▁ぐ
▁侩
▁乔丅下丆剗丁
▁仑仮伱
▁乷侲
▁佷么仑乃丱
▁佥乃乆今仑
▁于乺乒
▁丆丁剗乔乡
▁伃併丱
▁伣乃丯丯且
▁个丁丟仢乷
▁丅乘
ζ
七亢
▁仜中丁丑企
▁仜仨乷
▁侕亲仮
▁亹仨
▁伒
倁
丝
▁于俢
▁仌丮
▁世丁乷亍乱
▁乸乆亱亏
▁九
▁业
▁乿且伲丁企
▁_
▁乥乷亍且乔
乑乷
▁亘乐
▁乆侪份
▁依仈
▁亹亹丐仏
▁乤乃乷乷优仳
▁世亹亹从
▁佝
▁m
▁乤亚
▁乤佝
▁二亙份
▁亡么乷丩丯
▁亦专亟
▁丮七乊个乪
▁丯丁人份
▁亡丁丸么侣
仱
▁伜三
乃乷亟
且乔
▁仜並仑且
▁亦保
▁些
▁久七
仑且
▁亦丙丘佋
二且
▁伕从
▁亡么专乘
▁剗剗丂丯中
乷乷优仳
▁乹亂
▁亹乃乣
亲丩丯
乶
▁伣二亩亩
▁丅乺
▁丮佋
▁仌企
▁コ
▁仌乩丯丯
▁众丁乪
串乷
丵
佂
▁乕乔
▁乆侩乱
▁乁丆乑侲
▁伫乘
供
▁住
▁份乆伉丅
▁修侶任
▁並
▁c
丹
▁仌伞人
仝
▁丿伭丁
他
▁体仑企
▁事乱
▁佾乃丽
伭
事佁
仼佾
丱中乷
▁丗且丂乚
亊丮乱
▁佶世专亞
▁从乐丯中丆乙
▁剗剗丂与侕
▁侇佬
▁二仮乒
▁伕侟俓
▁乿二仏
▁乹
併丱
丅佁
▁久七亇伓
▁伕佻佾
▁は
▁仪亹亀
ヅ
▁亹丅乩丫
▁仜丗乔
▁”
▁剗剗丂伭
_2
▁仌乔乣
▁め
▁侶任
▁佷事丛
す
▁伕世
▁佾乀云
▁乃丱丶亦
▁仜仑
▁亲仮丿伇
亼亼
▁丮侑
佴
事伛
▁侍乃丹
▁亹仮仮
▁乣仏伨
侕些
▁ピ
▁剗
▁们仝乷
▁七七乔侠
丅丁剗万
▁仌乘乷
伳
▁乘佾业丘企
▁$
フ
▁伃伈
乥乷
▁亦丗乡
丼
▁佔
▁乪么仠
▁ハ
▁侓严
▁仺乃乆丧串乷
▁乺丁乷伭
▁乧
▁亹丰乘
▁乣乤乱
▁佧个丁伱
▁伕乳京
▁仢乷份
▁佾乣乘之
▁侠
▁五
▁侩仑佂
▁乓乷丩丯
▁亥伖
▁仜从乶
▁侓伮
于且乷
▁亐
▁丆丁剗侔
▁丅侠
▁伕事丁仏
▁侺于万
中丁丑
▁伪
乳佾仝
▁七丆下亸
▁乷侇书丯丯
▁:
▁丮乣乣
▁丆依仮
▁亭丆
▁亹伛
▁事串书
Γ
▁伝人
オ
▁伕丗且丂仨
▁仌乣乘伱
▁仜仑丁仵
▁佒伭乭
▁び
▁仌亊
两丄
▁侓仑乀丯丏
▁仌伕亂乷
侟
▁併丱
伝
仓侟
中丁乷中
▁剗剗丂丑丆
佦串丏
▁ブ
乨
▁专乘乓
▁丁乢乱
▁仑仑
乘串亃
▁乤俓
乕俓
▁伃中丁乷
之
▁佻佾亂乷
▁久乷丷
亰
▁「
▁但他
▁亦
▁事亂乷丁丅丩丯
▁乆乷企
▁伕亹亸
▁乷丯丯乣
乷丱
▁伕丬仴
▁丮亲侲
▁侺乃丽
▁乃乆丧且乷仝
▁侇乥乱
▁価仪丁丗乔
▁剗剗丂乃乆么乺
▁価乃丽
丿伌
万
▁仜丙丘
似
▁H
▁佾丧丁乷
▁仸乱
乓乓
▁乆丆伯丁
伭企
▁仭
▁休丩丯
━
▁丮乡乙
▁乷仐今丁
▁亖仹
▁亪伭
体仑
▁伕丠
▁乾仌丁丱乒
▁仜例七乔
▁个乪乷仑
▁二侈份
▁仑亲仮
η
且乷
▁佒乁丆乑伭
侭
▁侜份
亦
▁伙
▁俍
▁二丱伱
▁亰
▁俆乷仐亂乷
▁佴伭佾
▁亹伪
▁事企伱丠
▁侵丝丶
▁伕亲侲
伌
俨
▁亊亼亼伣
▁し
▁亹促
▁乩伭
▁^
▁仜乘乩亀
▁仡仵
▁俱俓
▁井佌
丅乣
仰
▁丁佋
▁伜丁乷伭
▁但亢
乃丽仝
佁
▁伕佋丘仈
▁仺丶丗乺
▁仌乃丏京
▁伲侲
丿世串侺
丧二乹
▁メ
丞
倀
▁仮价丯
▁侩仢丷
▁且乔侟
丶丶丶丶
▲
▁仛伪
▁伕仟
▁乤今乷丂
▁休侲
乃仭
乑仠
▁个丁丟仮
▁侂仞
▁供仑
丗丵丆
丅乸亁
▁伕仑乀业
伞
▁个伒仝
▁世佋亟丁丅侲
▁二丆丱乡
▁乀乷
▁丩丯乀乘
▁ア
▁l
▁仑佄
乣丁丷
▁丠乷丠乷
▁乸侤
▁乩伛
▁亦使乖伛
▁亱侰
▁世仑亢
▁乷乘串亃
▁体乷亦
▁丩丯丩丯些
▁仺事专丷
▁仡
▁佦串丏
▁侣专乘
▁侺
▁丗
▁丗乺
▁剗剗丂仪丁丗乔
ぬ
▁ン
▁亥伖乒
▁仜也侉
丙丘
▁个丁丟乆乷丷
▁亹仝
▁仜乃乸乷仑丁
▁且乷
▁仌俍侨乆
▁侟佋
丯
▁伪作
乵
亊
▁俩
▁侇乧争
▁丩丅三
▁伪亲仮
乆伉丅
▁丝个乪
゚
▁个丁丟丩丯
▁事乪丠乷
▁仜乔乡
▁亦丠乷
▁俖体仑丷
▁仌丗七亢
伂
▁二亙仮
仺仺
▁仌乃乆么乺
▁们佾
▁伕丿伇
▁b
▁丙丘
▁グ
▁乨下七
仜
▁丁仹
▁佒中丁仮乒企
▁乨亦
▁乷侨举中
▁但中丁丑企
▁份亿
▁乃仭
▁但也
▁乆仗乆仑
▁乣仲
▁並于
▁伕乥乷
▁份专乘
▁们俓
▁丆丁剗下丁乷
乕
▁丆剗亯
▁乆侩乱份
▁丁仐仝
▁侩侙
▁丮什
▁丯丁伆乷乒
▁举剗
▁个丁丟佋
▁亦世乔
▁乷人
▁乷乷丁丢丁丅侲
▁の
▁丿伭
▁俖中丁乙
▁亪俊
▁丮乁乍
▁丳
▁“
▁且今丗且丂
乷丧丯
▁p
▁伃乃乷亟
亍乱
▁伲丆丁剗乒
▁亡丁丸么丗乡
你丁乷二
乷丁乩
侩乱
▁丿剗佝
▁丐乇乪
丁乷
▁世什
▁亹乃丷
▁プ
▁乤且伲侑
丁乷丧二七
仗乆仑
从
▁丁七剗丂伳
▁乃二丄
伯
▁且仑且个丈
▁丱丯乷举中
▁佧乔佾
▁価中专乘
▁佾侪
▁佷亷仑
个乩
▁ぼ
▁侍为乕伱
▁亮侭
▁佾乓
▁+
▁乴
▁乃乷亣亦
▁从
▁亜剗
▁俩于万
▁丗且丂丁乷伭
乸乷
▁佾仑丁仵
▁仌丿伭任
佯
▁乷丷
▁佷侗侳
▁俤个乺
▁伕于亷丱为乔
▁仜中乌
▁佤
▁亹乆伉丅
▁下乢亦
仌仑乪
▁乤严伱
▁佷丁严
乷人
▁书侲
▁仜业仑
▁丱中乷
▁侣中丁伹
俗
丁乩
乷体且
▁仜乩
▁仜仨
▁伩
▁也乆
▁佡人
▁9
▁丮伏
▁乹亂仦
▁中丆乙丁丅丩丯
仝乬
▁井乘
修
▁亜亠丅
伋
▁亷佾仝
▁么串也
▁丈
▁ひ
▁侇
侜
▁乿乃乣
七
▁仌乃丯丯且
▁侺中亀
▁亹件
▁但仹
▁せ
σ
▁产依亦
▁乷乹佮
▁亹个伒
▁侘
▁仑乀丯丏举中
乀丆
乊
▁亜乔乓
▁丁交
▁侺侔
▁価亏
丁佋
▁举剗个乺
▁」
▁俜
▁乷事丁仏
七个丆伱
▁仜于佰
▁乤体
▁乳丷
▁乣仏佥乕
▁丮亡么乷侲
▁亦仮
▁仺事丱中乷
▁伕亷丱
▁仺二专
▁乓乷人
丟乑
▁仜亷佾仝
▁仂仌伭
▁价丫乒
▁仮丅丁剗万
▁侙
▁亠丅伪
▁価仆
▁O
▁仑仑亷丰伖
▁丅佁且
▁侲世乔
『
▁侺俓
▁亷仑
▁仑七七亍丁丅侲
▁伕佝
▁亹侔
▁侕仁丁丅侲
▁仟交伖
▁你专丷
▁乓乷侲
▁亹丬亻
▁侇侂亷仑
侪
不
▁仜二仮乒
ジ
侕亇乯
▁俊
▁侣众丁乪
▁侚亝
事些
▁佾亡丁丷
並乷
▁亏企
▁丧丶乒
▁侕体
▁从乐侕中丆乙
▁事乇乪
乃乣
俫
乘
▁侍为乔
▁价
▁于万仑丁
▁ざ
▁侫
▁仌伕乷乷乷人
▁俖事丁仏
产
▁乿乹丁丸仝
▁侕亢
▁俩乔佷
亣
▁乨么人
▁仰
▁伕乷丷
佀
▁丁乲仐
丅乩丫
▁于亷亞
▁乿中丁亻
▁二仮乒乑
▁ム
▁书丩丯
▁丠丁丅侲
仳
▁佔並乷
▁俓份
▁亜世专亞
▁乩乱
▁仑仮
▁丯丯乣
▁仜丑下丅丅
▁乄剗
▁丆丁剗俊
▁亱亱侲
▁だ
▁乃乷
▁侍佋
▁俬伙
▁伕佧个丁伱
井
▁也
▁乷丅丧乷
▁侸伭侟
▁ィ
佦丱
亂
▁伪俞
▁×
▁丮乹俓
▁俛丮
佖
▁事串
▁世
▁S
丩
个丁丟
▁中七
▁侇仞
▁乿亩亃
▁剗剗丂乡下
▁仌丁仌乡
▁乹丧丶
▁丟乑
▁丑仐侧
▁于乷体且侺
▁伫
▁俍乆乷丷
▁並乷
专乘
亠企
侶
▁侺丠
▁亹仑丁
▁亪仹
▁俦
▁並丁严
▁乩
▁仍乀乷仝俩
二丆
▁丮乷仏
▁亿丁从
▁俆亂乓
▁佅
▁个且
▁侩丰乑
▁代丩丯乒
▁亐亚
▁俍亂乷
▁俖丧二乹
▁个丁丟丧丁乷
▁个丁丟亂乷
▁伕丿伭丁
▁丿丩丯
▁ケ
▁a
▁亊乙丐上
仟
▁久业个乪乙丐仏
▁伪中丁二丆
亓互亷丱
亊伅乷
▁东
▁久七仪乱
▁伕价乒
▁俳份
Ψ
▁伴
▁侈企
乂
伓丁
▁ツ
主
▁侺乥乷
▁伕也
▁乾乵业
▁二乬
▁伣乳京
▁亩亩今丯
▁亦丿侉
▁レ
价丫
▁世乔
▁佒中丁伆乷
▁乫丅丆侑
▁乥乷二乷
▁ね
▁侩也
乑乪
▁価书
▁侺乲乧
▁w
▁わ
▁事何
▁乷伭丁亞
▁侣份
▁亰乆丁丅侲
▁7
▁伕佩
▁伕且
▁事丁乷伭
▁佾乃丮亂丆
▁亹三
▁侇伕
▁佮乱
俾
▁仑丁仏丁丅侲
▁伕仑丙丘
▁亄
▁仑伴
▁剗剗丂件
▁亦促
仉
▁乩丆
▁仑乑乷
中专乘
▁丿伵丆份
▁丁伶
▁且么
▁亊亶乺
▁乣二且
▁亲仳
▁仜体
▁伺
▁γ
▁*
▁乺並丩丯
▁仑乀丯丏
▁伧丁些
▁世丩丯乒
▁乷丝乷乷乷
▁亹且乔
▁丮侚亝
▁们仨
▁仌乀侕
▁っ
▁体乷丸体乷丷
▁伃亿
▁但乷丅乣
▁丅乬
▁仜亷仑
侏
▁世丁丽
亥伖
▁→
▁俛伌
▁乷俏
▁乕俓
佚义乔
乷丠乷举中
▁乤且併丱
▁仑丿伵
〖
▁乸亯
▁並丁亟乔
▁丶人
丿伵
下丁乷
▁事亇乌
5
▁亖
▁ヘ
▁事丱
乳丷
▁丮丘侲
▁佷亂
▁事估
▁価且今七七二
▁侉侽
为人
亲仮
▁且今
▁仜丬乾仜丬丁严
▁乷仐乃仲
▁乾乷体且
▁丮侗侳
▁久七乥
▁俩中丁乷中
▁从伧丁亟
▁于伮
▁8
▁伍伪
▁仧俔
▁价丫丁丁
▁仺剗丁丷
▁q
▁个丁丟乷乷
▁亹俍侨乆
▁侣丁乷伭
▁亹亹亸
亣仝
▁丿伭丂侖
▁久七亇乩
亩亩
▁仜书义
▁伕乔
▁『
▁亊仰丁
▁俓人
▁亠
▁个乩
▁伕亲仮
▁仪亣三
▁信乓
仏
▁仑俆专乘
伫
▁仌乸但
▁侺丰乘
▁伕仪亰
▁剗剗丂丧丶
▁乺佋
▁価亲侲
义
佥乔
伺
▁乾乨丁中
▁亹俳
▁亹伪企
▁N
▁亹侜
▁佦丱仮
▁代
乙丧乡
▁丆依产亦体仑
▁佋仼人
▁但丨乣乷
个丈
▁亹世乔
▁亮乹佮
与
▁丗且丂乡乙
▁乷低
▁伕井丅丁剗万
だ
▁伃乃丏
▁丮乥
▁剗剗丂交侐
亠丅
▁丁伮乱
▁佾伌
伎
乗
▁仜亴丢
▁侇丁专丄乱
▁侺丅从亝
▁乙丐上
▁亇严
▁侸企
乏
▁俐任
ッ
▁享丁丅侲
ε
▁个丁俓乓
▁但乒
▁亦中丁丑专乘
▁伕亂乷
伛
▁乳佾
▁侕丰乑
▁さ
▁剗剗丂今丁
ぜ
▁ャ
▁亮亭中丁丑
▁丆侜
仲
▁亊
▁丮丩丯乒
伙
乐丙亀
▁乤件
▁乷丮乊个乪
▁众
▁乃丱丶仝
▁但丿亖企
乥
▁丮乷
▁中从
▁且丧乆也
▁乘
▼
▁乕举中
▁仜佤乕乔
乐
▁伜侰
◎
▁伕佦串丏
▁么侣
▁仑佂
▁価伲乣二且
▁伕乃仲井
▁事丗乘
▁但仪侉
丁丢
▁乃乷亟
▁ベ
▁久伧丁乷
▁R
▁亣三
▁伕亚
▁乣乷仳份
▁乷仮丅下丆剗丁
▁佾丿世乌
▁乚
▁乘乬
▁乡乐
λ
▁丆丁剗丵丆
▁份乪
丆剗乹
▁仌仑
▁丿伭丁仑
亊乣
▁侺仅乷
世专亞
▁仜伣
▁伕俍亭
▁丗且丂中丁仮乒
予
▁伣亠丅
▁剗剗丂七七並丆丩丅三
▁俧
▁了丆之丆
▁丮仑仑
侈亃
▁佔乹佮
▁享
▁丮七丆下
▁伭中丫
ヴ
▁乃丱丶
▁伕世佋亟
▁侩亂乷
▁仺丁丅侲
乳
▁亹且乷
个乪
▁剗剗丂丰乑
▁ゆ
▁且併
▁佂
▁ゾ
▁侇丅乩
▁仌丮丘
▁侩业仑
▁中丁丑乷
▁丁伺丄
Ω
为乔
伭丁
▁伕二
▁仑乥乱
▁丨乣乷份
▁亦体仑且
▁仮乍乔
▁俐亇乯
▁デ
▁丆丁剗乲乧
▁亹亂乷
▁佒中
▁侣丹乔侠
▁他丁佁份
▁仌乸乪
▁亹乀乘
▁丮乫丆
▁仜今
▁侺乃丱优仳
乔
▁乺仓伪
▁仌也乆
▁伣丁乬
▁俖俞
▁丮伩
▁亮伲丁乷仳
▁丁乷伭
▁事优丰丩丯
▁事乽
仸乐伾
▁侲仝
▁伪丷仼
▁乤
▁俆佮
▁v
▁丅伱丮丅丅丅万
▁れ
▁体仑丷
▁仌仪亸
▁乷伌
▁乸乱
▁丮俦
▁事亳乷
▁乣仏
▁丮亷丱
▁侂亯
▁佾亹中伖
▁亜丁乥
乪
▁从乐侕
▁俊丁丅丩丯
▁丗乔
▁丶乒
▁亇
佋丷
事丁
▁亦仑丁仵
▁乷乷
▁剗剗丂价
▁仍乀乷仝
▁乷众
俇
▁伪侜
▁亹亸
▁亹亡佾
▁亊侣
▁ド
▁伭亷丱
▁仜乣乤
▁)
亡
▁β
バ
▁乸乡下
七个丆
▁乆事佷
▁佾事串书
▁丁乩乷
▁伕侨
▁体人侰
▁侨丁丅侲
▁乷之
▁乷仨
▁仜伺二亱
▁但仪亖企
▁中丁乷丅下丆剗丁
伶
▁二乪份
▁七丄个丁俕
▁丆丆丅么亢
▁価亂
▁仃今专
佨伛
▁乷丱
中乌
中丁
▁世亹亹
仌伭
▁丗且丂丑丆书
▁俖丧丁乷
▁仌
▁侺仺仹
▁佥乷丱
▁丮侥
▁乃丏
▁伯
▁乕乕乕么伫
▁伕于俅
▁ホ
▁七丆下乴
▁伭令乱
▁侺但乗
▁価丧二乹
▁佅乵业
▁乃丽中乇
▁七丆下
▁丆丁剗乨丗乷
▁乾乷乒
▁仜仪也乐
▁価乿二仏
▁亹乴
▁ば
▁侉
▁伕丁乩伂
▁事丁仑丁
▁価件
▁?
▁仜侤
▁伣俓任
▁乀云
▁剗剗丂丆于伹
▁倃
▁乃丽个丐仏
▁伕亭仹
▁乧乓
▁佨
▁』
▁侺且
▁亣
▁侕乇且
亇乯
▁乃丏企
▁俛丮侥
▁个丁俓侰
▁亠丅乓
▁伕事佉丱
▁仜亠丅
仮
俛
▁个丁丟且併丱
么
▁丆丁剗乃
≧
▁侍串乷
▁う
▁伕乃丮亂丆
並丁
▁M
▁丮亷丅丨乡
▁丶丗乺
▁亜乗
▁伕亱亱仑
▁井侾
▁仠
▁七七乔乣
▁七丆下伕乾乷
▁且侤乱
▁剗剗丂亏
▁乃乷么仞
▁份于丆
丁剗亴仑
侨
▁乷丁七剗丁
▁丧二乹
▁丮体仑企
▁乀乷亇亇
乷企
丗
▁乆亰
●
▁仑亴仑
亹仨
▁侺仍俓乔
▁伕于丘
▁乹伝举中
‐
俭
伏
▁乿亗乷乯专上
亷丰伖
▁乔丩丅三
▁仃丅伙
▁中丁仮乒
▁乏
▁侣乃仭
▁、
▁丆剗乡下
▁侺亴仑
▁俍丁乬
▁亮丅伙
▁侇七丆下仑
▁亹丨丨丁
▁亦中
▁井乃亩
▁剗剗丂乷剗
▁亹佋
▁仺丗专亟
▁伕中丁人乣
丅亰
▁佒中乌
▁ご
▁侭
▁侺乽
▁丆
▁C
丙
▁仌伊今佧
▁个乪丁乷二
么乺
`
▁件
▁仜乆事丩丅三
▁丯中丁
▁久七亇
今丁
▁俓任
▁仜仪亸
▁伕侙
▁モ
▁乫丆
▁乚人
丁丽
你丁乪
▁亡丧乷
些
▁伣二伺
▽
丹丆
▁亿
丘
事丱中乷
▁亹亀
▁仜乀云
▁亊乩
▁伕侲乒
▁丗且丂乷伀
丮乱
▁乡乙
企
乤
亷仑
▁书
▁且
▁俖侚亝
▁久促
▁ァ
▁Q
▁事丰
▁仜俓
▁乷侤
カ
亩亩今
▁伪仪么亇乯
专丷
▁丗乷
▁丮侤乱
θ
▁亇亇
▁丆丁剗乀仑
丐仏
▁佋伓
侴
丫
▁二专
▁俆丰乑
▁剗剗丂乥乷
▁丆丁剗仅乷
▁剗剗丂仆
▁俤
▁仺仑亷丰伖
亶丁伭丱
▁丅亰
▁剗剗丂侤乱
▁丆丁剗亴仑
▁下七丁
▁伕乔乡
▁ダ
伓
ゼ
▁份乱
▁仑乁之
▁中丁仮乒企
▁仜侍为乔
▁仮乆亰俩
▁亀丁丅丩丯
◆
▁価亥侐
▁g
▁伲俏
▁タ
▁乤乣乆乸乷
▁乷且
▁仑仪么企亃
▁乃乆丧串乷
▁仪亸
▁仺丑丆书
▁丆剗
▁丿伯似
佪
▁个丁丟乷丧丯
仓
▁亜乃乺
▁仟
▁侇中丁乷
▁テ
乆亰
业仑
▁佾俠
伭丁亞
▁仜乷丩丯
▁仸乐伾
▁価乃乷丧乷
▁乷丅乣
▁並乸丶
▁丷
▁但丅亰
仞
▁仂乌
▁井乤丁伭丁伭丁
▁事伮
▁伃丁仑丁
▁丮乹
▁佒侕些
▁伕会
▁乸乷
▁仃乘乷
▁
▁仑仪丁丗乔
▁丿
▁剗剗丂剗丁丷
▁乕今
▁乿信专上
▁伕个丁俓
▁但亲侲
▁体侭
▁仍乀乷仝侺
▁俽什
_
▁七七个丆伱
』
▁佴伭企企
▁丰
▁ろ
▁u
▁丮仃乒
▁但些
▁乷乸乪
▁伕乃丽个
介
▁伕伲乀佷
▁仜体些
乣乆乸乷
▁仜亊乘
▁与侕仨
▁仑亹仨
▁侺乆乷丷
俆
▁乷事
▁事乷丅乷
仄
佞
▁仜乘
▁了
▁亹亹
▁ト
▁亹仑也
▁乆丆伯丁今
▁丗乘俓
▁乷
▁亴丘
▁俖俓
▁且仑且亗乷乯
▁乥乷
▁侸伭
▁乃乆丧且乷份
伿
依
▁于亘乐
亂仦
▁ち
▁仜佤仼
▁(
▁体似
▁佧
亇乌
▁俆个伒
▁事佁
▁令亦乺
▁于乷体且
俟
但
▁乿乣仏
▁中丁丑侲
▁リ
▁丘丛且
使乱伓
▁伮
▁亹丶丶亹
▁ペ
▁乷事何乹
▁乤仑丁仵
▁価丰乘企
七七个丆伱
▁俆似
▁丁伺
▁丮七仝
▁事佉丱
▁亹了之
今乷丂
▁亮侰
▁侺乾乷
亂乇
▁侈
乸乪
▁>
▁剗剗丂令亦
亡丁丷
ミ
▁丆丁剗
▁佒乙丧乡
▁亦侕亇乯
▁侕乃丯丯且
▁乙丧乡份
▁伕乑丆丆
▁仓
▁亊亸
▁亜乷丁乩
▁仃乒任
▁下丁乷
▁伕乙丧乡乓
▁佛丩丯
▁乿且伲企
▁乑
▁佩
仑丁乱
▁亢
▁亊伅乷
▁俛
π
▁体仑
▁伕从仼
▁伣丁七剗丁
▁丮乲侑
们伹
▁価侤乱
▁侓侤
▁乆伯丁
乇
乃亩
▁乃亩仼且
▁伕亂亻
▁仑丁仏丁丅丩丯
亴
▁丆丁剗丠
▁佥了之
▁伣侥
▁L
▁事丛
▁佷伭
▁伕么丣丁
▁剗剗丂丿伌
▁丁伮企
▁乹份
▁丿伵丆
▁亹丑下丅丅
▁仌乃
▁仌但些
丸仢丷丩丯
▁于二乬
▁侇二仮乒
≦
▁乃仕仳
丈
侩
▁伕从亠丅
▁乪丠乷
▁众伖
▁亹乿专上
▁侩仌中亭
▁但伫
▁亦丽串乣
▁事乨丩丅三
▁俓乷
▁亹剗丁丷
▁伕依仈
▁伕且仑且仮
▁个丁丟丧丯
▁乷于丘
】
俬
▁乥么
仢乷
▁乾乷仝
▁么
▁。
丧
▁世佋亠企
们
▁伕乩
▁剗剗丂乃仭
▁专举中
▁伕佴企
▁伕为乔
▁七丆下仑
▁亦乣串亃
▁从乶
▁丮亡么专乘
▁佾乱
▁于下乷
▁他丁丩丯
▁乗亢
▁丅
▁B
▁仌仑乩仑
▁仺且乨丁丷
井七
仼
▁乘乷企
▁乤亴仑
▁乃仲亃
佅
亢伱
侔
▁丮且
▁丁乷亍丁丅侲
▁剗剗丂中丁乷
佈为乔
▁伕
▁ュ
▁但丁伮企
业
侧
▁仐丙俓
▁仌专乘
▁且乷佾
▁丩丯乴
仍
▁丮乱
▁侺価価井
▁伃丗乺
▁伕他丁侲
▁仂亴仑丆
▁乃丏伪
▁乷仐乙丧乡
仰丁
▁侣仨仑
▁剗乱
▁丮亸
▁俤举中
▁乷仐乩丁丢
乣
▁仓伪
▁丿丨乣佷
▁佒个乪乷
▁侾
▁专
▁佒
▁ギ
▁P
▁亹乣乤乣丁丷
▁乷丅
▁井个亟
▁丅仾
▁丁伭乐
▁仨举中
▁仮乓丅丆
丅乩
▁仜予乣
佛
侶任
▁仐且乔
▁乷丬仴
▁価事丁仏
▁乤丑下丅丅
▁5
亪
乥乱
个
▁乹乘串亃
▁伕中丁亻
▁侔乒
▁仮乆亰乓
▁侖
▁侩亷仑
▁乤乃
▁伕仑
▁二亩亩
▁丁乷二
▁丮他
▁伛
▁仂
▁仜事串丈
伔
乱
▁体人仨
▁举剗乀云
乃丯丯且
于
▁事串介
▁乔
▁亹仌仑乪
▁丩丯事丁
▁f
▁ゼ
▁佾且乔
▁仜三
▁侲优伶
▁仌仓伲乔
▁伦
▁侩乘串亃
佩
▁丩中
▁个丁丟仆
▁仜乁之
▁个丁丟丅亰个丁丟个乩
▁仜仪么乔
▁佄
▁伕于
▁侰
丶
▁伕伲乣二且
▁仜乘乷
丿伭
▁乚亹俓
▁丿侲
侧乆
▁七丆下乆伯丁
▁乹亇
▁仐丘人
乆仑
▁仜乥乱
▁並丁
▁仮丑下丅丅
▁仜且乔
仑且仮
▁亹乪丠乷
▁伣俌
▁伣亊
▁仺使仁任
乃丏
▁份亪
▁丧丶
▁俍今乷丂
▁事优丰
▁七仑
▁乃乘乬
▁侗二乷
▁从乶丁丅丩丯
么丠
▁他企
▁仢乷
▁丮丁乥
▁个丁丟且
ˊ
▁乃仲井
伦
▁亜亢
乿
▁剗剗丂亂乷
▁伭企
▁们乃丽
▁佾丹
▁乷両
▁侺也乆
▁侣也
▁佶
▁り
▁t
▁丯丯中
▁剗剗丂
▁份二亙仮
▁亏乬
佼乷
▁丆丁剗乾乷
丯乷丯
▁仑么丗乡
▁侇中丁二丆
▁乓丱
▁侕仢乷份
乑丅
▁亦二侐份
▁乷伙
▁乷亡乣仁任
▁仺侕亇乯
▁ニ
▁丆丁剗仨丆
▁乷中丁仮乒
▁伭乓
▁亹乃乺
▁丁七下七丆
▁份丯
▁亣佌
▁伕世乣乣
▁乆丆世俀仝
ま
▁乤乃丱优仳
▁中丁丑企
▁伕么丷
▁乷仑仑
▁/
▁乩丆企
▁乿佝
▁亹亩亩今丯
事丛
▁仂伫
▁丝丶举中
▁乷丅下丆剗丁
▁乃丽个亚
▁个丁丟侤
▁伕今专
乆乷丷
▁剗剗丂俓
侊
▁佄企
▁侺优伶
▁ポ
▁俖亇乷
▁丰丁乩
▁仂丆侜
▁剗剗丂书
▁亡佾乒
亡么乷
▁亡么乷侲
▁価与侕
▁丆丁剗亏
▁中丁乷伱
▁仜们
俋
▁久他
乕俣
▁举亟
▁伭
▁份个丈
▁份专丷
▁ぶ
▁丩丯
亹伪
▁=
▁丮乃丽仝
▁个丁丟亡仮
▁丨乣乷
▁亮仸亭
▁业个乪乙丐仏
▁価仰
Δ
丯中
▁亊丗乡
▁乷且乨侲
▁乃乷么
▁乷以乑乪
▁価侧乆
▁亹丹
▁乃仲乔
乃乷么
▁价侠
▁乿丿伭乪专上
乷乷俓
乫丆
▁伕侖
▁亦乀
侤乱
▁乃丱丶乓
亴丢
丁侲
▁俖亥伖
▁乃丏仯丅乣
▁事亭丆
保
乆
▁乤仌中丁乷
▁丠乷
▁个丁丟剗
▁伕书
▁俘
▁丝串
∈
▁乿丁从
▁伣乣乣
▁世丠
▁丿伭任侖
▁乷乃仭
丕
▁亦侣
¥
▁佷乷
▁个丁丟亵
▁乷件
▁侇亶丁伭丱
▁い
リ
丁乥
▁3
三
▁仜乾仑
▁体丗位体且
▁伪于俢
▁佾俔
▁俍仑
▁仜仑丁
▁中乣乷
▁侇丧丁乷
▁亊亶任
▁个乪书义
▁佷侳
ω
▁伜乣
▁乤个乷伱
▁仌丮丠乷
▁亖乧乷乱
▁乨伕丑下丅丅
▁俆
▁乤丝仑些
▁丮丘且
▁乥么丁但为乔
▁亯
▁乷仐伣
▁丆丁剗乃丽
▁伕乨
▁乡下乑丅
也乆
▁仌伧
▁丗仮亦
▁丆丁剗中
▁伭乪丠乷
俯
▁仜乳佾仝
【
▁仌伕侤乱
▁亹並丁亟乔
▁ず
▁侯
▁A
▁事丠
▁乃乷么丷
▁佒中亀
▁乨么乷乷
仿
▁于亷丱为乔
▁乘乩亀
▁井丅丁剗万
▁乿乥乱
▁伕串乷
▁亲伐
▁乸丆丆丵
伙乆
且伪
▁个伒
侤
▁亣丅侠份
▁ヤ
丛
▁丁乷丧二七佷
俈企亃
▁丶亼丆为乔
▁佷亂仦
▁亹
▁俴
▁侷乔乡
▁丆丁剗丅也
▁且今侣
▁佨些
▁剗剗丂事丮丁佋
▁剗剗丂乀丆
俱
伃
乢
▁仌丑仐乳京
▁侨份
▁丮中丛
▁伣伓
▁W
▁亹佨伛
▁ク
伅
▁丿亖企
▁乃乷么乷佾
▁丁乬亀
▁佭乒
▁丮信乓
▁乆侩
▁丅下丆剗丁
▁仜乷侲
▁侺乱
▁但亠丅
▁価
▁丮侳
⊿
侲
严
丩丯丩丯些
▁仜仪侀
仩
▁侩丧丁乷
▁仺
▁丮乓
▁佦丰乣
▁佷俆佮
▁乘佾业丘
▁伕东
▁专举中侲
▁乆伉丅
▁会
伕
买
▁丮亷仑
串丏
▁俖且併丱
の
亏
▁侕佋
▁书伓
▁事丁亰
□
▁乷仏
俓任
▁伕丱中乷
▁亹乕乱
伲亇
▁乓乷
▁佻佾
▁侩仢乷
▁仺丿侉
▁丠
▁侺伧下
▁么侣份
▁侳
▁ソ
▁e
▁伕亷丰云
▁丆丁剗侖
▁剗剗丂事专亟
▁个丁丟事些
▁俖亡侲
▁丛但丁丅丩丯
▁価们伹
仑丁仵
▁仮乨伧佧
ヂ
▁乿丁从企
佨
▁俆佡仝乓
▁丮丙丁丅侲
▁仜仑乀丯丏
个伒
▁从乶丁丅侲
▁仌俊
▁事些
▁丙丘佋
▁並乷今
乃乆么乺
乲乧
▁価乔乣
▁丮仅
▁俖促
侻
▁事优丰乣
▁乣乘之
▁于乷体且佾
▁但俠
▁丐仏佷
▁亊伎丐企亃
▁乁丆乑丩丯
▁乣二且予
▁久伓
▁二仮乒任
伧
▁事乨侰
乾
▁佷
▁伕侉乀任
今乬
▁{
▁る
▁丆丁剗乱
▁仟丰乑
▁価亂乇
▁伕何
▁事久七亖么乔
▁伕俓且
▁事亳乷乒
▁丮丅侠
佾
▁丁七剗丁
▁伃乫丆
▁剗剗丂伫
▁並仑人
'
▁仑举伵
▁ナ
▁伃亲仮
▁伕乃丽个亢
仕
▁乿乹亮仝
▁·
▁乱
丐乇乪
▁事丱中乷
▁伕丧丁乷
▁佥乷乾丁
▁佾仑丁
▁乥乱
▁価佋乺
▁で
▁事串丅乸亁
▁亦亂丁佂
▁伕伮
伹
▁丁乷二份
▁井乘佷
▁仵企
▁伕佋
▁伕乃丽中乇
佹
▁亣丅侠
́
▁丮乷丷
▁仜例丶丶么侰
▁伏乷
▁丰乑伱
乃乆么乃丽
▁亦丗亻
▁価乥乷
乘乷
▁仮乃乐丶
例
佤
▁ボ
七七
▁乤世乔
ゃ
▁亹亢
▁仜丿丩丯乪
▁仟佛
▁事串佰
▁佾亲仮
▁七丆下乷
▁们乩
▁乣乷乷亞
▁伕仪
▁事侸伭
亀
▁乿乔乣
▁伕仪亢
俱俓
乧
ゲ
▁仌佋仼人
▁们伹份
▁乤乘个乪
▁伪俀仝
▁佷书
丼丁佷
▁亠丅
▁仜乚乓
▁俖丁乢乱
▁仺乷乷乷人
▁乃乷丧乷
▁仺们
▁ふ
▁伣乚且
▁乸乪
▁丿世乌
▁乿伕专上
▁丆伓
▁专他七
▁仑
′
▁侂保
▁仌仑乀丯丏
▁丮丘
▁从乐丯
▁伕乀乘
▁伕且乷佾
久
俜
▁且仑且
人
丁丷
为乕
▁伕乀云
▁伣侕亇乯
▁亜
▁伃丗仹
▁侇丅佁丁乺
▁仜乾乷
仈
▁佷伞人
▁丆于
丆份
▁份仸
▁但乵业乒
▁丅乣乘
▁仌丗乷
▁丮二乬
▁亶七么乺
▁佒伢
侜份
▁侺中丁伹
▁伕丿伭任
▁《
▁伕伧丁仹
▁仧
▁丮亖么乔
▁剗剗丂乃
ψ
侗
▁七丆下乆乷丷
▁个丁丟佅乗
▁介亦
▁伕于万
▁侕並乷
丁专
▁丅丗乔丆
▁也乷
▁亜仰仑
了之
▁中丁二丆仝
▁体且
▁个丁丟中丆乙
▁仌乓乷
乓
▁亜亖么乺
亊伎丙丘
▁仜佋
▁乓乷丁七剗丁
▁価亗乷乯
▁侣事亳乷
▁す
▁伃体仑企
▁@
▁佥
丅三
▁仮中丁二丆
▁仌乣串亃
▁亼丆份
▁伕乀
丗乡
▁丮个乓
佋
▁且今伭亷丱
▁丗书
▁仑乑乷任
丿伭丂
举中
▁令亦
▁丆丁剗伭仮
且
▁ョ
▁亹且併
▁个休
乔乔
▁侗俣
仾
▁但仑也
▁亸
▁伕乨丁丧丯丯
▁仜
▁事侪
乹世仹
▁事仠
▁乵丘佾
乡
丬仴
▁也乷侈企
▁仜仑乀业
亞
▁併亠丅侠企
■
∑
▁V
▁佒侖
▁ガ
▁丩丁丟亢伱
丗且丂仨
丅丗乔丆
▁伧下
▁丅下剗丁
▁事何乹
▁丮佫
丁乷亍
▁佥二乩
ο
▁乷侈仁
▁伪与亟
▁乆乢乒
丅乣亝
▁仑丅乬
▁丑
並
侳
亷丱
中乷
▁乷仐事伛
▁丮仰丁
何
▁仂事乱
仨
▁亊亼亼仚
▁侔
▁二侈份乱
▁仨仨侲
▁个丁丟他
▁丿伭丂侕亇乯
▁仜丗丵丆
▁仜乣乤严
▁亦中丫
▁仑仵
▁ラ
▁伣亘乐
▁乲乧
仢
二
ア
▁丿伭任
▁俣
▁伕亠丅
乮
么丗乡
▁伕乨七么乺
▁乘佾业丘任
▁伕亡佾
乃丱优仳
使乖伛
▁七七乔
▁侲
▁丯
○
▁但
▁ズ
▁d
▁丧丶丶
▁中丁乷仚
▁伭亂乷
▁亊亼亼俬
仚
侖
▁俤佤
▁仑乱
▁俆中丁乙
▁丿伵乓
▁侄乒
▁仑伙
▁伏
▁乷佷
亩
▁乆丆丁丰仚
▁価亴仑
ぴ
▁・
▁仡佂
▁习
▁丮且乷仝
▁侺佄
▁乷举中
▁丮今
▁丗且丂举中
▁セ
▁丁乷伭乒
伬乓
▁仜个亚
▁且仑且仮
▁丆丁剗中亀
▁伲亴仑
▁乿丁丠
乫
▁亴仑
俖
▁剗剗丂乃丽
▁乙丧乡
▁不丅丆
▁仃且併
▁乨么仹
▁个乪乷
▁个乪丅乩乷丧乷
▁z
▁よ
丨乣乷
▁丮丆丁剗亴仑
世乔
▁亂丹
▁侺仨丆
▁乤乀专
▁仜乍乔
▁乨七七个丆伱
▁ネ
丬亻
▁乿侅之
人仑丁
▁使仁任
丼丶
▁俆伭
▁亣亟
▁乃丯丯且
▁亹今乬
▁亇乷
▁価乷乷乷人
亷亞
▁个丁丟並乷
▁乧丢
▁乆伭丁乷
▁仜亡剗
▁丆亭
▁て
▁侕亊伅乷
▁-
▁亲侲
ヌ
▁亜乷
▁亊亶乔
▁事串佄
▁乷乏
▁什
▁仢乷俏
▁仜事使乖伛
▁举剗下丁乷
▁佒佝
_5
丁丸仝
侈
中丁亻
▁井久井久
▁剗剗丂乷丱
▁仌乃亩伭
▁価乑乷
▁丆丁剗亝丅从
▁乤仑丁仏
▁伡么丱优仳
▁仪么丗乔
仆
▁亹丅伙
佳
▁佷丵丆
俍
▁丵丆
▁伣
▁丿仗侐
▁事丁仏
▁乿侚
▁剗剗丂仰
▁ミ
▁亜乘乷
▁举剗佤
▁丨丨丁
▁亹以乑乪
▁仍乀个仝仚
七乔
▁仜仓佤乔
▁亲侠
▁事丁
▁俩享
▁亰丩丅三
▁亴仑亦
▁侩乃乷亢
丱
▁侍
▁侓丱中乷
▁侕亊乣
▁丆丁剗乆乷丷
伲依乱
▁丮佱乒
佥
▁亸丆
▁他
丁丁
▁伕佷
乣乣
▁于乷体且份
▁伕丆侜
▁仜俓乗
▁亦乆
來
乙丁丅侲
▁仜予
▁伪乩乆仑亟
乃丽
▁侺乥企
▁亱亱仑
▁俖
▁但乒人
么丁侪
▁亟
▁但乷丱
▁乀亙乀亙俓
▁丩丯丁乲仐
▁丑仐
▁乃丽个仴
▁仜么侣
▁乨亰乆
▁佋乀丆
▁仜于万
丿伭丁
▁亊丯丯乣
▁且丧乆也什
乩丆
▁お
▁侟
▁1
▁乷乣
乇且
乪丠乷
▁亮亡丩丯
俶
▁伕乃乆丧且乷
▁価亊侭串乣
▁丯乣乷侤
▁体人
▁份乃仲
▁但乃乷丧乷
▁仃乒侑
▁个乪
▁事乷乷
▁乸乣乷仳
俆佮
下
▁亩
▁々
▁俄
▁且乓乓乓
▁丗且丂仨仑
▁丮乆仗乆仑
▁亮专丷
▁佔仑乀丯丏
▁佒但乒
▁侇丮乱
▁中丁伆乷
佄
佉丱
仑丙丘
信
中丁乙
乒
估乔
▁么专丷乱
亩亩今丯
▁丑伔乐
▁G
ヶ
佗
▁丯丁亻且乇
▁乤乆仗乆仑
▁侇俩
▁俛乓
▁专丸丁丅侲
伭仑
▁伭佾
▁亊你专丷
▁亦丿七仑
▁じ
▁侑
丿伇
▁ユ
▁俖佧个丁伱
▁乓丆丆
俉
▁份于侖
▁且仑且乡下
▁丮且乷
▁侯企
仹
▁仪
≒
▁価丿伌
▁乃乷么侪
▁丮乃丽
▁丮丗书
▁仟侖
▁他丁侲份
▁乾乷三
▁仮亊乣
俳
▁丁严
▁但丶丗乺
习
▁乷丌丁丱
亟
乕乕
▁久
▁仜亖么乺
▁丆丁剗丰乘
仫之
▁侄乒侑
▁丬亻
▁但乆乷丷
▁仜事些
▁个丁丟丠
▁剗剗丂乔乡
▁丧丁乷
剗丁
丁乷二
▁丅伲乣二且
▁何
▁侣
▁キ
▁U
乆丧且乷
▁丿伭任侕亇乯
▁佾事亇乌
▁侓乑
乵业
▁乃仲
佘
▁仌俏
▁亊丮乱
▁伫乘企
▁亊丅丗乔丆
▁佨乪乌份
▁下久
乆仗乆仑
侰
▁ヨ
▁伕他
下七
▁乗
▁举中
▁俠
▁佈为乔
▁乿丟乑
亱
丷仼
▁伕伈
亍
▁佒九
▁亦乃丽
众
▁丮乲
▁乥乃丽仝佷
▁侵
▁乕乤丁丅侲
▁剗剗丂亊侭
▁丮
▁k
▁仜亰乆
▁仃乒
▁侺二伺仑
▁众仑
▁乿丬且伪
仅乷
侹
▁侇侚
▁中丛
▁伕伧丁乷
▁仌世二亙举中
▁伕佋乃丽仝
东亭
剗
▁佋份
▁丁七剗丂佥乔丮丅丅万
▁侣中丁仮乒
▁乺
以
▁中丁乷
▁仌仑乩乓
▁亜乃丽
▁亊企
▁二乪
▁仜乫丆
▁仜佝
▁亊丮乱佽
▁于乷体且乣
▁伕伞
伺仑
▁但且乇
▁仜事串
▁伃仌俠
亃
▁二亰丫
▁ら
▁y
▁価乃仭
▁事串乚
▁佧乔
▁仂丮乊个乪
丽乒
▁乸乴
久七
侸伭
▁亹侥
▁佾乘乷
▁亜丅乩乷丧乷
▁亊俗
▁丆丁剗丁从
▁佉
▁世佋亟
▁乷俓
▁佱亃
▁仜世专亞
▁伕价丫
优仳
▁乣仏云
▁乷仐丅乩
侚
▁丅丧侕乪
▁乆丆么乓
▁二侈
た
▁乷仐乀云
▁侀伈
▁亹乘串亃
▁丮仹
▁,
▁丮下丁乷
ネ
▁乨丈
佇
▁侘伪
▁丷仼份
▁価乃乆么乺
▁丗且丂伮
七丆下
▁佾亿丁
▁仜丠
▁仌亊亶任
▁づ
▁侺亏
侉
侢
亩乪
▁亡么乷乺
▁侌伱
▁係企
▁丆剗他丁丩丯
▁亲丩丯
ゅ
▁丮丈
▁丆丁剗为乔
▁仮乆丆乐乔
▁丆丁剗亯
▁丰乑
▁乿仑丁乱
▁仌仾
▁丆丁剗也乆
东
▁伢
专亟
▁マ
▁仂仍俓乔
侽
▁仪么企亃
▁二
▁丮七仝亀
▁于万乇
▁亊乘
▁们俓丁丅侲
▁丮估
▁仺仑也
侵乱
亖
▁份仨
▁世丁丽乓
▁俖亷仑
▁中专乘
▁仜业个乪乙丐仏
▁ほ
▁佾个仑亃
▁佻佾丗书佾份
▁乷侕
▁乤丬丁乷
▁不丁佷
▁且乓丱
佚
▁从乶丆
あ
▁仐丛专
乃乆丧且乷
▁丿伵
▁但係企
乆么
▁亡剗
▁丗丁乣
▁乿乣乤专上
▁乃乷亢
仑乀丯丏
▁仜乽
▁仌伲亴仑
侇
他丁丩丯
▁丮体乷
▁伧丁乷企
▁专举中乷
以乑
▁个丁丟
▁体
▁侈伭乭
▁于乆仗乆仑
▁伲且併
▁伭么伫
▁仜亡么乷仚
▁伕乙丧乡
▁个乪丅乩丫
▁但举亟
▁仌伴
▁乃乆么乃丽
▁佾佋伓
▁中丁乙
丰
▁0
▁乤亿
▁亷伭丱
▁乸串
▁仑仪么丗乔
▁中也乷
▁佾乆乷丷
▁丮乸且乷
▁亷丱
▁乸乆亱乌
▁但事侪
▁丿伇
▁乩便
▁伕侣仨
丆丁剗
▁丮保
▁侓俊
七么乺
侕
▁价丫
▁乿乳佾仝
▁仜丅丗乔丆
仼丫
▁俆专伺
▁乏仝
▁亹二专
▁丁乩
▁伕丹丆
剗丁丷
▁乑乷
▁乃丽个
▁个乪但些
▁丮仑丁
〕
俠
▁专丸丁丅丩丯
▁亹伢
▁俅
▁侇七
▁F
レ
▁二伺
▁七七个丆仗
▁佻佾份丗仮
▁伕以乑侠
▁仌仂
▁丑丆乧
▁伭侠
▁乆亰乌
▁丮专乘
▁乕乱
佉
▁佉丱
▁仌丗
▁価仙
▁仺佩乣
▁価佋伓
▁た
▁伕乃乷亟
▁于乿个仑亃
▁丁
世
▁丧丯
▁中丁二丆
亱侲
▁亜且乷
▁久乃乷亟
▁侕仑丁侭
▁仺乸乪
丧串乷
▁亹东亭
亂乷
佅乗
▁乤侭
#
▁个丁丟俞
▁亩亩乹
▁仌丅佁体且人
▁伕二亩亩
▁剗剗丂丆剗亂仦
▁丰乑丩丯
亜
▁侶乹
▁伣丙丘
▁个丁丟侜
▁久众丁乪
京
▁俳
伻
乕乔
▁〈
▁个丁丟为乷
丁丱
乆丆
▁伃伧丁乷企
▁パ
▁丮丵丆
也
▁仌中人
▁亹乣
丶乐
▁仺丁丅丩丯
▁云乱
▁佖
▁乷仵
▁オ
▁T
▁亂人
▁伕他丁丩丯
丶丗佾
▁亣侔
▁仹
▁侺侵乱
▁剗剗丂亲丩丯
▁个仑亃
ν
▁佾佂
▁仌介
▁伟
▁仑乃乷亟
▁伝
▁伣並乷
▁乤伈
丠
▁ル
▁剗剗丂乃乘丷
▁个丁丟乩丆
▁丅从亝
▁仌丵
▁佧个乷乷乷
▁伺二且佥乔
▁亩下
▁乾乷份
▁̄
乀乷
▁伕仜仨
▁侩乚且
▁俤事佁
丆剗
▁剗剗丂乏
▁中
▁j
▁亐仝
乳京
▁久七什
▁伜伫
▁侺亲仮
▁伕么串亸
Σ
▁乕
▁丑丆乧丁丅丩丯
▁侇事佁
▁丮乆亰乌
▁伲丁乷仳份
▁侕乑丆
串
▁丆丁剗仺仹
▁仜仌仑乪
▁乷仐侟俓
▁但乗
▁乤丩丯
丅乷
令
丅下丆剗丁
▁亹严
▁乥伍
▁亂乇
▁伕个伒
▁体丗丆丁剗体且
▁丆丁乯伝亸
▁亹优伶
▁亡么乷
▁伕佴伭企
伪
▁丆丁剗且
▁丁七剗丂东丶
乔乣
▁个丁丟仑仵
▁世乓
▁丆丁剗佅乗
▁仐丘侠
▁仌丑伓丁任
▁乷下乢亦
▁価乀丆
▁仜伌
▁乷仐侜
▁佒个乪
▁侗乪
▁侇伕侤乱
乹佮
▁于伓
▁伏乷亦
乘个乪
事侪
▁仮乩丆
▁伕侤
▁侗伱
丗仮
▁亹侕些
仌中丁乷
▁伕佖
▁伕乑乷
▁书义
▁ザ
▁x
▁伕书义人
▁乥企
▁伺侖丱
俔
▁乤伧下
▁乃乺
▁仜侤乱
▁亩乓
▁伳
▁于佰
▁仜伲乣乘
▁丮乲侲
▁乷中丁乷
▁丼丁佷
ナ
▁乹乪丠乷
▁伃休侲
▁乆丆么亸
▁亂伭
▁个丁丟令乱
▁佾丬仴
▁丁乬乒
▁仺佄
▁亜伙
▁仓伲乔
▁つ
▁佱乒
▁乆丆么侰
▁μ
▁俤下丁乷
▁乹伣
▁乸亭丆
▁価乃乆今仑
▁乷仐书义
▁仜严
▁や
仪亸
▁伕佛
什
▁乣侖份
▁乄丁乺
亣乓
▁仜丿丩乩
▁事何佷
▁乀久
▁乥伛举中
▁丆丁剗侵乱
▁佧乔乣
▁侕伫
▁久丨乣乷
▁亹丳亭
▁亏
▁乺丅丁剗万
中丁乷
▁但亡佾
▁二伺仑
▁中仼佾
▁佷事
▁伕乩丆
俏
▁亡么乷仚
▁亭
▁亮侫
▁亹佩
亴仑
▁佾乥乷亍亀
▁且丐乇乪
▁亊丅乣亝
▁侲乒
▁乷乓
▁乷侔
▁事些人
▁を
丝乷乷乷
▁亜亚
▁乃亩
▁伬乓
▁侕且乷佾
▁丩丯仝
丧乷
▁侣伮
▁亹乱
▁乨乓丱
▁佷乨丁丧丯丯
▁佾
▁佾佳
▁佮
▁俖丅亰
丁仑丁
▁乃乷亣予任
▁丮丠乷
▁仜亊
▁仜中也乷
▁乷个丈
▁仸丫专乒
▁伕仑伱
▁侗丅书
▁但乗份
▁侲事丠
▁伕仓伲乔
▁乷亴业仑
伞人
▁个丁丟亷仑
伣
▁丝丶
亹
▁久中丁乙
▁乺侾
▁伕专剗
▁乣仏乑乷
▁丯丁乷
且併
▁乤专乘
▁佧乔侠
▁乷侶任
▁乷丿丩乩
▁亦亠佋亟
▁仜乣丯丯
亜仝
▁个丁丟乀乘
▁仑体仑
▁え
▁丆丁剗且丐乇乪
▁丁从
▁仌专举中
▁伃休丩丯
侒
▁乸亂乇
丅
▁个丁丟体且
▁乀
▁乥么丁丹
下丆剗丁
▁井乆丆伯丁
▁个丁丟侗乩
▁仚
υ
▁亹乣乣
体乷
▁丱乑丁丅丩丯
▁伃且併丱
▁乘丷
▁亦份丗仮
▁伕仍乷乷俓
▁伕丅
▁丳亭
▁剗剗丂丧丯
▁価事丮丁佋
▁事丱侯
亯
丣丁
丿丨乣
▁俍二乪
▁伕乣乘
▁专举丯伦
▁乃丽个个乪
▁举剗丬乔
丷
▁亹俊
▁丆丁剗乷丱
▁丮体
▁么丅亞
▁久七乥侑
▁俤乀云
▁仜俏
乫丅丆
▁ぞ
▁侓
丧乹
▁E
▁仂亷仑
▁亊丠
▁乘乷
▁丆丁剗乃伺仑
中丛
▁俊丁丅侲
▁仨
▁亮亭丙丘
▁仌仂什
伴
▁伕么丅亞
丁乷亍乱
▁丮乷人
▁俆世专亞
侠
▁佾业仑
丰乑
亝
▁井七
▁伃丗
▁亹乥乷亍乱
▁亠乩
▁乷仐丅亰
▁事丮丁佋
▁仌丗乷企
仪伇
份
▁于且乷
▁亊乣
▁乁丆乑伭
伇
▁丮且併
▁丧
▁丰乑侲
▁侥
▁乄亖么乺
乢乱
代
▁[
▁乷亴亢
▁カ
▁低
▁仾
丅书
▁佦串丏乓
▁举剗乁丆乑伭
▁仌亊伎丣任
▁亮亭伌
▁乃乸乷仑丂丁丅丩丯
仢丷
▁伞
▁俆亖
侾
↓
▁仌么丁侪
両
▁个丁丟且乷
▁丠丁丅丩丯
仵
▁于丘
▁仜会
▁乆亰乑
▁丮丿仗侐
▁乃丽
▁们侟
▁丁乻乐
丠乷
▁乙丐上丁丅侲
▁丆剗丗乡
▁伕丠乷
▁丮们伹
乬
▁丼丶
▁佛侲
▁乃乆世亀丁丅侲
√
▁仌伟
▁ス
▁i
▁剗剗丂亴仑
▁乸且乷
▁俽乣
▁丿伭丂
▁》
▁事佰
▁丁乷
▁伮亦
佬
▁侺仌丗乷
▁佧严
▁仌仮乆亰伖
▁亮中亀
▁ー
ぷ
▁亹侗伖
仦
▁中仸乐伾
▁个丁丟丆剗丗乡
▁乷丿丩丯乪
▁伃乆丆乐丶
▁仑且
▁伌
▁乣串乤予任
仪丁丗乔
▁乡下
乺
▁亹亦丗仮
▁乃丽仝
▁侓佝
▁仜乃
▁事仹
▁个丁丟俓
▁乣
▁乥么丷
▁俬
▁专他七企
▁侀仍乷乷俓
▁丆丁剗不且
▁佾乓乓乓
▁丆剗乑
▁俏企
▁丯丁
丁乷伭
▁乹世也
▁佋
▁侣乚
▁丮乓丆丆
▁丅伱
▁シ
仑
ぇ
▁乷乷乷乷人
▁俖侜
▁亠乣
乓乷
▁体丄亀丁丅丩丯
▁侓世专亞乱
丁乺
▁丁乬乒乣
▁但乘
▁个丁丟伝
▁乸亹
▁ノ
▁于且乷乒
▁仌乃丏
丽
▁久七仪乱乪
▁中丙丁丅丩丯
▁亹丗书佾
▁佾佨些
▁丮乔
乃
▁丆依亦
▁乿为乔
▁么丹
乣乘
▁に
▁伧下伱
▁亦丁乷丧二七
▁丧二乹乒
▁俩乃乣
丧二
▁佽
▁乀亙乀亙
▁乤体仑丷
▁丮佄
▁乨乡下
佰
▁佾乃仭
▁但仪七仑
乀云
▁’
▁亮乄亭
▁于
▁バ
▁乨么
▁侣乔乣
▁以乑乪
ょ
▁乸乷丩丯
▁仜仪丁丗乔
乆么乺
▁乷仐丷仼
▁亹乚且
▁仑丙丘
▁丆剗仪侀
▁仜乆乡
俎
▁伕乾乷
△
▁べ
▁仂乣乷仳
▁佒为乔
▁乷乷仁乷乷
乾乷
▁事串乘企
▁乵丘
▁価伫
▁ん
ラ
乃乷
佋乺
▁丯中
▁侺俊
▁亦仪亖企
▁侩侕份
▁伕乃乣
▁佾乀丶乐
侅
▁乃乷亟乫丆
丁仏
▁仜予任
▁侕乩
▁丗仮
▁亊伎丙丘
▁乤仓侟
丶丶
▁仜事
▁仜丆乆么侰
▁乧丁丅丩丯
▁丮佨
俐
▁伕佼乷
▁个丁丟亝侚
▁乷丩丯
▁么丣丁
▁俕
▁丮亚
▁亹众乡
▁6
乆伯丁
▁俖伟
▁侕乚且
▁且今亹
▁仺伭
▁们乷
▁丮世乔
▁佶丁乷二
丗乷
▁仡仝
▁亦中丁亻
侅之
▁乷亹亸
下乢亦
▁く
▁仜仰丁
▁侀
▁仟丑丆书
丆
▁体仑且亀
▁亗乷乯份
▁仜于亘乐
▁乷乷丁両丁丅丩丯
▁±
▁仌乃丽
▁仛
τ
▁丅佁丁乺
▁仜么串亸
▁仜事串书
▁亹丷仼
▁価乳丷
▁丁乫
乷丌
▁剗剗丂亂乇
▁俛亡佾
乐侕
▁乤仑丁
▁侇乸且乷
▁促
ヲ
▁侺丨乣乷
▁举剗事佁
▁专举丯些
亐
▁丁乩佷
▁佥企
▁俩乀乷
》
俢
▁丮乃乷么丠
▁侺侗侳
亸
▁そ
▁D
▁仟亲仮
_12
▁仮他
ヵ
仺
▁佷乙丧乡
▁佦丱仨
▁伕事丁伮丱
▁仡侗侳
住
▁亹中丁二丆
使仁任
▁仑剗丁丷
仌
▁伕仌仑乪
亘乐
▁亹乔
▁丿剗
体仑且
価
▁価俓
▁伕侨丿丩丯
▁.
∕
〔
俙
▁乣仏丿剗
▁伕事丱中乷
七丆下亹
▁伕侚
▁丁丅丩丯
▁但仑
伈
▁亹事
九
▁亴仑任
亢
▁乤体乷
▁仌且乷
▁乃乆世佂
▁Z
▁エ
▁佾仌仑乪
乣串亃
▁侇乧争人
▁七丆下丯
佝
▁伣仮仮
▁こ
佦
▁ロ
▁伣佝
▁事习
丢
便
▁伏乷侖
グ
▁七仑丷
▁亂乷
▁乷仐丘丿丨乣
▁乃侕
▁亹仑丁仵
二乷
乻
▁仜仌伭
▁亀丁丅侲
会
▁侬仝
▁侺乑丆企
▁乨
▁世乣
▁俩东丶
丆剗丗乡
▁侩个伒
▁丁侈亃
▁亜伒
▁亹亹仹
▁保份
从亝
▁份乁之
▁仢丸仢丷丩丯
▁且今俓
▁仜乥乷
▁仜住
▁但仍俓乔
乑
▁伕俱
▁佾亽
▁丮丅三丩丯
▁ウ
▁h
▁侩亏
▁佴侪乒
▁伕乃丱乘仳
▁伕优伶
▁了丆之丆仪亢
丯丯
▁仜乀乷
▁仜丷仼
▁丆丁剗乷丁乩
▁仑仑仑
▁事伛
▁亊丆依亦
▁伃
丮丁佋
▁仜伩
▁中丁乷之
丁佷
丯丯且
丬
▁乹世仹
▁佾亰
▁伲伃俓
▁剗剗剗剗丁
▁伕侈仁
▁侕亜仝
▁剗剗丂乷
▁乨七乜乺
乃乷丧乷
▁丮亢
▁侺乷丌乪
且乷佾
乹
▁伲侺乒
▁佌
▁仧世乔
▁乣串乤予乓
▁剗剗丂剗
▁丗且丂乃仭
▁~
▁也乷伝
▁併亠丅侠
▁ゴ
▁乿丁
▁丿丨乣乑仠佷
丅伙
仐
▁个丁丟侈亸
▁丁丧丯丯
乷丷
▁丗且丂
▁剗剗丂丗专亟
佧个丁伱
佡
▁亹也
▁乣二且乍乔
▁亹乃仭
▁份乾
▁伱
▁チ
乴
▁仜仌中丁乷
▁伕佶世专亞
▁仑丁
▁伭乣乣
▁事亢
▁亂乓
▁剗剗
▁乾
▁伕仿
▁于亡佾
▁介俓
▁侇体
▁丯丁乙丁丅侲
▁体仑且
伉丅
▁な
丩丯
▁丮与且伪
▁乷仐
▁伣仑丁乱
▁も
▁侕伭亷丱
▁仺仹
▁伣乹世仹
▁他丁侲
▁伕仢丷
▁中乌
▁乨伙乆
▁佨伛
▁乣乘
▁亣乀云
亓互
▁丮乃乆么乃丽
▁亹亷伭丱
▁丮丁乥丹
▁亊亶任份
_1
▁‘
▁%
▁乙丐上丁丅丩丯
▁乏乔
▁ビ
体且
▁丮乆乡
俁
▁个丁丟今丁
▁伧
▁亲仮
▁伕乘乷
亇亇
▁丮举亟
▁侺丁从
▁仓佥乔
▁伣乡乙
▁中也乷乙丐上
▁丑仐乳京
▁丆丁剗中丛
▁伕乘乩亀
▁丗且丂丁丧丯丯
▁乤乪丠乷
▁侈仁
俊
▁へ
▁乧争企
▁丐中丁乷中
▁你
▁乩俓乱
▁丯丁亻乔
▁乤丁仑丁
▁亹乷
▁今
▁丿丨乣
▁剗剗丂乾
▁丮专
侣
▁仌仑乩乺
▁亮乃乷亟
▁伕从乶
▁乨么乓
▁乤俬
俓
乀
▁佥且伲企
▁体乷乒
中丁仮乒
▁仡乥乱
▁伣亶丁伭丱
▁亩亩
▁俍佤
▁亹伫
▁乀乘
▁丮仠
▁侺为乔
▁侲並乷
▁乃丽个亢份
▁<
个丁
▁个丁丟丧丶
▁仌伧佧
仸
▁乷仐伓仑
▁ぎ
▁侃
▁亓互亷丱份
▁乹仮仮
▁亹丿仗侐
▁亹中丁中乷
▁仌乀侀
▁°
▁七丆下今乷丂
▁侇佾乓
仪亢
乃丱
▁仪么乔
▁久俓
乷乷
侐
▁丆二丅万
ぱ
▁个丁丟体仑丷
亭
▁乆乡
▁乷仆
▁丁专
侀
▁但丯伖並乷
丩丅三
伯丁
▁伃佋
▁仜乷
▁乆丆俊
▁仜体侭
▁侓个仑亃
▁仜亂丹
と
▁亮仸乐伾
《
▁]
▁丬且丩丯
▁侕
▁但俓
▁侮乙丐上
▁伪中丁乷丯乷丯
▁K
▁侲乴
▁丩丯並乷
义乔
▁于仞
▁価亂乷
▁仮
书义
亽
▁丩中乒
▁丗乡
▁丿伌
▁亹依仈
▁伲価俓
▁倃侑
▁伕乑丆丆人
▁侩乃丯丯且
丑
▁伭乆乡
▁乔丆
▁乕乕乕人
▁丅丧乷
▁亷
▁们伹
▁世乎丁丅丩丯
▁乷且乨丩丯
中伖
▁久举中丩丯
▁乺仓伲乔
二专
俷
乁丆乑伭
▁丹
丁丅丩丯
▁侌
▁ォ
▁Y
▁伜从
▁亡么乷乣
▁丗七亢
▁亊伎丙丘乣
仑仵
▁亦仑
▁侇乃丽个个乪
▁亜乕企
▁乆丆伭丁乷仁
▁伭乥丐书丁乷乱
▁俖串乷
▁乇且
▁专丷
▁仌乀侤
▁久丗亻
▁事专丷
▁仜侸伭
▁げ
▁侧
侼
▁伕亖么乔
▁乷东丶
乣乤乣丁丷
价
▁俖乆乷丷
▁剗剗丂佋乺
▁伕丑下丅丅
▁仸乐伾俓
丙丛
▁乆
▁亹佡丧串乷
▁仂井举亟
▁伜
▁仌仑乪
▁侭任
▁侩亴亢
▁仜剗
▁乃侭仳
▁乤乃丹
云
▁乓
▁佾也
▁乆事丩丅三
▁侺乃乆今仑
▁亦侜
▁伜丩丅三
串乣
▁仌伝
▁佥乔
俹
▁伕人仑丁
▁佛
▁侗侳
丿伭丂侖
倃
▁个
▁o
▁ェ
ゥ
▁伃仓伲乔
▁亡么乷丷
▁事串丟乑
Φ
▁业但丁丅侲
▁份不且
▁仂佷
▁乥
キ
▁乷丙丘
▁丆剗仪
▁亦乆侪
▁仜伮
中
▁亹丢乷乕丁
▁仌丰乑
▁乃丱
亇
▁俖亊乘
▁二乬伦
▁亴丢
▁佭佬
▁丁丽
▁久伈
伍伪
▁佡仝乓
▁仑亷丰伖
▁仺乀丆
乸
▁乤乆伭仑
▁亹佦丱
▁乸专丷
▁乣乆亞
▁サ
▁}
κ
▁丗且丂中丛
举
▁伕体
▁亜乷侠
你
▁価丧二乃丏
▁伣亹亹丐仏
▁举剗举中
▁仟事些
▁仌们
▁亦伫
▁丿丨乣乑仠
▁仢丷
▁伭丠
▁丬丁乷
▁事使乖伛
▁俤二乬
▁剗剗丂今丗
▁伕丁丢
▁乤于亘乐
乩乆仑亟
亖企
▁估
中亀
▁例丩丁乷丁丱
▁丮丆亭
▁伕仑丁仵
▁ど
▁丮中丫
▁七丆下丮今
▁佾侜份
▁価中丁乷
ド
▁乿
▁仑侟俓
仇
▁仅
▁份仢丷
▁丮侲乒
▁侣为乔仚
▁于专乘
▁丝仌丗乷
▁仫之
佶
▁伃佂
▁俍乷
▁伕亊亶乔
▁亡么乷丅乷
俽
▁丶
▁s
シ
▁予
伟
亙
▁伕侨丁丅侲
▁七七个丆丩丅三
伲亴仑
▁仜仑丁仏
▁佒伫
▁丨丧丁乒
书
▁体丗乄体且
▁丁伺企
俀
▁伕七丆下亭
▁且乔
▁亹亿
▁ヒ
▁仂亰乆
▁亦乀侀
▁&
▁丅亱份
▁仃丘
丆侜
▁丮丰乑
▁侲丁乲仐
▁亹亹伛
亹么
▁価伭
▁み
▁仜乷仏
伱
▁亦丮乱
▁侺乥么丹
▁伣估
▁亡丁丸
▁仺丠
▁佡
▁侟伭亷丱
▁侓乱
▁亭乬
▁介
▁俛乑万
▁亲亃
▁个丁丟亡丩丯
▁伕乷丧丯
▁佨乿个仑亃
▁佒乷乷乷乹
▁仑丁仏业
▁乑丆
亴业仑
▁乃丮亂丆
▁亊乫丅丆
▁亡佾
▁事优丰乇
▁侇乫丅丆
▁侺下丁乷
▁中丁亻
亼
▁亴亣仝
▁亚
▁俓
丁从
丁严
伅乷
▁侇们伹
▁伕二丱伱
▁乨剗剗丂
ト
▁体丗侧
▁並丁亟乔伪
▁仟仺仺
俒
▁但何
▁伪乃亩
▁剗剗丂且丐乇乪
▁仪亱侶任
▁侂
▁仌乩伛
▁侵乱
▁き
▁今乷丁
佋亩亩人
▁4
佸
▁か
▁伕价丫专
▁丅下丆剗乹
▁−
▁仌仑且
享
▁侺享
▁丁乬
▁二丆丰侺
▁乷乷乷
▁丆丁剗丨乣乷
体
二乪
侑
体侭
二亙
▁伣亡佾
▁依之
▁举剗佷
▁从佾
▁価亥伖
φ
▁2
▁个丁丟亡
▁伕仑伺
▁侟体
▁佴企
▁侇伪乩乘
▁仌仑乩
▁佧个丁侰
▁侇七丄丁乺
〉
俤
▁亦亂乯
▁伕佨伛
▁仜于且乷
▁佷伭侠
亲
▁举剗他丁丩丯
▁伡么
▁J
▁佒乩乆仑亟
ン
▁並乷任
▁亦中丁二丆
▁么丗乡
▁丅佁份
▁体乷丷
▁亿乷
▁仜乃乆丧且乷
▁乃乷丧乷並乔
▁乿个仑亃
▁事亂乷
仪
▁但乷
乌
▁亹丬丁丽
佷
▁仺伝人
▁俤世乔
▁伣丿丨乣
▁事串什
▁丮俈企亃
▁但乣串亃
▁仨丆
▁剗剗丂中专乘
▁且么侠
Λ
伊
乛
▁但亇亇
▁佴丷
亠
▁〜
▁乨亦体丄
▁丷仼
▁亶
▁乨剗剗丂乀丆
▁俏
亳
▁亊二丆
▁亹亡剗
▁佒侜
▁今乒
于伓
▁佒丁从
▁个丁丟亊亶乔
优
▁且乷仝
丁七剗丁
▁け
▁X
▁侩佄
▁俖仆
▁亹乣串亃
▁亦事专丷
▁久举丯伱
件
▁份
▁仜乣乣
▁份习
▁伕侩
▁亮丩丅三
▁且仑且中也
▁仍伲么亇
亭丆
但些
▁伓
▁伲亇
▁亹众
▁仜么丗乡
▁丙丁丅侲
▁仜为乔
▁仜乔佷
▁ワ
▁侘丑丆书
▁估丑下丅丅
▁俽
▁丣丂
▁仟丶
▁亲
▁亮乣乣
仑丁
▁仑丁仏
▁亮且乷佾
≈
▁乧仝
乩
▁亊乃乷亣亦
▁作
▁亹俓
▁佾为乔
▁仌仑仮
▁佦丱
▁価乥么丷
▁亂丯
▁n
▁価丰乑
▁イ
▁伏丁丅丩丯
仠
▁伕亹中伖
伷
▁亹丢
▁侇侣乌
佑
▁丮侺
▁ジ
▁伣修
▁丆丁剗享
▁仂乆丆丼乡
▁企
▁並仑且
▁α
▁価佱仝
丮
▁亮
▁佴伺
▁仌佤
▁井乆伯丁
▁于万
▁仜伯
̇
▁久丿伇
▁乷仐仪侉
▁份世乔
▁丗亻
▁仜乷乷乷人
▁佾事些
伮
乷
亄
▁乫丅丆
么丅
▁事亂乷丁丅侲
▁ゲ
▁|
▁井乷佷
δ
伭亷丱
▁仑世专亞
▁丮佚义乔
▁亹丅乩乷丧乷
▁且併丱
丅侲
▁中乌乒
▁乃亩伭
书义人
佧
▁亦丿剗企
▁乀仑
丁伭丁伭丁
▁仜乑乷
▁丗且丂侤
今乷
事
丸
▁ッ
体丄
仒
丧丁乷
▁剗剗丂亥伖
乻丶丶丶丶
▁丁七剗丂中丁二丆
▁侕丆侜
依之
▁仜件
乆乡
丙丁丅丩丯
▁伣伧丁乷
▁侇伪乬
▁丮乗
▁侲体乷
▁仅乷
▁伃丈
テ
▁乸
亰乆
▁二亙仮乣
▁亜伝人
二乬
▁丬且伪
▁乿亼丆专上
世乌
丱伱
▁伕丅仾
▁丁七剗丂
▁と
〗
▁仜价丫
▁事丱乷丧丯
▁俩乩丆
▁事丱亱丩丅三
▁佰
▁你丁乷二
▁亹侖
▁俍乴
▁丆丁剗俓
▁r
丗亻
▁む
▁伕乚人
任
▁丗仹
▁丯丁乷丯乒
▁仑也
▁个丁丟佈为乔
併
▁侘乘串亃
促
▁丁于
▁丁剗丅万
丿仗侐
▁今乬
▁フ
▁乆亰亏
▁乿侜
▁事
▁也乒
▁侧丿丩丯
▁侪份
▁份伲亇
▁侕亷丱
▁乷丽乒
▁侕亊
▁俆专乘
▁仒伺
伲
▁乸乪企
▁ま
▁侇依之
▁乃乆么乺
休
▁乤从
▁中丁丑
▁佥乕丮丯丯
▁亜佂
专上
▁仪些
▁俛乑丆
亡佾
▁仜乃丹
▁亡丁丷
▁伡么乷乷优仳
▁佾乃乆么乃丽
▁仜予乓
▁丆丁剗並丁
▁伜估
▁亮亿
!
▁亊並乷
▁世乣丆
▁伕丑伔乐
▁乃乆世
▁丰乘
÷
▁井
▁俆俓
▁伕乕俓
▁事伫
▁丮中丁伹
众丁乪
▁七七乔仮
▁仜仌
▁仜仪
伲乔
〞
▁亦乡乐
俕
▁亹个丁俓
亀丗乔
▁侇俍仑
▁が
▁亹丝丶
▁伕乁丆乑伭
▁个伒仝侠
▁侇亹伪
▁佾书
▁专乘
▁;
▁仌伕
▁仞
▁亊亼亼
▁丮丁伭丁伭丁
▁仂亭
▁仌伕乌
仑些
▁中丫
乃乺
▁侣举中
伧丁乷
丁丅侲
丁
▁仑丁侭
▁侕份
▁亮亭
么仑乃丱
▁俖且
▁乇乪
▁剗剗丂乑乷
▁侨仝丁从
▁伲並仑且
▁乩俓伭
▁伕事
ρ
▁侺侖
〈
中丫
▁侷于万
▁俞
中丁二丆
▁I
▁丆丁剗丙丛佋
▁丮伟
▁乷仐亂乷
▁佾佖
▁伕二亙仮
丬乔
▁侤乃丽仝
▁个丁丟伯
▁侇伉丅
▁丮个仑丁仵
亖么乔
佌
▁仂乀乷
▁仑乃乷亟亀
▁丆丁剗亲仮
丁丅
▁伕乀侀
▁あ
▁业仑
丰乣
专
企伱丠
▁份乓
侥
─
丅乸
▁们
俀仝
乩丁丢
丁伺
▁中丆乙亦
▁伕丅丧侸乪
▁乹亰乆
▁七丆下佤
▁佒亂乇
佡丧串乷
▁丁七剗丂乀乷
乚
▁今乷丂企
▁仌亴仑
▁乃
▁俌
▁伕亲丩丯
▁仐丘
▁亹佋乺
▁侺个且
亹亸
▁伕亷丧乹
▁仌伭
▁亮佝
▁乹且乔
▁佼乷份
▁乷乓乒
俩
▁乧丁丅侲
